{
  "version": "1.0",
  "truncation": null,
  "padding": null,
  "added_tokens": [
    {
      "id": 0,
      "content": "<pad>",
      "single_word": false,
      "lstrip": false,
      "rstrip": false,
      "normalized": false,
      "special": true
    },
    {
      "id": 1,
      "content": "<s>",
      "single_word": false,
      "lstrip": false,
      "rstrip": false,
      "normalized": false,
      "special": true
    },
    {
      "id": 2,
      "content": "</s>",
      "single_word": false,
      "lstrip": false,
      "rstrip": false,
      "normalized": false,
      "special": true
    },
    {
      "id": 3,
      "content": "<unk>",
      "single_word": false,
      "lstrip": false,
      "rstrip": false,
      "normalized": false,
      "special": true
    }
  ],
  "normalizer": null,
  "pre_tokenizer": {
    "type": "ByteLevel",
    "add_prefix_space": true,
    "trim_offsets": true,
    "use_regex": true
  },
  "post_processor": null,
  "decoder": {
    "type": "ByteLevel",
    "add_prefix_space": true,
    "trim_offsets": true,
    "use_regex": true
  },
  "model": {
    "type": "BPE",
    "dropout": null,
    "unk_token": "<unk>",
    "continuing_subword_prefix": null,
    "end_of_word_suffix": null,
    "fuse_unk": false,
    "byte_fallback": false,
    "ignore_merges": false,
    "vocab": {
      "<pad>": 0,
      "<s>": 1,
      "</s>": 2,
      "<unk>": 3,
      "!": 4,
      "\"": 5,
      "#": 6,
      "$": 7,
      "%": 8,
      "&": 9,
      "'": 10,
      "(": 11,
      ")": 12,
      "*": 13,
      "+": 14,
      ",": 15,
      "-": 16,
      ".": 17,
      "/": 18,
      "0": 19,
      "1": 20,
      "2": 21,
      "3": 22,
      "4": 23,
      "5": 24,
      "6": 25,
      "7": 26,
      "8": 27,
      "9": 28,
      ":": 29,
      ";": 30,
      "<": 31,
      "=": 32,
      ">": 33,
      "?": 34,
      "@": 35,
      "A": 36,
      "B": 37,
      "C": 38,
      "D": 39,
      "E": 40,
      "F": 41,
      "G": 42,
      "H": 43,
      "I": 44,
      "J": 45,
      "K": 46,
      "L": 47,
      "M": 48,
      "N": 49,
      "O": 50,
      "P": 51,
      "Q": 52,
      "R": 53,
      "S": 54,
      "T": 55,
      "U": 56,
      "V": 57,
      "W": 58,
      "X": 59,
      "Y": 60,
      "Z": 61,
      "[": 62,
      "\\": 63,
      "]": 64,
      "^": 65,
      "_": 66,
      "`": 67,
      "a": 68,
      "b": 69,
      "c": 70,
      "d": 71,
      "e": 72,
      "f": 73,
      "g": 74,
      "h": 75,
      "i": 76,
      "j": 77,
      "k": 78,
      "l": 79,
      "m": 80,
      "n": 81,
      "o": 82,
      "p": 83,
      "q": 84,
      "r": 85,
      "s": 86,
      "t": 87,
      "u": 88,
      "v": 89,
      "w": 90,
      "x": 91,
      "y": 92,
      "z": 93,
      "{": 94,
      "|": 95,
      "}": 96,
      "~": 97,
      "¡": 98,
      "¢": 99,
      "£": 100,
      "¤": 101,
      "¥": 102,
      "¦": 103,
      "§": 104,
      "¨": 105,
      "©": 106,
      "ª": 107,
      "«": 108,
      "¬": 109,
      "®": 110,
      "¯": 111,
      "°": 112,
      "±": 113,
      "²": 114,
      "³": 115,
      "´": 116,
      "µ": 117,
      "¶": 118,
      "·": 119,
      "¸": 120,
      "¹": 121,
      "º": 122,
      "»": 123,
      "¼": 124,
      "½": 125,
      "¾": 126,
      "¿": 127,
      "Â": 128,
      "Ã": 129,
      "Ä": 130,
      "Å": 131,
      "Æ": 132,
      "Ç": 133,
      "È": 134,
      "É": 135,
      "Ê": 136,
      "Ë": 137,
      "Ì": 138,
      "Í": 139,
      "Î": 140,
      "Ï": 141,
      "Ð": 142,
      "Ñ": 143,
      "Ò": 144,
      "Ö": 145,
      "×": 146,
      "Ø": 147,
      "Ù": 148,
      "Ú": 149,
      "Û": 150,
      "à": 151,
      "á": 152,
      "â": 153,
      "ã": 154,
      "ä": 155,
      "å": 156,
      "æ": 157,
      "ç": 158,
      "è": 159,
      "é": 160,
      "ê": 161,
      "ë": 162,
      "ì": 163,
      "í": 164,
      "ï": 165,
      "ð": 166,
      "ô": 167,
      "ā": 168,
      "Ă": 169,
      "ă": 170,
      "Ą": 171,
      "Ć": 172,
      "ć": 173,
      "ĉ": 174,
      "Ċ": 175,
      "ċ": 176,
      "č": 177,
      "Ę": 178,
      "Ġ": 179,
      "ġ": 180,
      "Ģ": 181,
      "ģ": 182,
      "Ĥ": 183,
      "ĥ": 184,
      "Ħ": 185,
      "ħ": 186,
      "Ĩ": 187,
      "ĩ": 188,
      "Ī": 189,
      "ī": 190,
      "Ĭ": 191,
      "ĭ": 192,
      "Į": 193,
      "į": 194,
      "İ": 195,
      "ı": 196,
      "Ĳ": 197,
      "ĳ": 198,
      "Ĵ": 199,
      "ĵ": 200,
      "Ķ": 201,
      "ķ": 202,
      "ĸ": 203,
      "Ĺ": 204,
      "ĺ": 205,
      "Ļ": 206,
      "ļ": 207,
      "Ľ": 208,
      "ľ": 209,
      "Ŀ": 210,
      "ŀ": 211,
      "Ł": 212,
      "ł": 213,
      "Ń": 214,
      "Ġt": 215,
      "Ġa": 216,
      "in": 217,
      "er": 218,
      "en": 219,
      "es": 220,
      "he": 221,
      "on": 222,
      "Ġs": 223,
      "Ġc": 224,
      "or": 225,
      "at": 226,
      "Ġp": 227,
      "Ġd": 228,
      "Ġthe": 229,
      "re": 230,
      "an": 231,
      "ar": 232,
      "Ġo": 233,
      "is": 234,
      "it": 235,
      "al": 236,
      "Ġan": 237,
      "Ġm": 238,
      "Ġf": 239,
      "ĠĠ": 240,
      "Ġl": 241,
      "Ġw": 242,
      "ing": 243,
      "Ġb": 244,
      "as": 245,
      "ic": 246,
      "ed": 247,
      "ou": 248,
      "Ġin": 249,
      "Ġand": 250,
      "Ġto": 251,
      "ent": 252,
      "ĠÐ": 253,
      "Ġe": 254,
      "Ġof": 255,
      "ion": 256,
      "ro": 257,
      "Ġde": 258,
      "le": 259,
      "os": 260,
      "Ð¾": 261,
      "Ġh": 262,
      "om": 263,
      "Ġu": 264,
      "ac": 265,
      "Ðµ": 266,
      "Ġy": 267,
      "Ġn": 268,
      "ad": 269,
      "Ġth": 270,
      "il": 271,
      "el": 272,
      "ĠT": 273,
      "Ð°": 274,
      "ÑĤ": 275,
      "id": 276,
      "et": 277,
      "im": 278,
      "qu": 279,
      "Ð¸": 280,
      "ec": 281,
      "Ġg": 282,
      "am": 283,
      "ol": 284,
      "Ġre": 285,
      "Ġis": 286,
      "ĠĠĠĠ": 287,
      "iv": 288,
      "ĠA": 289,
      "st": 290,
      "ur": 291,
      "Ð¾Ð": 292,
      "ĠI": 293,
      "à¸": 294,
      "ut": 295,
      "ĠS": 296,
      "Ñģ": 297,
      "ig": 298,
      "Ġcon": 299,
      "Ð½": 300,
      "est": 301,
      "Ġfor": 302,
      "Ġun": 303,
      "Ġv": 304,
      "ÑĢ": 305,
      "Ġen": 306,
      "ow": 307,
      "ĠC": 308,
      "ir": 309,
      "Ġr": 310,
      "ce": 311,
      "Ġpro": 312,
      "ot": 313,
      "ul": 314,
      "ation": 315,
      "ers": 316,
      "Ġla": 317,
      "if": 318,
      "Ġqu": 319,
      "ch": 320,
      "Ġst": 321,
      "Ġcom": 322,
      "em": 323,
      "Ġyou": 324,
      "un": 325,
      "ay": 326,
      "Ġbe": 327,
      "Ġal": 328,
      "ab": 329,
      "ct": 330,
      "Ġ1": 331,
      "ly": 332,
      "Ġon": 333,
      "ith": 334,
      "Ġas": 335,
      "ter": 336,
      "th": 337,
      "Ġsu": 338,
      "od": 339,
      "ĠE": 340,
      "ĠP": 341,
      "Ġthat": 342,
      "ag": 343,
      "ess": 344,
      "ĠThe": 345,
      "Ġwh": 346,
      "Ã³": 347,
      "ate": 348,
      "ist": 349,
      "ant": 350,
      "us": 351,
      "um": 352,
      "Ġit": 353,
      "Ġwith": 354,
      "ĠM": 355,
      "av": 356,
      "Ġor": 357,
      "ci": 358,
      "Ġex": 359,
      "Ġus": 360,
      "Ġque": 361,
      "Ġare": 362,
      "Ð»": 363,
      "Ġse": 364,
      "ĠW": 365,
      "Ġcan": 366,
      "ĠD": 367,
      "ĠB": 368,
      "ĠH": 369,
      "ri": 370,
      "Ġ-": 371,
      "ver": 372,
      "ain": 373,
      "ke": 374,
      "ĠL": 375,
      "and": 376,
      "Ġ2": 377,
      "op": 378,
      "ld": 379,
      "ect": 380,
      "pl": 381,
      "Ġel": 382,
      "Ñĥ": 383,
      "Ġ(": 384,
      "ĠG": 385,
      "ĠF": 386,
      "Ġpar": 387,
      "iz": 388,
      "ort": 389,
      "ÃŃ": 390,
      "end": 391,
      "ap": 392,
      "Ã³n": 393,
      "Ġhe": 394,
      "Ðº": 395,
      "Ã¡": 396,
      "ĠR": 397,
      "Ġtr": 398,
      "ere": 399,
      "Ã©": 400,
      "ud": 401,
      "ive": 402,
      "Ñı": 403,
      "Ġim": 404,
      "oc": 405,
      "ity": 406,
      "Ñĭ": 407,
      "igh": 408,
      "ill": 409,
      "Ġ\"": 410,
      "Ð¼": 411,
      "ment": 412,
      "ies": 413,
      "oun": 414,
      "ÑĮ": 415,
      "Ġcomp": 416,
      "Ġne": 417,
      "Ġes": 418,
      "ĠN": 419,
      "Ġch": 420,
      "ore": 421,
      "ĠĠĠĠĠĠĠĠ": 422,
      "og": 423,
      "Ð²": 424,
      "rom": 425,
      "Ġby": 426,
      "per": 427,
      "Ġpl": 428,
      "Ġle": 429,
      "ure": 430,
      "Ġpr": 431,
      "act": 432,
      "'s": 433,
      "ust": 434,
      "all": 435,
      "Ġwas": 436,
      "ine": 437,
      "ould": 438,
      "ang": 439,
      "ich": 440,
      "ĠÐ¿": 441,
      "ie": 442,
      "pt": 443,
      "ĠIn": 444,
      "ĠTh": 445,
      "Ġimp": 446,
      "ĠO": 447,
      "ue": 448,
      "ave": 449,
      "Ġyour": 450,
      "Ġwor": 451,
      "00": 452,
      "our": 453,
      "te": 454,
      "ence": 455,
      "Ġres": 456,
      "ial": 457,
      "Ġsh": 458,
      "Ġ3": 459,
      "iÃ³n": 460,
      "Ñĩ": 461,
      "ight": 462,
      "Ġsp": 463,
      "ÑģÑĤ": 464,
      "ions": 465,
      "Ġfrom": 466,
      "ia": 467,
      "ide": 468,
      "Ð´": 469,
      "ĠÐ²": 470,
      "age": 471,
      "ib": 472,
      "Ġat": 473,
      "ell": 474,
      "Ġinc": 475,
      "du": 476,
      "Ġar": 477,
      "Ġuna": 478,
      "Ġso": 479,
      "ff": 480,
      "se": 481,
      "Ġab": 482,
      "Ġest": 483,
      "ĠU": 484,
      "cc": 485,
      "ical": 486,
      "pp": 487,
      "orm": 488,
      "âĢ": 489,
      "are": 490,
      "ome": 491,
      "Ġlos": 492,
      "Ġme": 493,
      "Ġad": 494,
      "ak": 495,
      "Ġdes": 496,
      "Ġk": 497,
      "ient": 498,
      "low": 499,
      "ĠÐ¸": 500,
      "able": 501,
      "Ġcont": 502,
      "ame": 503,
      "ach": 504,
      "à¹": 505,
      "Ġj": 506,
      "ard": 507,
      "ost": 508,
      "ĠÑģ": 509,
      "Ġhave": 510,
      "ĠJ": 511,
      "so": 512,
      "ult": 513,
      "Ġpara": 514,
      "ve": 515,
      "ast": 516,
      "Ġte": 517,
      "Ġint": 518,
      "ake": 519,
      "Ġcl": 520,
      "out": 521,
      "ip": 522,
      "Ġwe": 523,
      "Ġper": 524,
      "fer": 525,
      "ind": 526,
      "ra": 527,
      "ĠÐ½": 528,
      "Ġnot": 529,
      "Ġser": 530,
      "ass": 531,
      "Ġcre": 532,
      "Ð·": 533,
      "Ġ=": 534,
      "ual": 535,
      "ÐµÐ½": 536,
      "ener": 537,
      "ack": 538,
      "ther": 539,
      "form": 540,
      "Ġ4": 541,
      "ans": 542,
      "ĠIt": 543,
      "gr": 544,
      "Ġ5": 545,
      "Ġpu": 546,
      "ï¼": 547,
      "aciÃ³n": 548,
      "der": 549,
      "ru": 550,
      "ire": 551,
      "ä¸": 552,
      "ep": 553,
      "Ġman": 554,
      "ite": 555,
      "ĠWh": 556,
      "ÑĢÐ°": 557,
      "Ġtheir": 558,
      "ific": 559,
      "Ġdat": 560,
      "Ð¾Ð²": 561,
      "ari": 562,
      "ous": 563,
      "ated": 564,
      "art": 565,
      "Ġmore": 566,
      "Ġgr": 567,
      "ces": 568,
      "Ġwhich": 569,
      "ice": 570,
      "Ġlo": 571,
      "gh": 572,
      "ber": 573,
      "Ġhas": 574,
      "ound": 575,
      "Ġdis": 576,
      "ge": 577,
      "ime": 578,
      "Ġdel": 579,
      "Ġpre": 580,
      "ations": 581,
      "ok": 582,
      "ign": 583,
      "ile": 584,
      "Ñħ": 585,
      "ase": 586,
      "ens": 587,
      "ear": 588,
      "Ġem": 589,
      "ado": 590,
      "Ġthis": 591,
      "Ġdif": 592,
      "ong": 593,
      "Ð¿": 594,
      "ĠÐ¾": 595,
      "Ġno": 596,
      "ace": 597,
      "pr": 598,
      "idad": 599,
      "ance": 600,
      "Ġinter": 601,
      "Ġgo": 602,
      "ough": 603,
      "ional": 604,
      "--": 605,
      "Ġalso": 606,
      "ĠÐº": 607,
      "vel": 608,
      "Ð¹": 609,
      "ãĢ": 610,
      "Ġdo": 611,
      "ien": 612,
      "Ġsuch": 613,
      "Ġincl": 614,
      "çļ": 615,
      "Ġcons": 616,
      "çļĦ": 617,
      "ÐµÑĤ": 618,
      "Ġfe": 619,
      "be": 620,
      "ï¼Į": 621,
      "ĠV": 622,
      "xt": 623,
      "one": 624,
      "ks": 625,
      "Ġmod": 626,
      "ry": 627,
      "ĠY": 628,
      "tic": 629,
      "Ġam": 630,
      "int": 631,
      "Ġimport": 632,
      "her": 633,
      "Ã¡s": 634,
      "Ġhel": 635,
      "ĠK": 636,
      "ech": 637,
      "ĠThis": 638,
      "ount": 639,
      "ple": 640,
      "Ġro": 641,
      "ier": 642,
      "Ġ19": 643,
      "les": 644,
      "lo": 645,
      "ary": 646,
      "Ġlas": 647,
      "Ġrec": 648,
      "ater": 649,
      "ÃŃa": 650,
      "ĠÐ¼": 651,
      "Ġout": 652,
      "Ð±": 653,
      "erson": 654,
      "Ġev": 655,
      "Ñİ": 656,
      "Ġfol": 657,
      "Ġother": 658,
      "Ġhelp": 659,
      "Ġpued": 660,
      "Ġup": 661,
      "Ð¾Ð»": 662,
      "ord": 663,
      "Ġsy": 664,
      "ĠSt": 665,
      "Ġpe": 666,
      "ĠÐ´": 667,
      "io": 668,
      "Ġwill": 669,
      "Ġuse": 670,
      "ction": 671,
      "cri": 672,
      "ory": 673,
      "Ġthey": 674,
      "ely": 675,
      "ÑĤÐ¾": 676,
      "Ġdata": 677,
      "ÑĤÑĮ": 678,
      "ning": 679,
      "Ġacc": 680,
      "Ġused": 681,
      "aj": 682,
      "Ġcol": 683,
      "ÑĢÐµ": 684,
      "Ġfollow": 685,
      "ÑĤÐµ": 686,
      "Ġbut": 687,
      "Ġcomm": 688,
      "ese": 689,
      "Ġli": 690,
      "Ġits": 691,
      "Ġabout": 692,
      "Ġob": 693,
      "Ġall": 694,
      "de": 695,
      "ada": 696,
      "ĠEn": 697,
      "ail": 698,
      "Ġform": 699,
      "Ġone": 700,
      "ular": 701,
      "01": 702,
      "ov": 703,
      "Ġinclud": 704,
      "Ġtime": 705,
      "ne": 706,
      "ica": 707,
      "Ġfun": 708,
      "Ãº": 709,
      "Ġprov": 710,
      "olog": 711,
      "Ġstr": 712,
      "ree": 713,
      "Ġent": 714,
      "Ġprodu": 715,
      "Ġ6": 716,
      "ĠUn": 717,
      "pe": 718,
      "ĠAn": 719,
      "Ð³": 720,
      "ors": 721,
      "we": 722,
      "``": 723,
      "Ġpor": 724,
      "Ġpos": 725,
      "Ġsome": 726,
      "Ð¾Ð¼": 727,
      "ents": 728,
      "Ġperson": 729,
      "Ġbet": 730,
      "now": 731,
      "til": 732,
      "Ġnew": 733,
      "atur": 734,
      "Ð½Ñĭ": 735,
      "Ġhis": 736,
      "Ġele": 737,
      "stem": 738,
      "ĠCh": 739,
      "Ð½Ð¸": 740,
      "ft": 741,
      "ĠÑ": 742,
      "Ġapp": 743,
      "wo": 744,
      "Ġrel": 745,
      "Ġsol": 746,
      "Ġsent": 747,
      "ject": 748,
      "ef": 749,
      "Ġact": 750,
      "Ð»Ð¸": 751,
      "Ð½Ð¾": 752,
      "ating": 753,
      "ates": 754,
      "iven": 755,
      "Ġwould": 756,
      "rit": 757,
      "Ġinto": 758,
      "con": 759,
      "ish": 760,
      "Ġmay": 761,
      "ark": 762,
      "Ã±": 763,
      "ÑĢÐ¸": 764,
      "Ð¾Ð³": 765,
      "Ġif": 766,
      "Ġthem": 767,
      "Ġimportant": 768,
      "ick": 769,
      "Ġ*": 770,
      "Ġdec": 771,
      "Ġcu": 772,
      "dit": 773,
      "Ġind": 774,
      "af": 775,
      "eng": 776,
      "Ġalg": 777,
      "ose": 778,
      "Ġnum": 779,
      "arg": 780,
      "aus": 781,
      "Ġcomo": 782,
      "äº": 783,
      "ons": 784,
      "Ġover": 785,
      "iones": 786,
      "Ġinv": 787,
      "Ġ8": 788,
      "ful": 789,
      "oy": 790,
      "Ġdiffer": 791,
      "ll": 792,
      "Ġph": 793,
      "ased": 794,
      "02": 795,
      "Ġmake": 796,
      "ĠÐ½Ð°": 797,
      "Ġneed": 798,
      "Ġany": 799,
      "ente": 800,
      "Ġvari": 801,
      "ĠâĢ": 802,
      "ãĢĤ": 803,
      "Ġco": 804,
      "Ġfollowing": 805,
      "put": 806,
      "Ð¾Ð´": 807,
      "erg": 808,
      "ible": 809,
      "Ġ7": 810,
      "ize": 811,
      "ĠWhat": 812,
      "Ġprogr": 813,
      "Ġmu": 814,
      "Ġtwo": 815,
      "uc": 816,
      "ond": 817,
      "ays": 818,
      "mer": 819,
      "cess": 820,
      "Ġsc": 821,
      "ert": 822,
      "ros": 823,
      "Ġlist": 824,
      "Ġeff": 825,
      "ange": 826,
      "Ġmost": 827,
      "Ġsystem": 828,
      "Ġlike": 829,
      "Ġcar": 830,
      "Ġwork": 831,
      "ĠHe": 832,
      "Ġresp": 833,
      "Ġgener": 834,
      "ä»": 835,
      "Ð¶": 836,
      "Ġshould": 837,
      "bl": 838,
      "tr": 839,
      "ities": 840,
      "Ġwho": 841,
      "ĠmÃ¡s": 842,
      "ild": 843,
      "plic": 844,
      "ciÃ³n": 845,
      "ug": 846,
      "Ġty": 847,
      "ict": 848,
      "ian": 849,
      "Ġknow": 850,
      "Ġap": 851,
      "ople": 852,
      "cia": 853,
      "Ġcould": 854,
      "az": 855,
      "ĠAd": 856,
      "Ġhum": 857,
      "ings": 858,
      "ics": 859,
      "velop": 860,
      "ten": 861,
      "ÑĪ": 862,
      "echn": 863,
      "Ġusing": 864,
      "erm": 865,
      "Ġmed": 866,
      "ãģ": 867,
      "à¸²": 868,
      "als": 869,
      "Ġmodel": 870,
      "ble": 871,
      "Ġbr": 872,
      "Ġinform": 873,
      "cial": 874,
      "ÐµÐ½Ð¸": 875,
      "irst": 876,
      "Ġexam": 877,
      "Ġbec": 878,
      "Ġval": 879,
      "19": 880,
      "que": 881,
      "ower": 882,
      "ood": 883,
      "Ġwhen": 884,
      "Ġexper": 885,
      "ob": 886,
      "Ġ|": 887,
      "ĠLa": 888,
      "Ġher": 889,
      "ÑĨ": 890,
      "ĠÐ±": 891,
      "reat": 892,
      "45": 893,
      "Ġreg": 894,
      "Ġhow": 895,
      "),": 896,
      "ify": 897,
      "Ġspec": 898,
      "ise": 899,
      "ds": 900,
      "Ġlear": 901,
      "åı": 902,
      "Ġserv": 903,
      "Ġpeople": 904,
      "Ġag": 905,
      "oth": 906,
      "res": 907,
      "row": 908,
      "Ġworld": 909,
      "aking": 910,
      "Ġthere": 911,
      "42": 912,
      "Ġpol": 913,
      "Ġpo": 914,
      "eg": 915,
      "48": 916,
      "ĠAs": 917,
      "Ġplay": 918,
      "ode": 919,
      "ys": 920,
      "Ġbu": 921,
      "Ð°Ðº": 922,
      "Ġset": 923,
      "Ġprogram": 924,
      "Ġac": 925,
      "Ġver": 926,
      "Ġke": 927,
      "inal": 928,
      "49": 929,
      "à¸²à¸": 930,
      "pen": 931,
      "ism": 932,
      "Ġinst": 933,
      "ative": 934,
      "ido": 935,
      "ores": 936,
      "rough": 937,
      "ustom": 938,
      ").": 939,
      "Ġhigh": 940,
      "Ġpart": 941,
      "ility": 942,
      "Ġcomple": 943,
      "Ġ<": 944,
      "ider": 945,
      "ruct": 946,
      "Ġmet": 947,
      "41": 948,
      "angu": 949,
      "Ġ9": 950,
      "47": 951,
      "Ġunder": 952,
      "its": 953,
      "43": 954,
      "46": 955,
      "Ġthan": 956,
      "Ġtechn": 957,
      "urn": 958,
      "Ġsim": 959,
      "ween": 960,
      "Ġprocess": 961,
      "Ġtrans": 962,
      "fic": 963,
      "ade": 964,
      "Ġmy": 965,
      "Ġ0": 966,
      "ĠÑĩ": 967,
      "ĠÑĤ": 968,
      "Ġreal": 969,
      "Ġsec": 970,
      "Ġbl": 971,
      "ando": 972,
      "Ġbetween": 973,
      "ement": 974,
      "Ġhad": 975,
      "Ġz": 976,
      "Ġmany": 977,
      "40": 978,
      "ĠAl": 979,
      "tern": 980,
      "Ġsm": 981,
      "Ð¾Ð¹": 982,
      "eb": 983,
      "Ġdef": 984,
      "Ġdevelop": 985,
      "ph": 986,
      "Ġsentence": 987,
      "ĠHow": 988,
      "ced": 989,
      "alth": 990,
      "Ġ#": 991,
      "Ġbo": 992,
      "Ġdifferent": 993,
      "Ġi": 994,
      "Ġcustom": 995,
      "ÐµÑĢ": 996,
      "Ġrequ": 997,
      "Ġbeen": 998,
      "ĠÐ·": 999,
      "ps": 1000,
      "Ġfirst": 1001,
      "Ġcor": 1002,
      "Ġcap": 1003,
      "Ġson": 1004,
      "Ġaut": 1005,
      "Ġlangu": 1006,
      "elf": 1007,
      "æľ": 1008,
      "Ġwhat": 1009,
      "ments": 1010,
      "Ġpop": 1011,
      "Ð»ÑĮ": 1012,
      "ĠYou": 1013,
      "ife": 1014,
      "ax": 1015,
      "amb": 1016,
      "Ġ10": 1017,
      "gan": 1018,
      "cl": 1019,
      "Ġthrough": 1020,
      "ential": 1021,
      "Ġeach": 1022,
      "Ð½Ð°": 1023,
      "ÑĤÐ¸": 1024,
      "Ġenerg": 1025,
      "bre": 1026,
      "ĠCon": 1027,
      "ting": 1028,
      "po": 1029,
      "ĠÐ½Ðµ": 1030,
      "ices": 1031,
      "ĠÂ": 1032,
      "Ġwere": 1033,
      "ivers": 1034,
      "urr": 1035,
      "ew": 1036,
      "ĠEst": 1037,
      "Ġway": 1038,
      "ÑģÑı": 1039,
      "Ð¾Ð¶": 1040,
      "to": 1041,
      "ited": 1042,
      "ä½": 1043,
      "und": 1044,
      "Ġproduct": 1045,
      "Ġincre": 1046,
      "Ġdr": 1047,
      "ath": 1048,
      "Ġwhile": 1049,
      "Ġsk": 1050,
      "Ġgiven": 1051,
      "ĠEl": 1052,
      "wor": 1053,
      "Ġ[": 1054,
      "ages": 1055,
      "Ġpres": 1056,
      "ern": 1057,
      "//": 1058,
      "ĠCom": 1059,
      "Ġdist": 1060,
      "ee": 1061,
      "ied": 1062,
      "Ġtext": 1063,
      "Ġutil": 1064,
      "ĠDes": 1065,
      "Ġplan": 1066,
      "Ġret": 1067,
      "own": 1068,
      "Ġmin": 1069,
      "ĠĠĠĠĠ": 1070,
      "ÑģÐº": 1071,
      "ock": 1072,
      "ida": 1073,
      "Ġav": 1074,
      "Ġyear": 1075,
      "Ġweb": 1076,
      "Ġ{": 1077,
      "Ñī": 1078,
      "Ġfl": 1079,
      "ident": 1080,
      "ÑĢÐ¾": 1081,
      "Ġexample": 1082,
      "Ð²Ð°": 1083,
      "ition": 1084,
      "Ġ'": 1085,
      "wn": 1086,
      "ĠĠĠĠĠĠĠĠĠĠĠĠĠĠĠĠ": 1087,
      "ĠÑĥ": 1088,
      "cul": 1089,
      "Ġredu": 1090,
      "Ġcal": 1091,
      "era": 1092,
      "ink": 1093,
      "Ġsign": 1094,
      "----": 1095,
      "Ð»Ñı": 1096,
      "à¸Ļ": 1097,
      "ĠAI": 1098,
      "Ð¾Ð½": 1099,
      "Ġdep": 1100,
      "ature": 1101,
      "__": 1102,
      "ware": 1103,
      "89": 1104,
      "any": 1105,
      "Ġcomput": 1106,
      "ub": 1107,
      "Ġthese": 1108,
      "co": 1109,
      "ales": 1110,
      "Ġhuman": 1111,
      "Ġesp": 1112,
      "Ð¾Ð±": 1113,
      "Ġsi": 1114,
      "ina": 1115,
      "Ġresult": 1116,
      "Ġget": 1117,
      "âĢĻ": 1118,
      "Ġadv": 1119,
      "Ġexpl": 1120,
      "ĠEs": 1121,
      "Ġtem": 1122,
      "ution": 1123,
      "ĠPro": 1124,
      "Ġdi": 1125,
      "blem": 1126,
      "Ġwhere": 1127,
      "Ġwell": 1128,
      "ational": 1129,
      "ology": 1130,
      "Ġmain": 1131,
      "Ã©s": 1132,
      "Ð»Ð°": 1133,
      "ron": 1134,
      "ados": 1135,
      "Ġmuch": 1136,
      "cept": 1137,
      "ric": 1138,
      "Ġpuede": 1139,
      "ĠAr": 1140,
      "ause": 1141,
      "Ġrem": 1142,
      "Ġet": 1143,
      "iel": 1144,
      "\",": 1145,
      "ĠCre": 1146,
      "rite": 1147,
      "ca": 1148,
      "50": 1149,
      "Ġhealth": 1150,
      "83": 1151,
      "ever": 1152,
      "ĠÃ": 1153,
      "Ġpot": 1154,
      "Ġlanguage": 1155,
      "lect": 1156,
      "Ġart": 1157,
      "yth": 1158,
      "fl": 1159,
      "86": 1160,
      "hed": 1161,
      "82": 1162,
      "80": 1163,
      "iss": 1164,
      "Ġconsider": 1165,
      "'t": 1166,
      "æĪ": 1167,
      "uring": 1168,
      "77": 1169,
      "ĠIf": 1170,
      "Ġbus": 1171,
      "Ġinclude": 1172,
      "à¹Ī": 1173,
      "Ġloc": 1174,
      "Ġsub": 1175,
      "ren": 1176,
      "åħ": 1177,
      "Ġmat": 1178,
      "ily": 1179,
      "Ġtas": 1180,
      "ĠEx": 1181,
      "Ġ+": 1182,
      "10": 1183,
      "Ġchar": 1184,
      "Ġche": 1185,
      "ante": 1186,
      "Ã©n": 1187,
      "12": 1188,
      "Ġfind": 1189,
      "Ġcreate": 1190,
      "Ġvis": 1191,
      "```": 1192,
      "ativ": 1193,
      "Ġnumber": 1194,
      "Ġallow": 1195,
      "port": 1196,
      "ized": 1197,
      "Ñĸ": 1198,
      "Ġcount": 1199,
      "cript": 1200,
      "pport": 1201,
      "ically": 1202,
      "line": 1203,
      "Ġnec": 1204,
      "Ġthen": 1205,
      "85": 1206,
      "Ġfam": 1207,
      "aph": 1208,
      "red": 1209,
      "Ġed": 1210,
      "Ġmov": 1211,
      "Ġlong": 1212,
      "Ġproblem": 1213,
      "Ġpower": 1214,
      "Ġ```": 1215,
      "Ġass": 1216,
      "Ġclass": 1217,
      "Ġever": 1218,
      "Ġenergy": 1219,
      "ues": 1220,
      "à¸Ń": 1221,
      "ience": 1222,
      "ĠRe": 1223,
      "Ġprovide": 1224,
      "stand": 1225,
      "Ġbest": 1226,
      "ÐµÐ¼": 1227,
      "Ġstud": 1228,
      "Ġequ": 1229,
      "Ġaf": 1230,
      "com": 1231,
      "Ġtu": 1232,
      "Ġutiliz": 1233,
      "Ġatt": 1234,
      "æĺ": 1235,
      "arm": 1236,
      "Ġtod": 1237,
      "Ġstart": 1238,
      "Ġlead": 1239,
      "ts": 1240,
      "ious": 1241,
      "99": 1242,
      "Ġour": 1243,
      "Ġexp": 1244,
      "ines": 1245,
      "ward": 1246,
      "hip": 1247,
      "Ġhab": 1248,
      "87": 1249,
      "get": 1250,
      "ios": 1251,
      "å¤": 1252,
      "Ð¼Ð¸": 1253,
      "è¿": 1254,
      "Ġimpro": 1255,
      "Ġprovid": 1256,
      "Ġlife": 1257,
      "old": 1258,
      "Ġwater": 1259,
      "ĠFor": 1260,
      "rib": 1261,
      "ĠGener": 1262,
      "pres": 1263,
      "Ġshe": 1264,
      ");": 1265,
      "iron": 1266,
      "Ġ}": 1267,
      "Ġfact": 1268,
      "rol": 1269,
      "Ġide": 1270,
      "Ġtake": 1271,
      "iness": 1272,
      "\".": 1273,
      "ved": 1274,
      "Ð¾Ð²Ð°": 1275,
      "15": 1276,
      "ix": 1277,
      "ety": 1278,
      "ĠÑį": 1279,
      "Ġinformation": 1280,
      "Ġelect": 1281,
      "ta": 1282,
      "encia": 1283,
      "ĠÑĢÐ°": 1284,
      "ĠCl": 1285,
      "åĪ": 1286,
      "Ð¾Ð³Ð¾": 1287,
      "Ġhist": 1288,
      "Ġgu": 1289,
      "Ġadd": 1290,
      "iew": 1291,
      "ba": 1292,
      "ivid": 1293,
      "iento": 1294,
      "Ġlearning": 1295,
      "..": 1296,
      "ument": 1297,
      "Ġconst": 1298,
      "ung": 1299,
      "Ġsal": 1300,
      "Ġenv": 1301,
      "Ġpat": 1302,
      "blic": 1303,
      "Ġeffect": 1304,
      "ÑĨÐ¸": 1305,
      "Ġquest": 1306,
      "Ġback": 1307,
      "Ġtyp": 1308,
      "Ġins": 1309,
      "å®": 1310,
      "Ġday": 1311,
      "ÑĢÑĥ": 1312,
      "Ð´Ð°": 1313,
      "Ġactiv": 1314,
      "Ġ201": 1315,
      "Ġmon": 1316,
      "Ð¾Ð»ÑĮ": 1317,
      "da": 1318,
      "åĴ": 1319,
      "Ġsur": 1320,
      "ditional": 1321,
      "Ġcent": 1322,
      "Ġfil": 1323,
      "Ġcode": 1324,
      "Ġgood": 1325,
      "Ġbeing": 1326,
      "min": 1327,
      "ends": 1328,
      "Ġthree": 1329,
      "30": 1330,
      "ĠĠĠ": 1331,
      "ateg": 1332,
      "bb": 1333,
      "ures": 1334,
      "çĶ": 1335,
      "ases": 1336,
      "Ġeng": 1337,
      "Ġdesign": 1338,
      "za": 1339,
      "Ġ$": 1340,
      "cy": 1341,
      "omet": 1342,
      "Ġmark": 1343,
      "Ġunderstand": 1344,
      "32": 1345,
      "amp": 1346,
      "16": 1347,
      "ran": 1348,
      "Ġopt": 1349,
      "à¹ī": 1350,
      "à¹Ģ": 1351,
      "Ġsin": 1352,
      "åĴĮ": 1353,
      "gg": 1354,
      "96": 1355,
      "ĠCreate": 1356,
      "acter": 1357,
      "Ã¼": 1358,
      "ves": 1359,
      "ck": 1360,
      "92": 1361,
      "Ġbel": 1362,
      "Ð¾ÑĢ": 1363,
      "orn": 1364,
      "ins": 1365,
      "17": 1366,
      "Ġcommun": 1367,
      "ness": 1368,
      "ero": 1369,
      "Ð¾ÑĤ": 1370,
      "fore": 1371,
      "Ġmus": 1372,
      "95": 1373,
      "Ġposs": 1374,
      "aining": 1375,
      "ets": 1376,
      "000": 1377,
      "Ġdire": 1378,
      "ven": 1379,
      "ender": 1380,
      "Ġdet": 1381,
      "Ġenc": 1382,
      "ÑģÑĤÐ²": 1383,
      "Ġpass": 1384,
      "rop": 1385,
      "atural": 1386,
      "ources": 1387,
      "Ġprof": 1388,
      "è¯": 1389,
      "bo": 1390,
      "hing": 1391,
      "Ġoff": 1392,
      "Ġprop": 1393,
      "ython": 1394,
      "ences": 1395,
      "Ġseg": 1396,
      "up": 1397,
      "97": 1398,
      "Ġlight": 1399,
      "Ġown": 1400,
      "Ã¡n": 1401,
      "go": 1402,
      "read": 1403,
      "ik": 1404,
      "Ġpod": 1405,
      "Ġecon": 1406,
      "ÐºÐ°": 1407,
      "Ġonly": 1408,
      "Ġtop": 1409,
      "arge": 1410,
      "Ġboth": 1411,
      "Ġcustomer": 1412,
      "Ġsmall": 1413,
      "dd": 1414,
      "Ġgame": 1415,
      "Ġref": 1416,
      "Ġext": 1417,
      "ithm": 1418,
      "à¹Ģà¸": 1419,
      "ars": 1420,
      "cribe": 1421,
      "90": 1422,
      "amente": 1423,
      "Ġorgan": 1424,
      "la": 1425,
      "ather": 1426,
      "Ġmem": 1427,
      "ea": 1428,
      "Ġalgor": 1429,
      "35": 1430,
      "ital": 1431,
      "ually": 1432,
      "ara": 1433,
      "Ġtien": 1434,
      "Ġund": 1435,
      "ico": 1436,
      "bf": 1437,
      "vent": 1438,
      "Ġsum": 1439,
      "ĠGenerate": 1440,
      "Ġpopular": 1441,
      "tt": 1442,
      "ants": 1443,
      "ä¸Ģ": 1444,
      "Ġder": 1445,
      "åľ": 1446,
      "Ġanim": 1447,
      "ables": 1448,
      "Ġenviron": 1449,
      "Ġdon": 1450,
      "44": 1451,
      "ĠThere": 1452,
      "atures": 1453,
      "36": 1454,
      "Ġrun": 1455,
      "ĠThey": 1456,
      "Ġhand": 1457,
      "Ġperform": 1458,
      "Ġteam": 1459,
      "37": 1460,
      "åĬ": 1461,
      "uest": 1462,
      "Ġjust": 1463,
      "ĠÐ·Ð°": 1464,
      "akes": 1465,
      "Ġincluding": 1466,
      "Ġdem": 1467,
      "Ġfin": 1468,
      "df": 1469,
      "ĠÐ¾Ð±": 1470,
      "ata": 1471,
      "Ġprot": 1472,
      "20": 1473,
      "åĲ": 1474,
      "erc": 1475,
      "endo": 1476,
      "æĺ¯": 1477,
      "):": 1478,
      "Ġsocial": 1479,
      "Ġend": 1480,
      "ras": 1481,
      "aciones": 1482,
      "Ġsoft": 1483,
      "ĠDe": 1484,
      "Ġaround": 1485,
      "Ġlook": 1486,
      "land": 1487,
      "ton": 1488,
      "Ġanal": 1489,
      "ĠÐ³": 1490,
      "ples": 1491,
      "air": 1492,
      "ex": 1493,
      "ãĢģ": 1494,
      "Ġspe": 1495,
      "ura": 1496,
      "ĠOn": 1497,
      "ner": 1498,
      "Ġer": 1499,
      "work": 1500,
      "ambi": 1501,
      "Ġdown": 1502,
      "**": 1503,
      "Ġej": 1504,
      "par": 1505,
      "Ġoften": 1506,
      "ĠHere": 1507,
      "Ġmade": 1508,
      "ives": 1509,
      "ries": 1510,
      "Ġcontin": 1511,
      "oh": 1512,
      "ody": 1513,
      "Ã¤": 1514,
      "Ġfood": 1515,
      "Ġpartic": 1516,
      "bers": 1517,
      "ove": 1518,
      "Ġben": 1519,
      "Ġreturn": 1520,
      "à¸ģ": 1521,
      "ĠTo": 1522,
      "11": 1523,
      "Ġpoint": 1524,
      "Ġbased": 1525,
      "nect": 1526,
      "Ġgeneral": 1527,
      "55": 1528,
      "Ġmult": 1529,
      "Ġcult": 1530,
      "bc": 1531,
      "Ġeas": 1532,
      "led": 1533,
      "Ġpur": 1534,
      "Ġot": 1535,
      "app": 1536,
      "Ġknown": 1537,
      "Ġdie": 1538,
      "ĠÐ°": 1539,
      "Ġlarge": 1540,
      "Ġgreat": 1541,
      "ĠAmer": 1542,
      "Ġcall": 1543,
      "Ġlet": 1544,
      "Ġtype": 1545,
      "Ġaccess": 1546,
      "ÐµÐ¹": 1547,
      "Ġbas": 1548,
      "Ġsus": 1549,
      "iment": 1550,
      "arch": 1551,
      "Ġfr": 1552,
      "Ġsignific": 1553,
      "ÑģÑĤÐ¸": 1554,
      "Ġfunction": 1555,
      "Ġalgorithm": 1556,
      "Ġsit": 1557,
      "ÑĤÐ°": 1558,
      "ames": 1559,
      "Ġwant": 1560,
      "Ġcr": 1561,
      "bd": 1562,
      "Ġnatural": 1563,
      "Ġobject": 1564,
      "ior": 1565,
      "ats": 1566,
      "Ġx": 1567,
      "Ġenvironment": 1568,
      "Ġkey": 1569,
      "Ġcost": 1570,
      "aa": 1571,
      "Ġwords": 1572,
      "Ġterm": 1573,
      "60": 1574,
      "erv": 1575,
      "Ġoper": 1576,
      "ä¹": 1577,
      "cho": 1578,
      "uro": 1579,
      "Ġident": 1580,
      "ĠShe": 1581,
      "Ġlib": 1582,
      "Ġnet": 1583,
      "ador": 1584,
      "empl": 1585,
      "ĠSe": 1586,
      "Ġopen": 1587,
      "itive": 1588,
      "Ġfound": 1589,
      "Ġbuild": 1590,
      "Ġinvol": 1591,
      "ĠÐ²Ñĭ": 1592,
      "ty": 1593,
      "urrent": 1594,
      "81": 1595,
      "æĸ": 1596,
      "Ġyears": 1597,
      "ÑģÑĤÐ°": 1598,
      "ÐºÐ¸": 1599,
      "Ġeconom": 1600,
      "ĠÐ»": 1601,
      "Ġpersonal": 1602,
      "Ð¾Ð·": 1603,
      "ress": 1604,
      "Ġbusiness": 1605,
      "ĠInd": 1606,
      "Ġentre": 1607,
      "Ġprom": 1608,
      "ĠÃ©": 1609,
      "ccess": 1610,
      "Ġpotential": 1611,
      "Ġ202": 1612,
      "Ġlarg": 1613,
      "ale": 1614,
      "ÑģÐ¿": 1615,
      "els": 1616,
      "ĠQ": 1617,
      "ĠHowever": 1618,
      "iving": 1619,
      "ĠTr": 1620,
      "Ġexist": 1621,
      "ĠPl": 1622,
      "25": 1623,
      "Ġfri": 1624,
      "vers": 1625,
      "Ġapplic": 1626,
      "ization": 1627,
      "Ġindivid": 1628,
      "ÑĢÑĭ": 1629,
      "ains": 1630,
      "ĠUnited": 1631,
      "65": 1632,
      "Ġhac": 1633,
      "Ġeven": 1634,
      "fr": 1635,
      "Ġname": 1636,
      "à¸±": 1637,
      "au": 1638,
      "Ġsci": 1639,
      "Ġtechnology": 1640,
      "ÑĩÐ¸": 1641,
      "other": 1642,
      "Ġ200": 1643,
      "Ġcomb": 1644,
      "ique": 1645,
      "Ġmach": 1646,
      "Ġles": 1647,
      "Ġay": 1648,
      "ral": 1649,
      "Ġstat": 1650,
      "ÑĦ": 1651,
      "ÑĩÐµ": 1652,
      "Ġbetter": 1653,
      "ĠÐĴ": 1654,
      "Ġgre": 1655,
      "ĠSp": 1656,
      "à¸£": 1657,
      "Ð¾Ðº": 1658,
      "Ġinput": 1659,
      "Ġalgun": 1660,
      "Ġbefore": 1661,
      "unt": 1662,
      "uss": 1663,
      "entes": 1664,
      "Ġrest": 1665,
      "Ġorder": 1666,
      "ican": 1667,
      "mente": 1668,
      "Ġmarket": 1669,
      "ank": 1670,
      "75": 1671,
      "adas": 1672,
      "Ġprim": 1673,
      "ense": 1674,
      "Ġtrav": 1675,
      "lev": 1676,
      "Ġimpact": 1677,
      "Ġreduce": 1678,
      "ze": 1679,
      "ĠZ": 1680,
      "Ġcommon": 1681,
      ".\"": 1682,
      "Ġayud": 1683,
      "ĠÐ¾ÑĤ": 1684,
      "33": 1685,
      "ĠcÃ³": 1686,
      "Ġsobre": 1687,
      "Ġdecis": 1688,
      "Ġsoftware": 1689,
      "Ġdeb": 1690,
      "ae": 1691,
      "à¸ĩ": 1692,
      "alk": 1693,
      "Ġright": 1694,
      "ato": 1695,
      "raph": 1696,
      "tle": 1697,
      "ability": 1698,
      "hod": 1699,
      "88": 1700,
      "pect": 1701,
      "Ġair": 1702,
      "Ġmaking": 1703,
      "Ġespec": 1704,
      "Ġens": 1705,
      "()": 1706,
      "ĠÐ¿ÑĢÐ¸": 1707,
      "62": 1708,
      "ĠNo": 1709,
      "Ġstory": 1710,
      "Ġafter": 1711,
      "ery": 1712,
      "Ġfeel": 1713,
      "Ġevery": 1714,
      "Ġsee": 1715,
      "Ġarr": 1716,
      "ann": 1717,
      "Ġprin": 1718,
      "ĠAdditional": 1719,
      "Ġear": 1720,
      "Ġspecific": 1721,
      "Ġbre": 1722,
      "earch": 1723,
      "Ġexperience": 1724,
      "Ġcontrol": 1725,
      "cf": 1726,
      "pos": 1727,
      "ural": 1728,
      "Ġsupport": 1729,
      "Ġdoes": 1730,
      "Ġbenef": 1731,
      "Ġrequire": 1732,
      "ÐµÐ½Ð¸Ñı": 1733,
      "ĠÑı": 1734,
      "mar": 1735,
      "Ġcle": 1736,
      "67": 1737,
      "ambiÃ©n": 1738,
      "Ġsame": 1739,
      "à¸¡": 1740,
      "Ġdev": 1741,
      "Ð»Ðµ": 1742,
      "ocus": 1743,
      "ted": 1744,
      "ertain": 1745,
      "aterial": 1746,
      "Ġris": 1747,
      "ource": 1748,
      "ĠÐµ": 1749,
      "93": 1750,
      "ĠAdditionally": 1751,
      "Ġdeter": 1752,
      "atch": 1753,
      "Ġlim": 1754,
      "Ġindividual": 1755,
      "ĠÐ¿Ð¾": 1756,
      "Ġconf": 1757,
      "ouse": 1758,
      "ength": 1759,
      "aut": 1760,
      "ä»¥": 1761,
      "Ġpublic": 1762,
      "Ġuser": 1763,
      "Ġchang": 1764,
      "Ġpueden": 1765,
      "Ãºn": 1766,
      "ĠWe": 1767,
      "Ġbook": 1768,
      "ificial": 1769,
      "ality": 1770,
      "ario": 1771,
      "ones": 1772,
      "Ġinvest": 1773,
      "pre": 1774,
      "à¸µ": 1775,
      "idades": 1776,
      "jet": 1777,
      "Ġmej": 1778,
      "Ġdepend": 1779,
      "Ġstep": 1780,
      "Ġmean": 1781,
      "Ġgrow": 1782,
      "Ġlevel": 1783,
      "âĢĿ": 1784,
      "ĠPr": 1785,
      "Ġbecause": 1786,
      "Ġdisc": 1787,
      "Ġdirect": 1788,
      "bal": 1789,
      "ç»": 1790,
      "Ġ`": 1791,
      "ared": 1792,
      "Ġmethod": 1793,
      "ately": 1794,
      "Ġintern": 1795,
      "ĠSh": 1796,
      "ote": 1797,
      "Ġrecom": 1798,
      "Ġable": 1799,
      "ah": 1800,
      "aÃ±": 1801,
      "urs": 1802,
      "Ġlearn": 1803,
      "22": 1804,
      "Ġfew": 1805,
      "Ġsuccess": 1806,
      "way": 1807,
      "ĠĠĠĠĠĠĠĠĠĠĠĠ": 1808,
      "ðŁ": 1809,
      "li": 1810,
      "70": 1811,
      "Ġcompany": 1812,
      "ull": 1813,
      "13": 1814,
      "fect": 1815,
      "Ġti": 1816,
      "ma": 1817,
      "ohn": 1818,
      "Ġwrit": 1819,
      "ram": 1820,
      "è®": 1821,
      "Ġve": 1822,
      "ming": 1823,
      "Ġread": 1824,
      "Ð½ÑĭÑħ": 1825,
      "Ġcorre": 1826,
      "Ġcaus": 1827,
      "cd": 1828,
      "Ã§": 1829,
      "Ġcurrent": 1830,
      "Ġphys": 1831,
      "Ġduring": 1832,
      "Ġmen": 1833,
      "Ð¾ÑĤÐ¾": 1834,
      "Ð¼Ð°": 1835,
      "ream": 1836,
      "Ġmil": 1837,
      "Ġproject": 1838,
      "aje": 1839,
      "ng": 1840,
      "Ġbeh": 1841,
      "Ġperm": 1842,
      "Ġconnect": 1843,
      "Ġhay": 1844,
      "Ġcomputer": 1845,
      "Ġcomplex": 1846,
      "ols": 1847,
      "Ġneces": 1848,
      "Ġfu": 1849,
      "Ġconc": 1850,
      "imate": 1851,
      "ĠWor": 1852,
      "Ġeffic": 1853,
      "cing": 1854,
      "ellig": 1855,
      "ĠWrite": 1856,
      "Ġtrad": 1857,
      "Ġfut": 1858,
      "Ġchange": 1859,
      "press": 1860,
      "ĠPython": 1861,
      "Ġtasks": 1862,
      "66": 1863,
      "Âł": 1864,
      "Ġcare": 1865,
      "Ġmaterial": 1866,
      "Ġhard": 1867,
      "imes": 1868,
      "ember": 1869,
      "me": 1870,
      "itar": 1871,
      "Ã¶": 1872,
      "Ġsun": 1873,
      "ament": 1874,
      "åı¯": 1875,
      "Ġinfl": 1876,
      "ÑĩÐ°": 1877,
      "Ġpossible": 1878,
      "Ð²Ð¸": 1879,
      "à¸§": 1880,
      "Ġmill": 1881,
      "pro": 1882,
      "ross": 1883,
      "ÑĢÐµÐ´": 1884,
      "ĠSi": 1885,
      "Ġprint": 1886,
      "iqu": 1887,
      "ems": 1888,
      "Ġbi": 1889,
      "Ġfocus": 1890,
      "Ġtest": 1891,
      "Ġrev": 1892,
      "text": 1893,
      "fe": 1894,
      "icas": 1895,
      "Ġsever": 1896,
      "cu": 1897,
      "den": 1898,
      "Ġsomet": 1899,
      "Ġwebs": 1900,
      "iente": 1901,
      "gen": 1902,
      "cip": 1903,
      "Ġagain": 1904,
      "ãĤ": 1905,
      "Ã¨": 1906,
      "ana": 1907,
      "Ġtemper": 1908,
      "ĠSo": 1909,
      "Ģâ": 1910,
      "cer": 1911,
      "oup": 1912,
      "ĠLe": 1913,
      "uy": 1914,
      "ills": 1915,
      "Ġrepres": 1916,
      "vern": 1917,
      "ĥ½": 1918,
      "Ġdifer": 1919,
      "ĠOne": 1920,
      "åĽ": 1921,
      "Ġop": 1922,
      "Ġmag": 1923,
      "ĠStates": 1924,
      "Ġimportante": 1925,
      "Ġhim": 1926,
      "Ġha": 1927,
      "ways": 1928,
      "Ġorig": 1929,
      "Ġpract": 1930,
      "Ġtry": 1931,
      "ists": 1932,
      "aving": 1933,
      "ribut": 1934,
      "ĠNew": 1935,
      "acy": 1936,
      "72": 1937,
      "91": 1938,
      "Ġdevelopment": 1939,
      "ĠThese": 1940,
      "lement": 1941,
      "Ġmot": 1942,
      "ield": 1943,
      "Ġ20": 1944,
      "Ġein": 1945,
      "Ġshow": 1946,
      "Ġcas": 1947,
      "Ġappro": 1948,
      "Ġmejor": 1949,
      "Ġconcept": 1950,
      "ĠÑĩÑĤÐ¾": 1951,
      "Ġing": 1952,
      "Ġkeep": 1953,
      "Ġlog": 1954,
      "Ġhome": 1955,
      "ĠName": 1956,
      "Ġuntil": 1957,
      "Ġword": 1958,
      "á»": 1959,
      "Ġcho": 1960,
      "ÑģÐ¸": 1961,
      "Ġplace": 1962,
      "ĠDescribe": 1963,
      "uf": 1964,
      "ason": 1965,
      "ĠJohn": 1966,
      "ĠÐ¿ÑĢÐ¾": 1967,
      "Ġevent": 1968,
      "Ġvide": 1969,
      "ball": 1970,
      "Ġvalue": 1971,
      "æľī": 1972,
      "ator": 1973,
      "Ġfive": 1974,
      "mo": 1975,
      "ĠÐ¼Ð¾Ð¶": 1976,
      "aw": 1977,
      "Ġsystems": 1978,
      "Ġmust": 1979,
      "Ġsure": 1980,
      "Ã£": 1981,
      "Ġvers": 1982,
      "Ġinterest": 1983,
      "=\"": 1984,
      "ĠĠĠĠĠĠ": 1985,
      "84": 1986,
      "ivo": 1987,
      "ĠGo": 1988,
      "por": 1989,
      "roll": 1990,
      "Ġautom": 1991,
      "ape": 1992,
      "fa": 1993,
      "ĠAnd": 1994,
      "Ġimprove": 1995,
      "ena": 1996,
      "oot": 1997,
      "Ġminut": 1998,
      "Ġcharacter": 1999,
      "Ġwithout": 2000,
      "ĠGiven": 2001,
      "sc": 2002,
      "ving": 2003,
      "lt": 2004,
      "76": 2005,
      "br": 2006,
      "izar": 2007,
      "Ġiss": 2008,
      "Ġpred": 2009,
      "ĠX": 2010,
      "ird": 2011,
      "ĠEng": 2012,
      "://": 2013,
      "Ġsing": 2014,
      "ĠPor": 2015,
      "ructure": 2016,
      "Ġpresent": 2017,
      "sw": 2018,
      "ium": 2019,
      "Ð¾Ð¿": 2020,
      "Ġamount": 2021,
      "cb": 2022,
      "Ġvery": 2023,
      "Ġinte": 2024,
      "ulation": 2025,
      "å°": 2026,
      "lobal": 2027,
      "Ġejempl": 2028,
      "Ġservice": 2029,
      "ained": 2030,
      "Ð°Ð½": 2031,
      "Ġrange": 2032,
      "ories": 2033,
      "db": 2034,
      "ĠGr": 2035,
      "ĠBe": 2036,
      "ÑģÑĤÑĮ": 2037,
      "ploy": 2038,
      "Ġpas": 2039,
      "Ġ12": 2040,
      "ĠÐ²Ð°": 2041,
      "self": 2042,
      "Ġonline": 2043,
      "äºº": 2044,
      "Ġant": 2045,
      "iver": 2046,
      "The": 2047,
      "ĠLos": 2048,
      "ÑĥÑİ": 2049,
      "ĠÐ´Ð»Ñı": 2050,
      "Ġsuper": 2051,
      "Ġfeatures": 2052,
      "Ġcity": 2053,
      "Ġquick": 2054,
      "ĠÐ¸Ð·": 2055,
      "Ġmachine": 2056,
      "quÃŃ": 2057,
      "Ġless": 2058,
      "ais": 2059,
      "yn": 2060,
      "str": 2061,
      "ilar": 2062,
      "ux": 2063,
      "'m": 2064,
      "inally": 2065,
      "98": 2066,
      "Ġtri": 2067,
      "Ġproper": 2068,
      "Ġ**": 2069,
      "ino": 2070,
      "Ġess": 2071,
      "ĠIs": 2072,
      "Ġ/": 2073,
      "ication": 2074,
      "ĠUS": 2075,
      "Ġcolor": 2076,
      "Ġsig": 2077,
      "Ġtip": 2078,
      "Ġself": 2079,
      "Ã£o": 2080,
      "istem": 2081,
      "Ġfamily": 2082,
      "(\"": 2083,
      "ava": 2084,
      "à¸¥": 2085,
      "ĠIm": 2086,
      "Ġred": 2087,
      "Ġcontent": 2088,
      "ling": 2089,
      "à¸Ķ": 2090,
      "åľ¨": 2091,
      "18": 2092,
      "Ġdig": 2093,
      "Ġdue": 2094,
      "Ġvol": 2095,
      "enci": 2096,
      "Ġsl": 2097,
      "ĠÐŁ": 2098,
      "ogn": 2099,
      "Ñĳ": 2100,
      "ĠÐ±Ñĭ": 2101,
      "63": 2102,
      "Ġmar": 2103,
      "Ġpero": 2104,
      "Ġrespons": 2105,
      "Ġ//": 2106,
      "Ð½ÑĭÐµ": 2107,
      "Ġcour": 2108,
      "Ġleg": 2109,
      "94": 2110,
      "bot": 2111,
      "irt": 2112,
      "Ã©r": 2113,
      "elligence": 2114,
      "ĠÑĤÐµ": 2115,
      "Ġseveral": 2116,
      "Ġgen": 2117,
      "fd": 2118,
      "uev": 2119,
      "Ġways": 2120,
      "Ġarea": 2121,
      "ajor": 2122,
      "Ġfre": 2123,
      "ĠÐºÐ¾ÑĤÐ¾": 2124,
      "tal": 2125,
      "Ġrefer": 2126,
      "aster": 2127,
      "ĠWhen": 2128,
      "Ġzu": 2129,
      "Ġrepresent": 2130,
      "Ð³Ð¾": 2131,
      "cle": 2132,
      "Ġbelie": 2133,
      "aces": 2134,
      "Ġindust": 2135,
      "ĠÑĦ": 2136,
      "ued": 2137,
      "Ð¸Ñħ": 2138,
      "ttps": 2139,
      "ÃŃas": 2140,
      "ĠâĢľ": 2141,
      "à¸¢": 2142,
      "Ġdiffic": 2143,
      "Ġresources": 2144,
      "ger": 2145,
      "52": 2146,
      "Ġresearch": 2147,
      "ĠWorld": 2148,
      "Ġobjet": 2149,
      "Ġtener": 2150,
      "ÐµÐ»": 2151,
      "hor": 2152,
      "Ġmanag": 2153,
      "åŃ": 2154,
      "73": 2155,
      "Ġbecome": 2156,
      "ĠAmerican": 2157,
      "Ġcorrect": 2158,
      "urity": 2159,
      "cion": 2160,
      "Ġeduc": 2161,
      "Ġstill": 2162,
      "ĠðŁ": 2163,
      "ĠâĢĵ": 2164,
      "Ġsecond": 2165,
      "lish": 2166,
      "ua": 2167,
      "Ġmi": 2168,
      "å¹": 2169,
      "æĹ": 2170,
      "Ġprotect": 2171,
      "val": 2172,
      "med": 2173,
      "yle": 2174,
      "Ġdatos": 2175,
      "--------": 2176,
      "ĠExpl": 2177,
      "ination": 2178,
      "Ġcalled": 2179,
      "uch": 2180,
      "ĠâĢ¢": 2181,
      "Ġbat": 2182,
      "Ġchild": 2183,
      "Ġbody": 2184,
      "crib": 2185,
      "ĠAm": 2186,
      "oid": 2187,
      "Ġunivers": 2188,
      "iÃ³": 2189,
      "word": 2190,
      "ĠOpen": 2191,
      "ury": 2192,
      "ĠÑĤÐ°Ðº": 2193,
      "Ġmight": 2194,
      "Ġchall": 2195,
      "ÃŃs": 2196,
      "uego": 2197,
      "Ġsitu": 2198,
      "Ġstand": 2199,
      "Ġalways": 2200,
      "Ġgovern": 2201,
      "mos": 2202,
      "Ġdifficult": 2203,
      "igo": 2204,
      "enn": 2205,
      "Ġfile": 2206,
      "Ġservices": 2207,
      "Ãł": 2208,
      "Ġartificial": 2209,
      "imiento": 2210,
      "æĪĳ": 2211,
      "Ġdur": 2212,
      "Ġdest": 2213,
      "Ġconsum": 2214,
      "ency": 2215,
      "åº": 2216,
      "èĥ½": 2217,
      "ww": 2218,
      "Ð¸Ð¼": 2219,
      "abil": 2220,
      "Ġ15": 2221,
      "Ġinteract": 2222,
      "chie": 2223,
      "Ð½Ð¾Ð¹": 2224,
      "ades": 2225,
      "Ġthose": 2226,
      "Ġjob": 2227,
      "fc": 2228,
      "thers": 2229,
      "Ġwebsite": 2230,
      "Ġdefin": 2231,
      "ĠÑĢÐ°Ð·": 2232,
      "ĠCol": 2233,
      "à¸Ĺ": 2234,
      "Ġensure": 2235,
      "Ġcada": 2236,
      "vert": 2237,
      "Ġdid": 2238,
      "urther": 2239,
      "Ġneg": 2240,
      "fb": 2241,
      "less": 2242,
      "ering": 2243,
      "for": 2244,
      "let": 2245,
      "Ġexperien": 2246,
      "Ã¡tic": 2247,
      "Ġsoci": 2248,
      "Ġlit": 2249,
      "Ġland": 2250,
      "ash": 2251,
      "æĿ": 2252,
      "Ġfour": 2253,
      "Ġline": 2254,
      "Ġsistem": 2255,
      "Ġmeas": 2256,
      "Ġnetwork": 2257,
      "Ġcir": 2258,
      "Ð¾Ñģ": 2259,
      "mat": 2260,
      "Ġshort": 2261,
      "Ġstate": 2262,
      "Ġll": 2263,
      "arth": 2264,
      "ĠSome": 2265,
      "ĠComp": 2266,
      "14": 2267,
      "ias": 2268,
      "ĠÑĢÐµ": 2269,
      "Ġartic": 2270,
      "ĠId": 2271,
      "Ġapr": 2272,
      "Ġmo": 2273,
      "ĠÑģÐ²": 2274,
      "Ġamb": 2275,
      "Ġcontr": 2276,
      "epend": 2277,
      "rodu": 2278,
      "64": 2279,
      "ĠSin": 2280,
      "Ġthough": 2281,
      "arte": 2282,
      "Ġment": 2283,
      "ĠtambiÃ©n": 2284,
      "éĢ": 2285,
      "iendo": 2286,
      "Ġengine": 2287,
      "Ġhead": 2288,
      "Ġtoget": 2289,
      "ĠÐ¿ÑĢ": 2290,
      "Ġtogether": 2291,
      "53": 2292,
      "Ġincrease": 2293,
      "Ġmeaning": 2294,
      "ĠÂ¿": 2295,
      "Ġglobal": 2296,
      "Ġrecord": 2297,
      "icos": 2298,
      "jo": 2299,
      "ĠBl": 2300,
      "Ġquestions": 2301,
      "Ġhacer": 2302,
      "Ġaccur": 2303,
      "dc": 2304,
      "Ġlocal": 2305,
      "Ġhistor": 2306,
      "ides": 2307,
      "ĠAf": 2308,
      "'re": 2309,
      "che": 2310,
      "Ġdise": 2311,
      "Ġarg": 2312,
      "ä¸ª": 2313,
      "Ð´Ð¸": 2314,
      "Ġstrateg": 2315,
      "Ġ.": 2316,
      "itch": 2317,
      "Ð·Ð°": 2318,
      "ÐµÐ½Ð¸Ðµ": 2319,
      "do": 2320,
      "ĠCal": 2321,
      "Ġaff": 2322,
      "lease": 2323,
      "istant": 2324,
      "Ġstrong": 2325,
      "å¼": 2326,
      "Ġthink": 2327,
      "gin": 2328,
      "Ġsimple": 2329,
      "asta": 2330,
      "joy": 2331,
      "ÑĩÐµÑģÐº": 2332,
      "ä¼": 2333,
      "Ġesc": 2334,
      "57": 2335,
      "Ġtraining": 2336,
      "Ġmajor": 2337,
      "ĠIdent": 2338,
      "Ġlay": 2339,
      "Ġveg": 2340,
      "ired": 2341,
      "æķ": 2342,
      "Ã±o": 2343,
      "Ġusers": 2344,
      "ĠEm": 2345,
      "Ġsomething": 2346,
      "Ġavail": 2347,
      "asing": 2348,
      "Ġnumbers": 2349,
      "ived": 2350,
      "Ġinflu": 2351,
      "olution": 2352,
      "Ġfree": 2353,
      "empo": 2354,
      "à¸´": 2355,
      "Ġejemplo": 2356,
      "Ġansw": 2357,
      "Ġold": 2358,
      "Ġemb": 2359,
      "Ġforma": 2360,
      "çĶ¨": 2361,
      "ished": 2362,
      "Ġfuture": 2363,
      "ä¸į": 2364,
      "arr": 2365,
      "Ġstore": 2366,
      "Ġeste": 2367,
      "Ġcur": 2368,
      "ope": 2369,
      "Ġsaf": 2370,
      "Ġwon": 2371,
      "ified": 2372,
      "å¯": 2373,
      "ĠÐºÐ°Ðº": 2374,
      "undo": 2375,
      "Ġoffer": 2376,
      "è§": 2377,
      "Ġfinan": 2378,
      "äºĨ": 2379,
      "56": 2380,
      "man": 2381,
      "Ġcountry": 2382,
      "Ġhy": 2383,
      "urope": 2384,
      "In": 2385,
      "Ġneeds": 2386,
      "Ġcertain": 2387,
      "Ġgl": 2388,
      "iques": 2389,
      "Ġcountries": 2390,
      "Ġsw": 2391,
      "Ġdog": 2392,
      "anto": 2393,
      "å¸": 2394,
      "Ġskills": 2395,
      "gar": 2396,
      "à¸Ħ": 2397,
      "Ġachie": 2398,
      "Ġvarious": 2399,
      "Ð½Ð¾Ð³Ð¾": 2400,
      "Ġsearch": 2401,
      "une": 2402,
      "oney": 2403,
      "Ġnight": 2404,
      "Ġunderstanding": 2405,
      "Ġmedia": 2406,
      "Ġcome": 2407,
      "Ġperformance": 2408,
      "Ġocc": 2409,
      "Ġprofess": 2410,
      "27": 2411,
      "enta": 2412,
      "ĠÐĿ": 2413,
      "ĠPh": 2414,
      "Ġimplement": 2415,
      "Ġidea": 2416,
      "ĠOr": 2417,
      "outh": 2418,
      "Ġexc": 2419,
      "ĠÃł": 2420,
      "rar": 2421,
      "ĠestÃ¡": 2422,
      "ney": 2423,
      "Ġmultip": 2424,
      "Ġsea": 2425,
      "31": 2426,
      "å¾": 2427,
      "Ġarch": 2428,
      "Ġfac": 2429,
      "ĠCan": 2430,
      "Ġlik": 2431,
      "ows": 2432,
      "ients": 2433,
      "Ġda": 2434,
      "ĠÐ¡": 2435,
      "',": 2436,
      "ek": 2437,
      "âĸ": 2438,
      "Ġhere": 2439,
      "abaj": 2440,
      "Ġhistory": 2441,
      "Ġoutput": 2442,
      "ĠWith": 2443,
      "lex": 2444,
      "Ġallows": 2445,
      "Ġlaw": 2446,
      "Ġsimilar": 2447,
      "raw": 2448,
      "chool": 2449,
      "Ġlast": 2450,
      "antes": 2451,
      "Ġconoc": 2452,
      "Ġquestion": 2453,
      "Ġpi": 2454,
      "Ġpolit": 2455,
      "Ġsignificant": 2456,
      "Ġitems": 2457,
      "Ġregular": 2458,
      "Ð¸Ðµ": 2459,
      "Ġcam": 2460,
      "ires": 2461,
      "Ġwhy": 2462,
      "amiento": 2463,
      "Ġcompet": 2464,
      "Ġthings": 2465,
      "cciÃ³n": 2466,
      "Ġothers": 2467,
      "uel": 2468,
      "Ġpap": 2469,
      "Ġ18": 2470,
      "Ġwind": 2471,
      "26": 2472,
      "face": 2473,
      "Ġter": 2474,
      "à¸°": 2475,
      "Ġask": 2476,
      "Ġsteps": 2477,
      "ĠMar": 2478,
      "Ġuses": 2479,
      "ror": 2480,
      "itud": 2481,
      "Ġpriv": 2482,
      "Ġum": 2483,
      "Ġpattern": 2484,
      "39": 2485,
      "ï¼ļ": 2486,
      "ene": 2487,
      "Ġrelations": 2488,
      "duct": 2489,
      "èĢ": 2490,
      "Ġpa": 2491,
      "idos": 2492,
      "Ġidentify": 2493,
      "è¡": 2494,
      "ĠIdentify": 2495,
      "Ġvida": 2496,
      "tain": 2497,
      "ÐµÑĤÑģÑı": 2498,
      "of": 2499,
      "è¦": 2500,
      "Ġtiempo": 2501,
      "Ġtypically": 2502,
      "Ġdoc": 2503,
      "Ġhor": 2504,
      "Ġgive": 2505,
      "iar": 2506,
      "Ġtypes": 2507,
      "Ġpain": 2508,
      "à¸ķ": 2509,
      "tract": 2510,
      "Ġnecess": 2511,
      "Ġpuedes": 2512,
      "ismo": 2513,
      "oud": 2514,
      "Ġfriends": 2515,
      "ĠEarth": 2516,
      "Ġquickly": 2517,
      "Ġaud": 2518,
      "Ġtre": 2519,
      "ito": 2520,
      "oss": 2521,
      "ÑģÑĤÐ¾": 2522,
      "ä½ł": 2523,
      "Ġmusic": 2524,
      "Ġvariety": 2525,
      "Ġist": 2526,
      "mend": 2527,
      "Ð¾Ð»ÑĮÐ·": 2528,
      "Ġoptim": 2529,
      "ances": 2530,
      "Ð´Ðµ": 2531,
      "by": 2532,
      "ights": 2533,
      "ledge": 2534,
      "ead": 2535,
      "Ġmom": 2536,
      "ÑĤÐµÐ»ÑĮ": 2537,
      "ÑĥÑĤ": 2538,
      "Ġprincip": 2539,
      "Ġmodels": 2540,
      "à¸ª": 2541,
      "Ġrespon": 2542,
      "Ġport": 2543,
      "ĠÐŀ": 2544,
      "play": 2545,
      "Ġpers": 2546,
      "ĠTe": 2547,
      "Ġbase": 2548,
      "Ġstay": 2549,
      "ours": 2550,
      "Ġdesar": 2551,
      "Ġmess": 2552,
      "Ð½ÑĭÐ¹": 2553,
      "engu": 2554,
      "Ġplat": 2555,
      "Ġbreak": 2556,
      "Ġlove": 2557,
      "wards": 2558,
      "gun": 2559,
      "Ġya": 2560,
      "Ġcalcul": 2561,
      "å·": 2562,
      "ĠÐ¶": 2563,
      "ĠSu": 2564,
      "Ġphysical": 2565,
      "Ġcreating": 2566,
      "ita": 2567,
      "ä¸Ń": 2568,
      "Ġdos": 2569,
      "Ġlow": 2570,
      "____": 2571,
      "à¸«": 2572,
      "Ġnow": 2573,
      "ÐºÑĥ": 2574,
      "back": 2575,
      "Ġtrabaj": 2576,
      "Ġelement": 2577,
      "âĢĵ": 2578,
      "ards": 2579,
      "ĠJava": 2580,
      "raft": 2581,
      "Ġbehav": 2582,
      "amos": 2583,
      "Ġvideo": 2584,
      "Ġdu": 2585,
      "xim": 2586,
      "Ġwhe": 2587,
      "Ġsince": 2588,
      "Ġcompon": 2589,
      "ym": 2590,
      "iva": 2591,
      "Ġnon": 2592,
      "Ġintegr": 2593,
      "éĩ": 2594,
      "Ġesta": 2595,
      "Ġpredict": 2596,
      "Ġmodern": 2597,
      "ĠBut": 2598,
      "Ġsource": 2599,
      "aff": 2600,
      "Ġstring": 2601,
      "Ġ\\": 2602,
      "Ġexpress": 2603,
      "Ġactivities": 2604,
      "Ġotros": 2605,
      "abor": 2606,
      "Ġintelligence": 2607,
      "Ġagainst": 2608,
      "Ġstructure": 2609,
      "ĠExplain": 2610,
      "è¿Ļ": 2611,
      "Ġ:": 2612,
      "Ġnever": 2613,
      "Ġapplications": 2614,
      "ĠApp": 2615,
      "avor": 2616,
      "æī": 2617,
      "Ġefficient": 2618,
      "Ġsound": 2619,
      "Ġwin": 2620,
      "ĠEurope": 2621,
      "23": 2622,
      "ently": 2623,
      "ĠAt": 2624,
      "dition": 2625,
      "ĠÂ¡": 2626,
      "</": 2627,
      "ja": 2628,
      "Ġtotal": 2629,
      "Ġreach": 2630,
      "Ġemploy": 2631,
      "åı¯ä»¥": 2632,
      "Ġsugg": 2633,
      "ails": 2634,
      "Ġscient": 2635,
      "è¦ģ": 2636,
      "ret": 2637,
      "cil": 2638,
      "sh": 2639,
      "Ġ100": 2640,
      "Ġparticular": 2641,
      "ola": 2642,
      "ĠMy": 2643,
      "71": 2644,
      "Ġge": 2645,
      "Ġtus": 2646,
      "ecut": 2647,
      "verage": 2648,
      "Ġarticle": 2649,
      "soci": 2650,
      "usion": 2651,
      "Ġbenefits": 2652,
      "03": 2653,
      "05": 2654,
      "uer": 2655,
      "Ġability": 2656,
      "lar": 2657,
      "Ġmas": 2658,
      "Ġ11": 2659,
      "Ġanother": 2660,
      "ÑģÑĮ": 2661,
      "aur": 2662,
      "arl": 2663,
      "Ġpodr": 2664,
      "Ġrecogn": 2665,
      "Ġrelationship": 2666,
      "61": 2667,
      "Ġsuggest": 2668,
      "Ġseries": 2669,
      "Ð½Ð¸Ñı": 2670,
      "iting": 2671,
      "Ġwithin": 2672,
      "Ġspace": 2673,
      "itor": 2674,
      "Ġlab": 2675,
      "Ġsecurity": 2676,
      "uck": 2677,
      "Ġavailable": 2678,
      "Ġtoo": 2679,
      "icht": 2680,
      "Ġfield": 2681,
      "ÑİÑĤ": 2682,
      "Ġcual": 2683,
      "Ġenjoy": 2684,
      "osed": 2685,
      "Ġbro": 2686,
      "PT": 2687,
      "ither": 2688,
      "ĠBr": 2689,
      "cover": 2690,
      "79": 2691,
      "Ġaplic": 2692,
      "à¹Ħ": 2693,
      "Ġsize": 2694,
      "Ġdeep": 2695,
      "ĠÐ¸Ð»Ð¸": 2696,
      "Ġelements": 2697,
      "Ð½Ðµ": 2698,
      "Ġmeans": 2699,
      "Ġchanges": 2700,
      "ption": 2701,
      "ches": 2702,
      "ane": 2703,
      "Ġunique": 2704,
      "ÃŃn": 2705,
      "Ġeconomic": 2706,
      "Ġmultiple": 2707,
      "Ġprovides": 2708,
      "Ġanaly": 2709,
      "the": 2710,
      "Ġrece": 2711,
      "Ġgoals": 2712,
      "68": 2713,
      "aves": 2714,
      "Ġ30": 2715,
      "ÑħÐ¾Ð´": 2716,
      "Ġpost": 2717,
      "ĠRes": 2718,
      "Ġgroup": 2719,
      "ĠinformaciÃ³n": 2720,
      "ĠWar": 2721,
      "åĨ": 2722,
      "ÑĤÑĮÑģÑı": 2723,
      "Ġview": 2724,
      "Ġprob": 2725,
      "izing": 2726,
      "ĠÑįÑĤÐ¾": 2727,
      "Ġtit": 2728,
      "à¸ļ": 2729,
      "ç§": 2730,
      "ined": 2731,
      "Ġsources": 2732,
      "Ġmuy": 2733,
      "Ġfactors": 2734,
      "Ġhelps": 2735,
      "Ġcustomers": 2736,
      "iod": 2737,
      "Ġtravel": 2738,
      "ÐµÐº": 2739,
      "aging": 2740,
      "Ġspeed": 2741,
      "amed": 2742,
      "ĠPara": 2743,
      "ĠÐ¼Ð¾Ð¶ÐµÑĤ": 2744,
      "Ġminutes": 2745,
      "ĠInst": 2746,
      "Ġtiene": 2747,
      "Ã±os": 2748,
      "Ġproducts": 2749,
      "ĠlÃŃ": 2750,
      "ĠnÃº": 2751,
      "ĠDo": 2752,
      "omb": 2753,
      "69": 2754,
      "å¦": 2755,
      "Ġsingle": 2756,
      "just": 2757,
      "ivos": 2758,
      "Ġprogramming": 2759,
      "Ġmor": 2760,
      "Ġwar": 2761,
      "æ³": 2762,
      "Ġden": 2763,
      "ugar": 2764,
      "ser": 2765,
      "Ġcat": 2766,
      "Ġespecial": 2767,
      "åį": 2768,
      "åĩ": 2769,
      "Ġwarm": 2770,
      "Ġpositive": 2771,
      "day": 2772,
      "Ġcause": 2773,
      "59": 2774,
      "ciones": 2775,
      "Ġchalleng": 2776,
      "not": 2777,
      "Ġideas": 2778,
      "ientes": 2779,
      "Ġmind": 2780,
      "leep": 2781,
      "ystem": 2782,
      "Ġrad": 2783,
      "ĠBy": 2784,
      "Ġpoints": 2785,
      "Ġspecial": 2786,
      "Ġknowledge": 2787,
      "Ġbeaut": 2788,
      "ĠNe": 2789,
      "Ġelectric": 2790,
      "Ġdetermin": 2791,
      "51": 2792,
      "PI": 2793,
      "Ġcook": 2794,
      "ĠAss": 2795,
      "Ġprefer": 2796,
      "iet": 2797,
      "Ġmillion": 2798,
      "Ġturn": 2799,
      "ored": 2800,
      "éĹ": 2801,
      "78": 2802,
      "Ġcontext": 2803,
      "ogle": 2804,
      "ift": 2805,
      "Ġquality": 2806,
      "ells": 2807,
      "Ġpal": 2808,
      "ograph": 2809,
      "Ġclimate": 2810,
      "Ġcamp": 2811,
      "28": 2812,
      "Ġfinal": 2813,
      "ĠSte": 2814,
      "pportun": 2815,
      "Ġlengu": 2816,
      "ĠÐļ": 2817,
      "ording": 2818,
      "Ġworks": 2819,
      "bon": 2820,
      "ula": 2821,
      "Ġpress": 2822,
      "Ġdiv": 2823,
      "ision": 2824,
      "Ġplatform": 2825,
      "Ġaway": 2826,
      "ĠNor": 2827,
      "Ġplanet": 2828,
      "ook": 2829,
      "24": 2830,
      "21": 2831,
      "ĠÐ¸ÑģÐ¿": 2832,
      "uz": 2833,
      "Ãª": 2834,
      "aly": 2835,
      "itional": 2836,
      "Ġcrear": 2837,
      "Ġtimes": 2838,
      "Ġnext": 2839,
      "Ġrecommend": 2840,
      "ai": 2841,
      "ensive": 2842,
      "Ġdetect": 2843,
      "çŃ": 2844,
      "Ġwalk": 2845,
      "son": 2846,
      "ĠList": 2847,
      "Ġprofessional": 2848,
      "Ġmit": 2849,
      "Ġclear": 2850,
      "Ġdigital": 2851,
      "Ġconsidered": 2852,
      "ano": 2853,
      "Ġhaving": 2854,
      "ĠFinally": 2855,
      "acters": 2856,
      "ush": 2857,
      "ä¸º": 2858,
      "ÑīÐµ": 2859,
      "Ġside": 2860,
      "ĠFr": 2861,
      "Ġgrand": 2862,
      "ece": 2863,
      "Ġtask": 2864,
      "å¥": 2865,
      "Ġcomun": 2866,
      "Ġgenerate": 2867,
      "Ġflow": 2868,
      "ÐµÑĢÐµ": 2869,
      "anced": 2870,
      "illed": 2871,
      "Ġgovernment": 2872,
      "ĠFind": 2873,
      "Ġbot": 2874,
      "Ġstudy": 2875,
      "ÐºÐ¾": 2876,
      "iciÃ³n": 2877,
      "à¹ģ": 2878,
      "Ġnear": 2879,
      "Ġapproach": 2880,
      "mit": 2881,
      "Ġcy": 2882,
      "orts": 2883,
      "34": 2884,
      "ont": 2885,
      "arse": 2886,
      "æĢ": 2887,
      "Ġsym": 2888,
      "\")": 2889,
      "\":": 2890,
      "Ġcase": 2891,
      "ĠÐºÐ¾ÑĤÐ¾ÑĢÑĭ": 2892,
      "Ġanswer": 2893,
      "ĠOnce": 2894,
      "Ġopportun": 2895,
      "ĠMake": 2896,
      "Ġtrack": 2897,
      "Ġinstall": 2898,
      "ltim": 2899,
      "ally": 2900,
      "Ġaccount": 2901,
      "istic": 2902,
      "38": 2903,
      "ĠÑģÑĤ": 2904,
      "Ġmanera": 2905,
      "07": 2906,
      "ĠUse": 2907,
      "Ġbar": 2908,
      "Ġcrit": 2909,
      "à¹ĥ": 2910,
      "ysis": 2911,
      "Ġce": 2912,
      "åĮ": 2913,
      "oph": 2914,
      "ending": 2915,
      "action": 2916,
      "Ġrep": 2917,
      "ĠnÃºmer": 2918,
      "Ġball": 2919,
      "Ġsens": 2920,
      "Ð¼Ðµ": 2921,
      "Ð¶Ðµ": 2922,
      "Ġten": 2923,
      "Ġcheck": 2924,
      "Ð¼ÐµÐ½": 2925,
      "oms": 2926,
      "illa": 2927,
      "arios": 2928,
      "Ġdom": 2929,
      "ĠÐ¸Ð½": 2930,
      "Ġveget": 2931,
      "Ġperiod": 2932,
      "Ġhumans": 2933,
      "ropri": 2934,
      "Ġmoment": 2935,
      "Ġmundo": 2936,
      "Ġhasta": 2937,
      "ĠAll": 2938,
      "Ġcommand": 2939,
      "uir": 2940,
      "pose": 2941,
      "29": 2942,
      "Ġpour": 2943,
      "Ġnuev": 2944,
      "èĩ": 2945,
      "add": 2946,
      "adores": 2947,
      "Ð¸Ð·": 2948,
      "Ġpast": 2949,
      "leg": 2950,
      "digo": 2951,
      "Ġfilm": 2952,
      "Ġsong": 2953,
      "icro": 2954,
      "Ġren": 2955,
      "Ġproviding": 2956,
      "Ġvirt": 2957,
      "agn": 2958,
      "ĠGerm": 2959,
      "ĠInt": 2960,
      "ĠAfter": 2961,
      "ĠÑģÐ¾": 2962,
      "ĠClass": 2963,
      "Ġcharacters": 2964,
      "AI": 2965,
      "'ll": 2966,
      "Ġmoney": 2967,
      "Ġincluy": 2968,
      "side": 2969,
      "ama": 2970,
      "...": 2971,
      "edad": 2972,
      "Ġlikely": 2973,
      "ively": 2974,
      "ista": 2975,
      "Ġdiferentes": 2976,
      "Ġ16": 2977,
      "ĠPar": 2978,
      "Ġspecies": 2979,
      "gest": 2980,
      "ĠMan": 2981,
      "Ġpersonas": 2982,
      "Ġinvolves": 2983,
      "atic": 2984,
      "Ġprote": 2985,
      "emÃ¡s": 2986,
      "place": 2987,
      "ibility": 2988,
      "ĠâĢĶ": 2989,
      "Ġanimals": 2990,
      "argo": 2991,
      "ĠÐ¿Ð¾Ð´": 2992,
      "Ġhapp": 2993,
      "Ġconvers": 2994,
      "çĽ": 2995,
      "ĠÃº": 2996,
      "06": 2997,
      "Ġintrodu": 2998,
      "Ġsqu": 2999,
      "Ø§": 3000,
      "Ġproces": 3001,
      "Ð¸ÑĤ": 3002,
      "Ġrisk": 3003,
      "Ġtec": 3004,
      "Ġtools": 3005,
      "utions": 3006,
      "Ġusually": 3007,
      "Ġnature": 3008,
      "Ġcreated": 3009,
      "Ġpowerful": 3010,
      "Ġsa": 3011,
      "Ġjour": 3012,
      "Ġestab": 3013,
      "Ã¼r": 3014,
      "Ġsomeone": 3015,
      "Ġsky": 3016,
      "54": 3017,
      "pon": 3018,
      "Ġeither": 3019,
      "Ġdesc": 3020,
      "Ġevents": 3021,
      "Ġtransport": 3022,
      "ĠÃ¡": 3023,
      "Ġlevels": 3024,
      "Ġelse": 3025,
      "Ġresponse": 3026,
      "Ġcompan": 3027,
      "Ġsuccessful": 3028,
      "Ġsistema": 3029,
      "Ġrelated": 3030,
      "Ġimage": 3031,
      "reen": 3032,
      "opp": 3033,
      "09": 3034,
      "ĠWhile": 3035,
      "Ġrobot": 3036,
      "Ġadvant": 3037,
      "Ġprevent": 3038,
      "à¸·": 3039,
      "Ġvisual": 3040,
      "Ġfinancial": 3041,
      "58": 3042,
      "ĠCar": 3043,
      "æĬ": 3044,
      "ĠÐ¿Ð¾Ð»": 3045,
      "ht": 3046,
      "Ð½Ñı": 3047,
      "ĠcÃ³digo": 3048,
      "tica": 3049,
      "Ġmovie": 3050,
      "Ġstudents": 3051,
      "ĠRec": 3052,
      "ÑĪÐ¸": 3053,
      "Ġdivers": 3054,
      "Ġfund": 3055,
      "Ġcommunication": 3056,
      "Ġaction": 3057,
      "Ġareas": 3058,
      "car": 3059,
      "Ġexerc": 3060,
      "à¸²à¸£": 3061,
      "Ġdescrib": 3062,
      "Ġfurther": 3063,
      "::": 3064,
      "Ġalgunos": 3065,
      "Ġbal": 3066,
      "ĠRed": 3067,
      "Ġplayer": 3068,
      "Ġlooking": 3069,
      "encias": 3070,
      "Ġquant": 3071,
      "Ġgran": 3072,
      "Ġwid": 3073,
      "elig": 3074,
      "Ġbecame": 3075,
      "Ġvon": 3076,
      "Ġsolo": 3077,
      "wh": 3078,
      "Ġtaking": 3079,
      "ĠAdd": 3080,
      "à¸Ī": 3081,
      "Ġworking": 3082,
      "Ġtraditional": 3083,
      "ĠÐ¸ÑģÐ¿Ð¾Ð»ÑĮÐ·": 3084,
      "Ġrespect": 3085,
      "ĠSure": 3086,
      "contr": 3087,
      "74": 3088,
      "Ġassoci": 3089,
      "Ġjo": 3090,
      "Ġsat": 3091,
      "ombre": 3092,
      "Ð»Ñĥ": 3093,
      "Ġmeet": 3094,
      "Ð°Ð»ÑĮ": 3095,
      "Ġacross": 3096,
      "Ġstatement": 3097,
      "based": 3098,
      "Ġpay": 3099,
      "use": 3100,
      "Ð·Ñĭ": 3101,
      "bol": 3102,
      "Ġtemperature": 3103,
      "Ġdays": 3104,
      "Ġfull": 3105,
      "ival": 3106,
      "ĠIndia": 3107,
      "Ġconsist": 3108,
      "emos": 3109,
      "æŀ": 3110,
      "Ġtom": 3111,
      "ots": 3112,
      "Ġil": 3113,
      "Ġdas": 3114,
      "Ġcapac": 3115,
      "eces": 3116,
      "ĠGive": 3117,
      "Ġrole": 3118,
      "Ġpopulation": 3119,
      "ĠmÃ©": 3120,
      "ĠMe": 3121,
      "Ð´Ñĥ": 3122,
      "Ġnut": 3123,
      "Ġetc": 3124,
      "Ġtable": 3125,
      "Ġhttps": 3126,
      "ĠÐ¼Ð°": 3127,
      "Ġresults": 3128,
      "etic": 3129,
      "æŃ": 3130,
      "ÑģÐµ": 3131,
      "Ġbehavior": 3132,
      "Ġnecessary": 3133,
      "Ġheart": 3134,
      "Ġexplor": 3135,
      "ites": 3136,
      "works": 3137,
      "ropriate": 3138,
      "care": 3139,
      "arget": 3140,
      "å¦Ĥ": 3141,
      "apt": 3142,
      "Ġphr": 3143,
      "icy": 3144,
      "Ġdesigned": 3145,
      "Ġplant": 3146,
      "ission": 3147,
      "Ġgreen": 3148,
      "Ġdocument": 3149,
      "Ġconse": 3150,
      "Ġschool": 3151,
      "Ġ17": 3152,
      "Ġplayers": 3153,
      "ley": 3154,
      "Ġsyn": 3155,
      "Ã©c": 3156,
      "],": 3157,
      "Ġexamples": 3158,
      "ä¿": 3159,
      "Ġprev": 3160,
      "Ð¸Ñģ": 3161,
      "Ġeasy": 3162,
      "umn": 3163,
      "Ġcuenta": 3164,
      "anz": 3165,
      "çī": 3166,
      "Ġey": 3167,
      "ĠfunciÃ³n": 3168,
      "ĠÐĶ": 3169,
      "é¢": 3170,
      "Ġvalues": 3171,
      "time": 3172,
      "Ġhigher": 3173,
      "lich": 3174,
      "201": 3175,
      "eros": 3176,
      "hemat": 3177,
      "ĠĠĠĠĠĠĠĠĠ": 3178,
      "))": 3179,
      "Ġproblems": 3180,
      "Ġpan": 3181,
      "Ġfunct": 3182,
      "Ġhealthy": 3183,
      "Ġimag": 3184,
      "Ð²Ðµ": 3185,
      "Ġbien": 3186,
      "Ġingred": 3187,
      "ention": 3188,
      "oman": 3189,
      "Ġtechniques": 3190,
      "ivil": 3191,
      "Ġincreased": 3192,
      "Ġscience": 3193,
      "ĠcÃ³mo": 3194,
      "ER": 3195,
      "bs": 3196,
      "uciÃ³n": 3197,
      "ĠSc": 3198,
      "ĠÑĨ": 3199,
      "08": 3200,
      "Ġsigu": 3201,
      "Ġgames": 3202,
      "ĠDis": 3203,
      "çİ": 3204,
      "Ġ</": 3205,
      "Ġembargo": 3206,
      "ĠJap": 3207,
      "Ġessential": 3208,
      "fort": 3209,
      "Ġmakes": 3210,
      "Ġseason": 3211,
      "ilt": 3212,
      "ĠFran": 3213,
      "Ġneeded": 3214,
      "ĠÐ´Ð¾": 3215,
      "Ġblue": 3216,
      "Ġactual": 3217,
      "agon": 3218,
      "Ġfeed": 3219,
      "Ġearly": 3220,
      "Ġrelev": 3221,
      "ute": 3222,
      "04": 3223,
      "head": 3224,
      "ĠLas": 3225,
      "ĠEnglish": 3226,
      "reg": 3227,
      "Ġissues": 3228,
      "Ġdark": 3229,
      "Ġfall": 3230,
      "Ġcontain": 3231,
      "Ġmonth": 3232,
      "Ġchildren": 3233,
      "Ġ&": 3234,
      "Ġsense": 3235,
      "ĠGe": 3236,
      "idence": 3237,
      "ump": 3238,
      "Ġrunning": 3239,
      "Ġalgorithms": 3240,
      "ĠAquÃŃ": 3241,
      "Ġyourself": 3242,
      "Ġcoll": 3243,
      "éĿ": 3244,
      "ised": 3245,
      "Ġhouse": 3246,
      "dom": 3247,
      "Ġmethods": 3248,
      "Ġfriend": 3249,
      "łĢâ": 3250,
      "Ġfru": 3251,
      "Ġegg": 3252,
      "Ġvo": 3253,
      "ĠPer": 3254,
      "Ġpack": 3255,
      "Ð½ÑĭÐ¼": 3256,
      "Ġeffects": 3257,
      "Ð½Ð¾Ð²": 3258,
      "æĦ": 3259,
      "Ġcapital": 3260,
      "Ġterms": 3261,
      "Ġgrowth": 3262,
      "Ġlive": 3263,
      "Ġapplication": 3264,
      "Ġyoung": 3265,
      "Ġleft": 3266,
      "Ġage": 3267,
      "ological": 3268,
      "Ġincreasing": 3269,
      "Ġoriginal": 3270,
      "Ġid": 3271,
      "Ġaverage": 3272,
      "board": 3273,
      "ĠQu": 3274,
      "hr": 3275,
      "name": 3276,
      "itect": 3277,
      "Ġfig": 3278,
      "ÑģÐ»Ð¸": 3279,
      "Ã¡l": 3280,
      "Ġeffective": 3281,
      "come": 3282,
      "áº": 3283,
      "Ġaffect": 3284,
      "ĠÐºÐ°": 3285,
      "ĠGoogle": 3286,
      "Ġsleep": 3287,
      "elling": 3288,
      "Ġlargest": 3289,
      "ements": 3290,
      "Ġmayor": 3291,
      "Ġfoot": 3292,
      "col": 3293,
      "ĠÑħ": 3294,
      "ĠChe": 3295,
      "Ġarray": 3296,
      "Ġprovided": 3297,
      "ä¾": 3298,
      "ĠÑģÐ¿": 3299,
      "Ġprocessing": 3300,
      "Ð³Ð°": 3301,
      "ÑĢÐ¾Ð²Ð°": 3302,
      "ÃŃst": 3303,
      "Ġwriting": 3304,
      "Ġmax": 3305,
      "ÑĤÑĭ": 3306,
      "eter": 3307,
      "ÑĪÐµ": 3308,
      "ules": 3309,
      "Ġanalysis": 3310,
      "Ġdecision": 3311,
      "Ð½Ð¸Ðµ": 3312,
      "uras": 3313,
      "ĠOut": 3314,
      "las": 3315,
      "Ġcant": 3316,
      "quier": 3317,
      "ification": 3318,
      "Ġexpect": 3319,
      "ĠAdemÃ¡s": 3320,
      "Ġclean": 3321,
      "Ġtakes": 3322,
      "alu": 3323,
      "Ġliving": 3324,
      "Ġcontribut": 3325,
      "Ġgoing": 3326,
      "Ġencontr": 3327,
      "++": 3328,
      "Ð»Ð¾": 3329,
      "ÑĨÐ¸Ð¸": 3330,
      "Ġnorm": 3331,
      "aro": 3332,
      "ĠSum": 3333,
      "ibil": 3334,
      "Ġincludes": 3335,
      "cis": 3336,
      "Ġaltern": 3337,
      "Ġemot": 3338,
      "ests": 3339,
      "Ġaddress": 3340,
      "ork": 3341,
      "key": 3342,
      "ĠOver": 3343,
      "ius": 3344,
      "æĶ": 3345,
      "aring": 3346,
      "Ġbig": 3347,
      "Ġcontinu": 3348,
      "ĠPre": 3349,
      "ÃŃcul": 3350,
      "Ġmass": 3351,
      "Ġsust": 3352,
      "Ġtoday": 3353,
      "Ġindustry": 3354,
      "Ġinn": 3355,
      "Ġbegin": 3356,
      "Ġdifference": 3357,
      "ĠÑĤÐ¾": 3358,
      "Ġbuilding": 3359,
      "idas": 3360,
      "æĥ": 3361,
      "Ġobjects": 3362,
      "Ġphot": 3363,
      "Ġmarketing": 3364,
      "Ġkind": 3365,
      "Ġcolle": 3366,
      "Ġwhether": 3367,
      "Ġbir": 3368,
      "å½": 3369,
      "ĠDr": 3370,
      "Ġappropriate": 3371,
      "Ġstates": 3372,
      "ĠÐ´ÑĢÑĥ": 3373,
      "ĠConst": 3374,
      "agraph": 3375,
      "ML": 3376,
      "cent": 3377,
      "dr": 3378,
      "view": 3379,
      "æł": 3380,
      "ended": 3381,
      "elt": 3382,
      "Ġcos": 3383,
      "Ġlugar": 3384,
      "ector": 3385,
      "ler": 3386,
      "Ġdiscover": 3387,
      "Ġsubject": 3388,
      "Ġopp": 3389,
      "Ġnamed": 3390,
      "Ġste": 3391,
      "Ġoil": 3392,
      "Ġenough": 3393,
      "Ġpatterns": 3394,
      "Ġeine": 3395,
      "Ġsolar": 3396,
      "Ġpun": 3397,
      "Ġalong": 3398,
      "Ġdeterm": 3399,
      "Ġtecn": 3400,
      "Ġsepar": 3401,
      "ĠÐ¿ÑĢÐµÐ´": 3402,
      "Ġvez": 3403,
      "Ġmant": 3404,
      "eder": 3405,
      "ĠRo": 3406,
      "Ġrele": 3407,
      "Ġindepend": 3408,
      "ĠProv": 3409,
      "Â»": 3410,
      "Ġmal": 3411,
      "ilos": 3412,
      "Ġlater": 3413,
      "ĠII": 3414,
      "Ġeducation": 3415,
      "eff": 3416,
      "Ġscript": 3417,
      "ĠUna": 3418,
      "Ġsem": 3419,
      "Ġmove": 3420,
      "ĠSw": 3421,
      "lying": 3422,
      "ĠÐ¼Ð¾Ð³": 3423,
      "çĲ": 3424,
      "Ġcard": 3425,
      "Ġinit": 3426,
      "light": 3427,
      "Ġwide": 3428,
      "Ð°Ð¼": 3429,
      "Ãºs": 3430,
      "Ġexperiment": 3431,
      "ĠArt": 3432,
      "cription": 3433,
      "Ġwhite": 3434,
      "Ġtrue": 3435,
      "Ġinternet": 3436,
      "Ġ>": 3437,
      "ĠAust": 3438,
      "ĠBrit": 3439,
      "ĠHT": 3440,
      "ĠLin": 3441,
      "Ġdesde": 3442,
      "Ġutiliza": 3443,
      "Ġpurch": 3444,
      "Ġinf": 3445,
      "Ġrate": 3446,
      "anger": 3447,
      "Ġavoid": 3448,
      "Ġoptions": 3449,
      "Ġtax": 3450,
      "Ġcentury": 3451,
      "Ġvirtual": 3452,
      "Ġune": 3453,
      "phere": 3454,
      "Ġtienes": 3455,
      "cient": 3456,
      "ĠIntern": 3457,
      "ĠÂ«": 3458,
      "ĶĢâ": 3459,
      "rior": 3460,
      "çĶŁ": 3461,
      "men": 3462,
      "ÃŃfic": 3463,
      "ĠUnivers": 3464,
      "ĠEsto": 3465,
      "Ġtodo": 3466,
      "Ġleading": 3467,
      "Ġtarget": 3468,
      "Ġtransform": 3469,
      "ids": 3470,
      "Ġpolitical": 3471,
      "Ġcapt": 3472,
      "ditions": 3473,
      "rown": 3474,
      "Ġindividuals": 3475,
      "Ġallowing": 3476,
      "cular": 3477,
      "over": 3478,
      "ister": 3479,
      "('": 3480,
      "iles": 3481,
      "Ġmathemat": 3482,
      "set": 3483,
      "Ġestos": 3484,
      "Ġprogress": 3485,
      "ml": 3486,
      "ĠMon": 3487,
      "ologies": 3488,
      "org": 3489,
      "ĠDec": 3490,
      "Ġabs": 3491,
      "ume": 3492,
      "Ġdone": 3493,
      "Ġfar": 3494,
      "Ġequip": 3495,
      "Ġdecisions": 3496,
      "Ġcompanies": 3497,
      "ĠKing": 3498,
      "ãĥ": 3499,
      "Ġhours": 3500,
      "ello": 3501,
      "eta": 3502,
      "Ġteach": 3503,
      "Ġshare": 3504,
      "Ġmeasure": 3505,
      "Ġstyle": 3506,
      "Ġpoll": 3507,
      "Ġseen": 3508,
      "Ġreport": 3509,
      "Ġcollect": 3510,
      "ologÃŃa": 3511,
      "ĠÐ¾Ð¿": 3512,
      "ipp": 3513,
      "æĸ¹": 3514,
      "ague": 3515,
      "Ġcompr": 3516,
      "Ġanimal": 3517,
      "Ġcreative": 3518,
      "Ġgoal": 3519,
      "Ġappear": 3520,
      "Ð²Ð»Ñı": 3521,
      "ĠÐ¿Ð¾Ð¼": 3522,
      "Ġâ": 3523,
      "Ġreci": 3524,
      "Ġusu": 3525,
      "Ġparagraph": 3526,
      "ĠRew": 3527,
      "ĠCons": 3528,
      "ĠHar": 3529,
      "Ġlower": 3530,
      "resh": 3531,
      "Ġsay": 3532,
      "ĠYes": 3533,
      "Ġmedical": 3534,
      "ĠRep": 3535,
      "Ġpersona": 3536,
      "icial": 3537,
      "ĠFrom": 3538,
      "ĠPe": 3539,
      "ĠJapan": 3540,
      "Ġhot": 3541,
      "astic": 3542,
      "Ġminim": 3543,
      "à¸µà¹Ī": 3544,
      "ĠApple": 3545,
      "Ġdin": 3546,
      "Ġflo": 3547,
      "Ġfish": 3548,
      "ait": 3549,
      "Ġlat": 3550,
      "Ġbusinesses": 3551,
      "Ġlenguaje": 3552,
      "aba": 3553,
      "Ġpaper": 3554,
      "Ġperfect": 3555,
      "Ġstrength": 3556,
      "Ġdiscuss": 3557,
      "Ġcup": 3558,
      "Ġdeg": 3559,
      "Ð»Ñİ": 3560,
      "Ġattack": 3561,
      "ĠClassify": 3562,
      "Ġput": 3563,
      "ĠMin": 3564,
      "Ġmaterials": 3565,
      "Ġatmos": 3566,
      "Ġveh": 3567,
      "Ġpath": 3568,
      "Ġtour": 3569,
      "Ġauf": 3570,
      "Ġweather": 3571,
      "ground": 3572,
      "å¯¹": 3573,
      "esis": 3574,
      "Ġelectr": 3575,
      "Ġ13": 3576,
      "Ð¼ÐµÑĢ": 3577,
      "Ġupon": 3578,
      "Ġcommunity": 3579,
      "ole": 3580,
      "Ġmid": 3581,
      "ample": 3582,
      "Ġproduction": 3583,
      "Ġreview": 3584,
      "èĩª": 3585,
      "Ð¸Ð¹": 3586,
      "Ġproduce": 3587,
      "Ġbuy": 3588,
      "sp": 3589,
      "Ġleast": 3590,
      "Ġposition": 3591,
      "Ġmessage": 3592,
      "Ð±Ð¾ÑĤ": 3593,
      "ÙĦ": 3594,
      "Ġbill": 3595,
      "Ġconditions": 3596,
      "ucle": 3597,
      "Ġfavor": 3598,
      "ÃŃan": 3599,
      "iction": 3600,
      "Ġphrase": 3601,
      "eles": 3602,
      "Ġvi": 3603,
      "Ġcarbon": 3604,
      "Ġfue": 3605,
      "ters": 3606,
      "ule": 3607,
      "Ġgust": 3608,
      "Ġrequires": 3609,
      "200": 3610,
      "Script": 3611,
      "Ġled": 3612,
      "nea": 3613,
      "Ð¾Ð±Ñĭ": 3614,
      "Ã§Ã£o": 3615,
      "Ġfast": 3616,
      "aken": 3617,
      "Ġtodos": 3618,
      "Ġbring": 3619,
      "isf": 3620,
      "itation": 3621,
      "Ġhope": 3622,
      "Ġalm": 3623,
      "Ġarm": 3624,
      "Ġci": 3625,
      "Ġuno": 3626,
      "Ġ14": 3627,
      "ĠDevelop": 3628,
      "andom": 3629,
      "Ġfamil": 3630,
      "Ġextre": 3631,
      "unch": 3632,
      "eso": 3633,
      "cean": 3634,
      "Ð¹ÑĤÐµ": 3635,
      "iere": 3636,
      "à¸Ĥ": 3637,
      "uments": 3638,
      "Ġemail": 3639,
      "Ġcuando": 3640,
      "serv": 3641,
      "izaciÃ³n": 3642,
      "ientos": 3643,
      "æ°": 3644,
      "ĠSol": 3645,
      "ocr": 3646,
      "ientras": 3647,
      "ĠAut": 3648,
      "ffee": 3649,
      "Ġupd": 3650,
      "ising": 3651,
      "à¸¸": 3652,
      "Ġ==": 3653,
      "Ġ50": 3654,
      "Ġheat": 3655,
      "à¸Ńà¸ĩ": 3656,
      "Ġusar": 3657,
      "load": 3658,
      "Ġmental": 3659,
      "æĪĸ": 3660,
      "Ġvia": 3661,
      "Ġground": 3662,
      "SS": 3663,
      "Ġcannot": 3664,
      "ĠSch": 3665,
      "Ġdescribe": 3666,
      "Ġalgo": 3667,
      "Ġlanguages": 3668,
      "æĹ¶": 3669,
      "Ġded": 3670,
      "Ġvac": 3671,
      "ĠÐ±Ñĥ": 3672,
      "Ġblack": 3673,
      "æĿ¥": 3674,
      "ster": 3675,
      "ĠÐºÐ¾Ð½": 3676,
      "Ġamong": 3677,
      "Ġtheory": 3678,
      "ĠÐ¢": 3679,
      "Ġtend": 3680,
      "à¸Ľ": 3681,
      "ĠGu": 3682,
      "Ġslow": 3683,
      "weet": 3684,
      "ĠprogramaciÃ³n": 3685,
      "Ġcop": 3686,
      "Ġcomplete": 3687,
      "Ġmanagement": 3688,
      "ona": 3689,
      "imin": 3690,
      "æĽ": 3691,
      "iter": 3692,
      "Ġweek": 3693,
      "ĠLet": 3694,
      "Ġpractice": 3695,
      "Ġexplore": 3696,
      "à¸³": 3697,
      "ria": 3698,
      "Ġnovel": 3699,
      "Ġlibr": 3700,
      "erse": 3701,
      "Ġbegan": 3702,
      "ĠWest": 3703,
      "Ġobt": 3704,
      "Ð½Ð¾ÑģÑĤÑĮ": 3705,
      "Ġlength": 3706,
      "Ġadditional": 3707,
      "ĠEste": 3708,
      "Ġvel": 3709,
      "ID": 3710,
      "Ġlot": 3711,
      "ĠUs": 3712,
      "ĠÐĺ": 3713,
      "Ġ25": 3714,
      "Ġweight": 3715,
      "Ġpoem": 3716,
      "Ġlives": 3717,
      "ĠAPI": 3718,
      "echan": 3719,
      "Ġblock": 3720,
      "Ġcolors": 3721,
      "æ³ķ": 3722,
      "Ġgrav": 3723,
      "Ġbecom": 3724,
      "rench": 3725,
      "ĠFl": 3726,
      "Ġassociated": 3727,
      "å¿": 3728,
      "Ġregul": 3729,
      "å¤§": 3730,
      "Ġayudar": 3731,
      "è´": 3732,
      "Ġemp": 3733,
      "ring": 3734,
      "Ġni": 3735,
      "Ġspread": 3736,
      "ä½ľ": 3737,
      "ison": 3738,
      "äºİ": 3739,
      "Ġhealthcare": 3740,
      "Ġinterpre": 3741,
      "ç¨": 3742,
      "ancia": 3743,
      "Ð½Ð¾Ðµ": 3744,
      "Ġdatab": 3745,
      "Ð½Ð¾ÑģÑĤÐ¸": 3746,
      "Ġplayed": 3747,
      "Ġsup": 3748,
      "Ġbooks": 3749,
      "æı": 3750,
      "Ġexplain": 3751,
      "åĪ°": 3752,
      "Ġtopic": 3753,
      "Ġconstru": 3754,
      "è¡Į": 3755,
      "ĠNational": 3756,
      "ĠSouth": 3757,
      "ä»ĸ": 3758,
      "Ġculture": 3759,
      "Ġrestaur": 3760,
      "ĠÑģÐ²Ð¾": 3761,
      "Ġtreat": 3762,
      "Ġsn": 3763,
      "asons": 3764,
      "icate": 3765,
      "ÑĤÑĥ": 3766,
      "ĠSan": 3767,
      "ĠWind": 3768,
      "ĠWho": 3769,
      "Ġlocated": 3770,
      "Ġactivity": 3771,
      "Ġeasier": 3772,
      "na": 3773,
      "Ġluz": 3774,
      "ĠSet": 3775,
      "ĠMay": 3776,
      "Ġserver": 3777,
      "iency": 3778,
      "Ġlimit": 3779,
      "Ġdetermine": 3780,
      "aps": 3781,
      "Ġaddition": 3782,
      "iful": 3783,
      "Ġevalu": 3784,
      "ON": 3785,
      "Ġcateg": 3786,
      "Ġdeveloped": 3787,
      "Ġaspect": 3788,
      "Ġhol": 3789,
      "issions": 3790,
      "\">": 3791,
      "Ġtool": 3792,
      "amm": 3793,
      "Ġimm": 3794,
      "Ġban": 3795,
      "å±": 3796,
      "ises": 3797,
      "Ġauthor": 3798,
      "ront": 3799,
      "ĠÐ»Ñİ": 3800,
      "ĠReg": 3801,
      "ĠÐ´ÑĢÑĥÐ³": 3802,
      "ube": 3803,
      "itions": 3804,
      "sel": 3805,
      "Ġface": 3806,
      "Ġforce": 3807,
      "Ġsequ": 3808,
      "Ġfeature": 3809,
      "Ġwrite": 3810,
      "Ġconcl": 3811,
      "Ġloss": 3812,
      "Ġopin": 3813,
      "no": 3814,
      "Ġcontact": 3815,
      "ÑĥÑĩ": 3816,
      "Ġstarted": 3817,
      "ched": 3818,
      "oon": 3819,
      "ĠĠĠĠĠĠĠĠĠĠĠĠĠĠĠĠĠĠĠĠĠĠĠĠĠĠĠĠĠĠĠĠ": 3820,
      "Ġmount": 3821,
      "omen": 3822,
      "Ã³m": 3823,
      "Ġprice": 3824,
      "dle": 3825,
      "ĠÐľ": 3826,
      "ams": 3827,
      "Ġvisit": 3828,
      "Ġfamous": 3829,
      "Ġwritten": 3830,
      "æĪĲ": 3831,
      "Ġparticip": 3832,
      "ought": 3833,
      "ration": 3834,
      "ĠDesign": 3835,
      "Ġtanto": 3836,
      "ĠÐºÐ¾Ð¼": 3837,
      "Ġsituation": 3838,
      "uent": 3839,
      "Ð°ÑĢ": 3840,
      "Ġframe": 3841,
      "Ġdesarroll": 3842,
      "Ġclim": 3843,
      "Ġsort": 3844,
      "Ġstress": 3845,
      "Ġdecid": 3846,
      "Ð¾Ð²Ñĭ": 3847,
      "äºĽ": 3848,
      "jos": 3849,
      "chen": 3850,
      "Ġmejorar": 3851,
      "ĠYork": 3852,
      "Ġincor": 3853,
      "Ġhabil": 3854,
      "æĮ": 3855,
      "ĠMed": 3856,
      "Ġplaying": 3857,
      "Ġdevices": 3858,
      "Ġsociety": 3859,
      "Ġeth": 3860,
      "aced": 3861,
      "Ġclos": 3862,
      "Ġsecure": 3863,
      "flict": 3864,
      "Ġpropor": 3865,
      "Ġassist": 3866,
      "Ġdevice": 3867,
      "ĠVer": 3868,
      "Ġfeeling": 3869,
      "ĠNorth": 3870,
      "łĢâłĢâ": 3871,
      "Ġrespuest": 3872,
      "OS": 3873,
      "ĠBu": 3874,
      "Ġsaid": 3875,
      "Ġlif": 3876,
      "æİ": 3877,
      "los": 3878,
      "izes": 3879,
      "ĠnÃºmero": 3880,
      "Ġtree": 3881,
      "Ġrock": 3882,
      "Ġtienen": 3883,
      "ä¸Ģä¸ª": 3884,
      "Ġbasic": 3885,
      "Ġdurante": 3886,
      "Ġfal": 3887,
      "Ġfire": 3888,
      "kt": 3889,
      "Ġdam": 3890,
      "Ġjourney": 3891,
      "Ġdistance": 3892,
      "Ġhabit": 3893,
      "ä»¬": 3894,
      "Ġchallenges": 3895,
      "ĠSie": 3896,
      "Ġflu": 3897,
      "Ġoffic": 3898,
      "Ġaprend": 3899,
      "Ġdesp": 3900,
      "Ġalgunas": 3901,
      "Ġparte": 3902,
      "Ġplants": 3903,
      "Ġsolution": 3904,
      "Ġkm": 3905,
      "Ġutilizar": 3906,
      "çŃī": 3907,
      "Ġroom": 3908,
      "Ġblo": 3909,
      "ops": 3910,
      "Ġnegative": 3911,
      "ĠRewrite": 3912,
      "Ġann": 3913,
      "Ġvariable": 3914,
      "Ġharm": 3915,
      "Ġencour": 3916,
      "Ġteng": 3917,
      "ĠPol": 3918,
      "Ġoverall": 3919,
      "åŃ¦": 3920,
      "www": 3921,
      "ĠCo": 3922,
      "Ġimportance": 3923,
      "ĶĢâĶĢâ": 3924,
      "tras": 3925,
      "Ġvalid": 3926,
      "ora": 3927,
      "Ġteor": 3928,
      "Ġinsp": 3929,
      "Ġfrequ": 3930,
      "ĠFirst": 3931,
      "çĲĨ": 3932,
      "Ġĉ": 3933,
      "Ġcualquier": 3934,
      "cos": 3935,
      "ken": 3936,
      "Ġdream": 3937,
      "ĠSec": 3938,
      "ructions": 3939,
      "Ġadvent": 3940,
      "Ġdonde": 3941,
      "Ġmotiv": 3942,
      "Ġissue": 3943,
      "bit": 3944,
      "Ġmagn": 3945,
      "Ġcivil": 3946,
      "ÑģÑģ": 3947,
      "Ġmuchos": 3948,
      "Ġrelig": 3949,
      "thing": 3950,
      "Ð¾Ð¼Ñĥ": 3951,
      "Ġpurpose": 3952,
      "ĠMod": 3953,
      "åĽ½": 3954,
      "Ġinnov": 3955,
      "ĠÐ²Ð¸": 3956,
      "Ġestud": 3957,
      "Ġversion": 3958,
      "Ġfeedback": 3959,
      "ĠKe": 3960,
      "Ġoffers": 3961,
      "Ġmis": 3962,
      "ĠÐ¼Ðµ": 3963,
      "ĠlÃŃnea": 3964,
      "ĠÑģÐ¸": 3965,
      "ĠPerson": 3966,
      "ĠProvide": 3967,
      "Ġsab": 3968,
      "Ġingredients": 3969,
      "num": 3970,
      "iger": 3971,
      "ĠestÃ¡n": 3972,
      "Ġtipo": 3973,
      "Ġmix": 3974,
      "ĠData": 3975,
      "Ġresol": 3976,
      "Ġampl": 3977,
      "Ġlocation": 3978,
      "ĠasÃŃ": 3979,
      "Ġprocesses": 3980,
      "ĠpaÃŃs": 3981,
      "ivity": 3982,
      "ĠSer": 3983,
      "ĠWhich": 3984,
      "Ġdepending": 3985,
      "Ġband": 3986,
      "Ġprompt": 3987,
      "ä¼ļ": 3988,
      "Ġir": 3989,
      "Ġpermit": 3990,
      "âĸĪ": 3991,
      "icios": 3992,
      "Ġanything": 3993,
      "Ġinstead": 3994,
      "Ġou": 3995,
      "Ġsetting": 3996,
      "Ġgenerally": 3997,
      "ĠLinux": 3998,
      "å¤ļ": 3999,
      "oo": 4000,
      "ĠaquÃŃ": 4001,
      "itude": 4002,
      "Ġreleased": 4003,
      "ha": 4004,
      "va": 4005,
      "ĠAmerica": 4006,
      "mon": 4007,
      "isis": 4008,
      "ĠChina": 4009,
      "Ġchoice": 4010,
      "Ġmientras": 4011,
      "Ġcourse": 4012,
      "pero": 4013,
      "Ġpreg": 4014,
      "tre": 4015,
      "æ²": 4016,
      "ramient": 4017,
      "Ġgas": 4018,
      "emic": 4019,
      "Ġlarger": 4020,
      "Ġpel": 4021,
      "ĠTake": 4022,
      "Ġdemand": 4023,
      "éĻ": 4024,
      "ä¸Ĭ": 4025,
      "åľ°": 4026,
      "ĠTrans": 4027,
      "gos": 4028,
      "Ġtur": 4029,
      "Ġaprender": 4030,
      "æĤ": 4031,
      "Ġmechan": 4032,
      "Ġfit": 4033,
      "ried": 4034,
      "Ġgreater": 4035,
      "##": 4036,
      "ract": 4037,
      "Ġmel": 4038,
      "ocol": 4039,
      "Ġneural": 4040,
      "zar": 4041,
      "Ġefect": 4042,
      "ĠSal": 4043,
      "Ġstor": 4044,
      "ĠHis": 4045,
      "ĠLear": 4046,
      "Ġmatter": 4047,
      "Ġcomponents": 4048,
      "202": 4049,
      "éľ": 4050,
      "hel": 4051,
      "Ġpage": 4052,
      "ĠBar": 4053,
      "ounter": 4054,
      "Ġformat": 4055,
      "Ġrelativ": 4056,
      "Ġtitle": 4057,
      "ä¸ĭ": 4058,
      "St": 4059,
      "åİ": 4060,
      "orial": 4061,
      "Ġconv": 4062,
      "Ġimages": 4063,
      "Ġmembers": 4064,
      "ĠJavaScript": 4065,
      "ĠApr": 4066,
      "Ġvent": 4067,
      "Ġtw": 4068,
      "Ġonce": 4069,
      "Ġur": 4070,
      "ĠInc": 4071,
      "Ġhistoria": 4072,
      "Ġcoc": 4073,
      "Ġconflict": 4074,
      "istics": 4075,
      "iff": 4076,
      "Ġselect": 4077,
      "Ġsets": 4078,
      "ators": 4079,
      "Ġwood": 4080,
      "ecu": 4081,
      "Ġherramient": 4082,
      "Ġorganiz": 4083,
      "Ġdass": 4084,
      "ÑĢÐ¾Ð²": 4085,
      "Ġparts": 4086,
      "marize": 4087,
      "Ġqui": 4088,
      "Ġdish": 4089,
      "æĭ": 4090,
      "Ġtell": 4091,
      "Ã³g": 4092,
      "obile": 4093,
      "ĠÐŃ": 4094,
      "ĠpolÃŃ": 4095,
      "Â°": 4096,
      "Ġhal": 4097,
      "Ġuso": 4098,
      "à¸²à¸¡": 4099,
      "Ġthought": 4100,
      "Ġthird": 4101,
      "Ġsch": 4102,
      "Ġvoc": 4103,
      "Ð¾Ð»Ðµ": 4104,
      "Ġsalud": 4105,
      "Ġrain": 4106,
      "ibles": 4107,
      "Ġmemory": 4108,
      "Ġsolve": 4109,
      "Ġatmosphere": 4110,
      "sy": 4111,
      "odo": 4112,
      "Ġgrad": 4113,
      "ewable": 4114,
      "itable": 4115,
      "Ġotro": 4116,
      "Ġcaused": 4117,
      "Ġveloc": 4118,
      "Ġfa": 4119,
      "Ġhost": 4120,
      "Ġsupp": 4121,
      "Ġast": 4122,
      "Ġsurface": 4123,
      "ĠdÃŃa": 4124,
      "Ġhan": 4125,
      "ĠNet": 4126,
      "Ġthroughout": 4127,
      "Ġsalt": 4128,
      "ÃŁ": 4129,
      "ĠCity": 4130,
      "Ġdiet": 4131,
      "Ġsatisf": 4132,
      "icious": 4133,
      "ibr": 4134,
      "Ġbelow": 4135,
      "Ġinvestig": 4136,
      "ĠaÃ±os": 4137,
      "Ġheav": 4138,
      "Ġeconomy": 4139,
      "ÑĤÐ¾Ð±Ñĭ": 4140,
      "ĠFrench": 4141,
      "ĠÐ¾Ñģ": 4142,
      "Ġol": 4143,
      "ione": 4144,
      "Ġsolutions": 4145,
      "ians": 4146,
      "una": 4147,
      "Ġmaintain": 4148,
      "erte": 4149,
      "Ġdatas": 4150,
      "Ġscientific": 4151,
      "Ġvehic": 4152,
      "Ġflex": 4153,
      "Ġcomplet": 4154,
      "Ġrelevant": 4155,
      "rict": 4156,
      "irl": 4157,
      "ĠThat": 4158,
      "Ġcaracter": 4159,
      "Ġprior": 4160,
      "Ġpow": 4161,
      "Ġcoffee": 4162,
      "Ġefficiency": 4163,
      "oca": 4164,
      "ees": 4165,
      "Ġdraw": 4166,
      "Ġagua": 4167,
      "ĠCont": 4168,
      "Ġencuent": 4169,
      "Ġprevious": 4170,
      ",,": 4171,
      "éģ": 4172,
      "Ġargument": 4173,
      "Ġaccom": 4174,
      "Ġmaxim": 4175,
      "ellow": 4176,
      "ĠSm": 4177,
      "ĠMach": 4178,
      "su": 4179,
      "Ġbud": 4180,
      "Ġgraph": 4181,
      "ĠÐ¼Ð¸": 4182,
      "Ġtrees": 4183,
      "Ġopportunities": 4184,
      "ining": 4185,
      "Ġinstr": 4186,
      "rist": 4187,
      "Ġdate": 4188,
      "Ġmulti": 4189,
      "Ġcamb": 4190,
      "Ġhighly": 4191,
      "Ġteams": 4192,
      "inter": 4193,
      "ÑģÑĤÐ²Ð°": 4194,
      "rypt": 4195,
      "Ġill": 4196,
      "ĠEsta": 4197,
      "ĠtravÃ©s": 4198,
      "king": 4199,
      "Ð¸ÑĤÑĮ": 4200,
      "ĠSug": 4201,
      "Ġintelig": 4202,
      "Ġstrategies": 4203,
      "ny": 4204,
      "zen": 4205,
      "Ġbuilt": 4206,
      "Ġcomes": 4207,
      "Ġjuego": 4208,
      "Ġposible": 4209,
      "Ġsentences": 4210,
      "angle": 4211,
      "Ġsmaller": 4212,
      "Ġcosts": 4213,
      "Ġperspect": 4214,
      "ĠAssistant": 4215,
      "cel": 4216,
      "Ð½Ð°Ñı": 4217,
      "Ġcareer": 4218,
      "QL": 4219,
      "Ġtalk": 4220,
      "ĠPued": 4221,
      "Ġreducing": 4222,
      "æķ°": 4223,
      "Ġvot": 4224,
      "ago": 4225,
      "Ð²ÐµÑĤ": 4226,
      "Ġbutter": 4227,
      "Ġappl": 4228,
      "Ġencontrar": 4229,
      "ĠHTML": 4230,
      "AR": 4231,
      "uly": 4232,
      "Ġqual": 4233,
      "Ġemerg": 4234,
      "Ġverd": 4235,
      "ĠÐ»Ð¸": 4236,
      "Ġsafety": 4237,
      "ss": 4238,
      "Ð¶Ð°": 4239,
      "Ġeveryone": 4240,
      "Ġstrategy": 4241,
      "æµ": 4242,
      "Ġtechnologies": 4243,
      "though": 4244,
      "Ġnote": 4245,
      "LE": 4246,
      "Ġexperiences": 4247,
      "ĠAg": 4248,
      "ĠGPT": 4249,
      "Ġshape": 4250,
      "Ġtim": 4251,
      "ouble": 4252,
      "iene": 4253,
      "Ġaccording": 4254,
      "Ġmodelo": 4255,
      "Ġlack": 4256,
      "bert": 4257,
      "ĠAcc": 4258,
      "ĠEsp": 4259,
      "ĠTambiÃ©n": 4260,
      "gress": 4261,
      "Ġliter": 4262,
      "à¹ĩ": 4263,
      "Ġnetworks": 4264,
      "ĠAct": 4265,
      "ste": 4266,
      "Ġdisplay": 4267,
      "ox": 4268,
      "Ġnos": 4269,
      "Ġeasily": 4270,
      "Ġwent": 4271,
      "ĠHer": 4272,
      "iza": 4273,
      "thern": 4274,
      "Ġcomputing": 4275,
      "Ġciud": 4276,
      "ÑĢÐ¾Ñģ": 4277,
      "Ġdebe": 4278,
      "ĠPlease": 4279,
      "ĠÐ¿ÐµÑĢÐµ": 4280,
      "Ġabove": 4281,
      "Ġkann": 4282,
      "ĠWhy": 4283,
      "Ġdifferences": 4284,
      "Ġbeautiful": 4285,
      "Ġcantidad": 4286,
      "Ġnuest": 4287,
      "umen": 4288,
      "Ġchat": 4289,
      "Ġadapt": 4290,
      "Ġcenter": 4291,
      "Ġantes": 4292,
      "Ġbatter": 4293,
      "ĠSuggest": 4294,
      "irm": 4295,
      "Ġlista": 4296,
      "nen": 4297,
      "ajes": 4298,
      "ailed": 4299,
      "ĠFrance": 4300,
      "Ġpregunt": 4301,
      "Ġpalab": 4302,
      "Ġnews": 4303,
      "uesto": 4304,
      "Ġfundament": 4305,
      "Ġmes": 4306,
      "Ġachieve": 4307,
      "Ġreason": 4308,
      "Ġstock": 4309,
      "Ġbright": 4310,
      "Ġaqu": 4311,
      "Ġfaster": 4312,
      "ĠCent": 4313,
      "Ġadjust": 4314,
      "AT": 4315,
      "ket": 4316,
      "yr": 4317,
      "Ġrap": 4318,
      "empt": 4319,
      "ificar": 4320,
      "Ġcheese": 4321,
      "Ġayudarte": 4322,
      "Ġtrained": 4323,
      "new": 4324,
      "soft": 4325,
      "Ġempres": 4326,
      "Ġagr": 4327,
      "Ġlayer": 4328,
      "Ġsustain": 4329,
      "æĻ": 4330,
      "Ġpet": 4331,
      "Ġsquare": 4332,
      "Ġstream": 4333,
      "Ġesto": 4334,
      "Ġcit": 4335,
      "Ġplus": 4336,
      "Ġmatch": 4337,
      "Ġrelationships": 4338,
      "æıĲ": 4339,
      "éľĢ": 4340,
      "https": 4341,
      "Ġwatch": 4342,
      "Ġjug": 4343,
      "Ġextra": 4344,
      "ublic": 4345,
      "Ġera": 4346,
      "Ġgetting": 4347,
      "ĠØ": 4348,
      "Ġsor": 4349,
      "ĠSystem": 4350,
      "ields": 4351,
      "Ġwidely": 4352,
      "equ": 4353,
      "ĠÐķ": 4354,
      "à¸¹": 4355,
      "Ġcover": 4356,
      "Ġexercise": 4357,
      "inary": 4358,
      "irus": 4359,
      "Ġpoder": 4360,
      "Ġquier": 4361,
      "Ġreli": 4362,
      "à¸ģà¸²à¸£": 4363,
      "èµ": 4364,
      "Ġproporcion": 4365,
      "cal": 4366,
      "Ġcab": 4367,
      "Ġotras": 4368,
      "oups": 4369,
      "åıĳ": 4370,
      "Ġhighest": 4371,
      "Ġstudent": 4372,
      "æĸĩ": 4373,
      "Ġarchitect": 4374,
      "âĢĶ": 4375,
      "Ġspeech": 4376,
      "onom": 4377,
      "my": 4378,
      "ĠAp": 4379,
      "Ġrather": 4380,
      "Ġcontains": 4381,
      "Ġevidence": 4382,
      "Ġlonger": 4383,
      "åĪĨ": 4384,
      "Ġrequired": 4385,
      "Ġsave": 4386,
      "order": 4387,
      "ĠÑĩÐ°": 4388,
      "Ġsummer": 4389,
      "ony": 4390,
      "Ġcut": 4391,
      "100": 4392,
      "ĠÑģÑĤÐ°": 4393,
      "Ġbow": 4394,
      "Ġnav": 4395,
      "çļĦç": 4396,
      "ties": 4397,
      "ĠÑĢ": 4398,
      "ä½¿": 4399,
      "Ġimproved": 4400,
      "ÑģÑĤÐ²Ð¾": 4401,
      "åĲĮ": 4402,
      "Ġcommonly": 4403,
      "iam": 4404,
      "Ġlibrary": 4405,
      "Ġregard": 4406,
      "Ð¾Ñĩ": 4407,
      "like": 4408,
      "ka": 4409,
      "ably": 4410,
      "Ġmanage": 4411,
      "ÑĢÐµÐ¼": 4412,
      "ĠfÃŃs": 4413,
      "ĠSim": 4414,
      "Ġpeace": 4415,
      "Ġattention": 4416,
      "inar": 4417,
      "Ġllam": 4418,
      "Ġcollabor": 4419,
      "met": 4420,
      "Ġfiles": 4421,
      "Ġlittle": 4422,
      "Ġlate": 4423,
      "Ġerr": 4424,
      "Ġaccept": 4425,
      "ĠAustral": 4426,
      "mary": 4427,
      "oe": 4428,
      "Ġalt": 4429,
      "ĠenergÃŃa": 4430,
      "Ġconfig": 4431,
      "jar": 4432,
      "Ã¡ct": 4433,
      "Ġchoose": 4434,
      "inct": 4435,
      "att": 4436,
      "azon": 4437,
      "ursos": 4438,
      "è¾": 4439,
      "untos": 4440,
      "eras": 4441,
      "unque": 4442,
      "ÐºÐ¾Ð²": 4443,
      "ÑĢÐ°Ð²": 4444,
      "Ġ2020": 4445,
      "ĠBritish": 4446,
      "Ġtaken": 4447,
      "Ġsil": 4448,
      "Ġsele": 4449,
      "Ġestim": 4450,
      "Ġeggs": 4451,
      "Ġnor": 4452,
      "ension": 4453,
      "Ġnumer": 4454,
      "Ġtown": 4455,
      ",\"": 4456,
      "Ġvill": 4457,
      "Ġrules": 4458,
      "Ġexact": 4459,
      "Ġcompar": 4460,
      "Ġcloud": 4461,
      "Ġoutside": 4462,
      "Ġactive": 4463,
      "ĠUniversity": 4464,
      "ç¨ĭ": 4465,
      "raz": 4466,
      "input": 4467,
      "Ġcomfort": 4468,
      "ĠVal": 4469,
      "Ġobserv": 4470,
      "ÑģÑĤÐ²ÐµÐ½": 4471,
      "Ġdatabase": 4472,
      "Ġcities": 4473,
      "Ġrespond": 4474,
      "dex": 4475,
      "Ġmuchas": 4476,
      "Ġcultural": 4477,
      "hol": 4478,
      "Ġang": 4479,
      "ĠÐĿÐ°": 4480,
      "ĠPres": 4481,
      "Ġconsult": 4482,
      "Ġuseful": 4483,
      "Ġchem": 4484,
      "ampions": 4485,
      "ĠÐºÐ¾ÑĤÐ¾ÑĢÑĭÐµ": 4486,
      "æį": 4487,
      "Ġ40": 4488,
      "icrosoft": 4489,
      "æĽ´": 4490,
      "Ġcast": 4491,
      "Ġ2022": 4492,
      "Ã²": 4493,
      "ĠÐł": 4494,
      "rie": 4495,
      "oco": 4496,
      "ÑĤÐ¸Ð²": 4497,
      "rollo": 4498,
      "')": 4499,
      "know": 4500,
      "Ġox": 4501,
      "ĠIA": 4502,
      "Ð½Ñĥ": 4503,
      "Ġforms": 4504,
      "Ġprinci": 4505,
      "Ġful": 4506,
      "Ġgain": 4507,
      "ĠquÃ©": 4508,
      "ĠÐ²ÑģÐµ": 4509,
      "å¥½": 4510,
      "bum": 4511,
      "Ġgram": 4512,
      "empre": 4513,
      "Ġphone": 4514,
      "Ġstars": 4515,
      "ĠÐ²Ð¾Ð·": 4516,
      "Ġconcern": 4517,
      "Ã¶n": 4518,
      "Ġevol": 4519,
      "Ch": 4520,
      "Ġcond": 4521,
      "ĠDet": 4522,
      "ĠDesp": 4523,
      "Ġfunctions": 4524,
      "cir": 4525,
      "Ġbed": 4526,
      "åĩº": 4527,
      "Ġsich": 4528,
      "Ġphilos": 4529,
      "Ġhardware": 4530,
      "Ġespecially": 4531,
      "Ġdistrib": 4532,
      "à¸Ĭ": 4533,
      "æ±": 4534,
      "ĠDef": 4535,
      "riend": 4536,
      "ĠÑĩÑĤÐ¾Ð±Ñĭ": 4537,
      "Ġuma": 4538,
      "Ġestar": 4539,
      "Ġequation": 4540,
      "itas": 4541,
      "Ġdeath": 4542,
      "Ġnicht": 4543,
      "ulate": 4544,
      "Ð¾Ð·Ð´Ð°": 4545,
      "Ð¾Ðµ": 4546,
      "Ġextract": 4547,
      "list": 4548,
      "ening": 4549,
      "Ġrandom": 4550,
      "Ð»Ð¾Ð¶": 4551,
      "Ġcaso": 4552,
      "itary": 4553,
      "ection": 4554,
      "appen": 4555,
      "book": 4556,
      "Ġwr": 4557,
      "Ġniv": 4558,
      "ĠEver": 4559,
      "Ġexecut": 4560,
      "ude": 4561,
      "opping": 4562,
      "py": 4563,
      "è¨": 4564,
      "Ġfresh": 4565,
      "Ġnational": 4566,
      "ĠCor": 4567,
      "Ġsports": 4568,
      "html": 4569,
      "Ġconsequ": 4570,
      "Ġaument": 4571,
      "acing": 4572,
      "ocks": 4573,
      "Ġclose": 4574,
      "Ġcars": 4575,
      "ĠIndian": 4576,
      "ĠTechn": 4577,
      "acional": 4578,
      "ela": 4579,
      "aged": 4580,
      "ĠInter": 4581,
      "Ġcolumn": 4582,
      "ready": 4583,
      "Ġpermite": 4584,
      "Ġbelieve": 4585,
      "olf": 4586,
      "ike": 4587,
      "rain": 4588,
      "Ġtowards": 4589,
      "Ġofre": 4590,
      "æĤ¨": 4591,
      "Ġmonitor": 4592,
      "Ġcell": 4593,
      "Ġneur": 4594,
      "ĠÐ½Ð¾": 4595,
      "ĠÐ·Ð½Ð°": 4596,
      "Ġtare": 4597,
      "Ġmismo": 4598,
      "ĠRem": 4599,
      "ĠYour": 4600,
      "ĠÐ¸ÑģÐ¿Ð¾Ð»ÑĮÐ·Ð¾Ð²Ð°": 4601,
      "rial": 4602,
      "ĠÑĪ": 4603,
      "selves": 4604,
      "Ġconduct": 4605,
      "Ġenvironmental": 4606,
      "aling": 4607,
      "Ġvous": 4608,
      "more": 4609,
      "Ġvary": 4610,
      "posit": 4611,
      "Ġsafe": 4612,
      "è§£": 4613,
      "Ġbudget": 4614,
      "Ġgold": 4615,
      "Ġcontinue": 4616,
      "Ġaccurate": 4617,
      "war": 4618,
      "ĠEr": 4619,
      "æ¯": 4620,
      "Ġbur": 4621,
      "Ġgar": 4622,
      "iforn": 4623,
      "PU": 4624,
      "Ġtrain": 4625,
      "ips": 4626,
      "Ġuniverse": 4627,
      "ÐµÐ·": 4628,
      "orge": 4629,
      "Ġnucle": 4630,
      "Ð¾Ð»ÑĮÐºÐ¾": 4631,
      "Ph": 4632,
      "yect": 4633,
      "Ġbank": 4634,
      "ĠAlgun": 4635,
      "Ġaudience": 4636,
      "gunta": 4637,
      "Ġrepl": 4638,
      "Ġtransportation": 4639,
      "Ġletter": 4640,
      "Ġtrying": 4641,
      "ĠGermany": 4642,
      "ĠLo": 4643,
      "Ġinternational": 4644,
      "ĠDon": 4645,
      "aign": 4646,
      "ners": 4647,
      "åŁ": 4648,
      "Ġrealizar": 4649,
      "ĠCO": 4650,
      "Ġ24": 4651,
      "ĠAng": 4652,
      "cont": 4653,
      "medi": 4654,
      "åĳ": 4655,
      "abilities": 4656,
      "Ġtrabajo": 4657,
      "ached": 4658,
      "Ġspeak": 4659,
      "Ġprimary": 4660,
      "tom": 4661,
      "itos": 4662,
      "ÑĢÐ°Ð·": 4663,
      "ĠRev": 4664,
      "ĠÐ±ÑĭÑĤÑĮ": 4665,
      "ĠdÃ©": 4666,
      "ĠPot": 4667,
      "Ġparam": 4668,
      "ifornia": 4669,
      "imientos": 4670,
      "Ġgroups": 4671,
      "Ġlimited": 4672,
      "ĠEuropean": 4673,
      "Ġtook": 4674,
      "Ġhar": 4675,
      "Ġregion": 4676,
      "log": 4677,
      "ĠÐĲ": 4678,
      "ĠÑįÑĤ": 4679,
      "Ġsido": 4680,
      "ieren": 4681,
      "Ġfollows": 4682,
      "Ġbrand": 4683,
      "Ġvalor": 4684,
      "Ġlabor": 4685,
      "Ġice": 4686,
      "Ġbeach": 4687,
      "Ġdescription": 4688,
      "Ġemissions": 4689,
      "Ġstarting": 4690,
      "éĿ¢": 4691,
      "ĠAb": 4692,
      "ĠGreat": 4693,
      "bed": 4694,
      "Ã©cn": 4695,
      "tes": 4696,
      "Ġpand": 4697,
      "Ð¾Ð´Ð°": 4698,
      "Ġ2021": 4699,
      "Ġoder": 4700,
      "eth": 4701,
      "Ġpubl": 4702,
      "Ġsou": 4703,
      "Ġvar": 4704,
      "ĠPart": 4705,
      "ĠHay": 4706,
      "åĢ": 4707,
      "ĠSun": 4708,
      "ĠPlay": 4709,
      "å·¥": 4710,
      "oma": 4711,
      "ÐµÐ½ÑĮ": 4712,
      "Ġaccuracy": 4713,
      "ltimately": 4714,
      "Ġdivid": 4715,
      "Ġnombre": 4716,
      "Ġindic": 4717,
      "Ġdrive": 4718,
      "Ġattempt": 4719,
      "Ġvoice": 4720,
      "Ġitem": 4721,
      "ĠFin": 4722,
      "();": 4723,
      "ÑĨÐµ": 4724,
      "Ġprincipal": 4725,
      "ĠpodrÃŃa": 4726,
      "Ġenf": 4727,
      "ä¹Ł": 4728,
      "Ġfilled": 4729,
      "Ġhold": 4730,
      "Ã¡g": 4731,
      "((": 4732,
      "][": 4733,
      "Ġmol": 4734,
      "Ġcool": 4735,
      "Ġbrain": 4736,
      "Ġreflect": 4737,
      "idge": 4738,
      "Ġcontrast": 4739,
      "ges": 4740,
      "Ġsurr": 4741,
      "ÑĤÐµÑĢ": 4742,
      "Ġinterpret": 4743,
      "AM": 4744,
      "Ġllev": 4745,
      "cio": 4746,
      "ĠCalifornia": 4747,
      "mod": 4748,
      "ÙĬ": 4749,
      "Ġbreat": 4750,
      "Ġstru": 4751,
      "Ġroad": 4752,
      "Ġrenewable": 4753,
      "Ġalready": 4754,
      "Ġdoing": 4755,
      "Ġelectron": 4756,
      "lands": 4757,
      "å¼Ģ": 4758,
      "Ġpuedo": 4759,
      "Ġnormal": 4760,
      "Ġhappen": 4761,
      "Ġking": 4762,
      "Ġdepends": 4763,
      "è¿Ľ": 4764,
      "Ġpromot": 4765,
      "----------------": 4766,
      "Ġpollution": 4767,
      "ĠWindows": 4768,
      "fica": 4769,
      "odes": 4770,
      "Ġestas": 4771,
      "Ġestruct": 4772,
      "poon": 4773,
      "ufact": 4774,
      "Ġstandard": 4775,
      "Ġvegetables": 4776,
      "Ġresist": 4777,
      "Ġrecognition": 4778,
      "åī": 4779,
      "Ġproyect": 4780,
      "Ġroll": 4781,
      "Ġvariables": 4782,
      "Ġbackground": 4783,
      "Ð½ÑĥÑİ": 4784,
      "Ġprep": 4785,
      ".,": 4786,
      "rees": 4787,
      "iced": 4788,
      "Ġbran": 4789,
      "å®ļ": 4790,
      "Ġotra": 4791,
      "Ġoperating": 4792,
      "Ġdol": 4793,
      "Ġos": 4794,
      "Ġlines": 4795,
      "ÐºÐµ": 4796,
      "Ġjoy": 4797,
      "ÑıÑĤ": 4798,
      "Ġproceso": 4799,
      "aily": 4800,
      "Ġinitial": 4801,
      "ald": 4802,
      "ĠfÃ¼r": 4803,
      "Ġadvanced": 4804,
      "Ġerror": 4805,
      "ĠbÃ¡s": 4806,
      "Ġforward": 4807,
      "ĠMark": 4808,
      "Ġproblemas": 4809,
      "ĠÃºtil": 4810,
      "Ġreally": 4811,
      "Ġcases": 4812,
      "ĠWeb": 4813,
      "Ġresponsible": 4814,
      "ĠWill": 4815,
      "Ġsoon": 4816,
      "Ġguitar": 4817,
      "Ġpregunta": 4818,
      "ierra": 4819,
      "aim": 4820,
      "icken": 4821,
      "Ġparty": 4822,
      "Ġquantum": 4823,
      "icio": 4824,
      "Ġpeque": 4825,
      "âĸĪâĸĪ": 4826,
      "ĠLearning": 4827,
      "ĠmÃ©t": 4828,
      "minist": 4829,
      "Ġofficial": 4830,
      "Ġtrust": 4831,
      "Ġbehind": 4832,
      "Ġadvantages": 4833,
      "Ġprepar": 4834,
      "Ð¿Ð°": 4835,
      "Ġdesarrollo": 4836,
      "Ġcele": 4837,
      "Ġhappy": 4838,
      "iencia": 4839,
      "ĠSummarize": 4840,
      "Ġequal": 4841,
      "atoes": 4842,
      "'ve": 4843,
      "ris": 4844,
      "ĠStart": 4845,
      "Ġoption": 4846,
      "Ġcampaign": 4847,
      "åĵ": 4848,
      "itz": 4849,
      "Ġheight": 4850,
      "Ã©e": 4851,
      "actions": 4852,
      "iert": 4853,
      "Ġpassage": 4854,
      "off": 4855,
      "ĠtÃ©cn": 4856,
      "ĠNot": 4857,
      "ĠAnaly": 4858,
      "åĬĽ": 4859,
      "igen": 4860,
      "Ġconj": 4861,
      "Ġoperations": 4862,
      "enc": 4863,
      "term": 4864,
      "çĤ": 4865,
      "Ġkil": 4866,
      "Ġrecent": 4867,
      "Ġcort": 4868,
      "Ð²Ñĭ": 4869,
      "ÑĢÐ°Ð¼": 4870,
      "Ġsiempre": 4871,
      "Ġtables": 4872,
      "ĠDie": 4873,
      "Ġdetails": 4874,
      "Ġaplicaciones": 4875,
      "Ġpressure": 4876,
      "Ð³Ð¸": 4877,
      "ç§į": 4878,
      "Ð¾Ð»ÐµÐµ": 4879,
      "Ġciudad": 4880,
      "Ġrise": 4881,
      "Ġentire": 4882,
      "Ġdeveloping": 4883,
      "Ġbox": 4884,
      "Ġviol": 4885,
      "Ġcross": 4886,
      "Ġcapacidad": 4887,
      "Ġcells": 4888,
      "à¸²à¸ģ": 4889,
      "Ġstorage": 4890,
      "Ġfer": 4891,
      "ige": 4892,
      "Ġprograms": 4893,
      "Ġmember": 4894,
      "Ġrequirements": 4895,
      "ynam": 4896,
      "arily": 4897,
      "osa": 4898,
      "atura": 4899,
      "Ġsmo": 4900,
      "frica": 4901,
      "ĠTell": 4902,
      "Ġactions": 4903,
      "Ġsummary": 4904,
      "Ġbillion": 4905,
      "Ġ2023": 4906,
      "zz": 4907,
      "Ġdies": 4908,
      "Ġheld": 4909,
      "çİ°": 4910,
      "adr": 4911,
      "uridad": 4912,
      "Ġsugar": 4913,
      "ĠMicrosoft": 4914,
      "è¯Ń": 4915,
      "Ġprivate": 4916,
      "Ġeyes": 4917,
      "oria": 4918,
      "reet": 4919,
      "ala": 4920,
      "eda": 4921,
      "Ġhom": 4922,
      "Ġconstant": 4923,
      "Ġsurv": 4924,
      "ouch": 4925,
      "ĠPort": 4926,
      "ĠPark": 4927,
      "Ġrisks": 4928,
      "èĢĮ": 4929,
      "éĹ®": 4930,
      "çĦ": 4931,
      "Ġpark": 4932,
      "ĠEspero": 4933,
      "Ð»ÐµÐ´": 4934,
      "oring": 4935,
      "ĠOb": 4936,
      "Ġconten": 4937,
      "print": 4938,
      "ĠVis": 4939,
      "Ġcru": 4940,
      "Ġborn": 4941,
      "ĠTw": 4942,
      "Ġreasons": 4943,
      "apes": 4944,
      "phas": 4945,
      "è¿ĩ": 4946,
      "ç®": 4947,
      "hy": 4948,
      "nam": 4949,
      "Ð¼Ñĭ": 4950,
      "Ġenter": 4951,
      "ĠespecÃŃfic": 4952,
      "can": 4953,
      "Ġbit": 4954,
      "Ġeat": 4955,
      "Ġnames": 4956,
      "Ġinteres": 4957,
      "Ġmiles": 4958,
      "æĢ§": 4959,
      "data": 4960,
      "Ġforest": 4961,
      "ÐµÐ½ÑĤ": 4962,
      "Ġfeet": 4963,
      "Ġtips": 4964,
      "abilidad": 4965,
      "ÐµÑĤÐµ": 4966,
      "IN": 4967,
      "Ġmobile": 4968,
      "eters": 4969,
      "epper": 4970,
      "Ġguid": 4971,
      "èĢħ": 4972,
      "ĠConstruct": 4973,
      "Ġrespuesta": 4974,
      "Ġwild": 4975,
      "Ġrout": 4976,
      "ĠEin": 4977,
      "å¹¶": 4978,
      "ĠFurther": 4979,
      "ĠRuss": 4980,
      "Ġwaste": 4981,
      "ĠÐ²ÑĢÐµÐ¼": 4982,
      "Ġremember": 4983,
      "ything": 4984,
      "Ġinvolve": 4985,
      "Ġsales": 4986,
      "Ġhace": 4987,
      "ache": 4988,
      "ĠStr": 4989,
      "anish": 4990,
      "ÑĨÐ¸Ñı": 4991,
      "ĠÐ¼Ð¾Ð³ÑĥÑĤ": 4992,
      "ĠWas": 4993,
      "Ġcompared": 4994,
      "Ġboard": 4995,
      "Ġmoon": 4996,
      "Ġpen": 4997,
      "Ġoc": 4998,
      "Ġlink": 4999,
      "Ġbaj": 5000,
      "Ġorganization": 5001,
      "Ġayuda": 5002,
      "vas": 5003,
      "Ġdar": 5004,
      "ĠkÃ¶n": 5005,
      "Ġcommit": 5006,
      "Ġsmart": 5007,
      "ĠAv": 5008,
      "ĠAug": 5009,
      "Ġconvert": 5010,
      "ging": 5011,
      "path": 5012,
      "Ġespac": 5013,
      "Ġinteresting": 5014,
      "Ġbalance": 5015,
      "ĠTom": 5016,
      "Ġstruct": 5017,
      "Ġplaces": 5018,
      "force": 5019,
      "Ġbeauty": 5020,
      "Ġaliment": 5021,
      "Ġbul": 5022,
      "ĠOff": 5023,
      "Ġnavig": 5024,
      "ĠfÃ¡": 5025,
      "Ġincome": 5026,
      "Ġra": 5027,
      "Ġadecu": 5028,
      "ĠÐ´Ð°Ð½": 5029,
      "Ġexpand": 5030,
      "Ġmenos": 5031,
      "Ġprojects": 5032,
      "Ġcer": 5033,
      "Ġgot": 5034,
      "ĠÐ´Ð°": 5035,
      "Ġdecre": 5036,
      "Ġpolicy": 5037,
      "pond": 5038,
      "eno": 5039,
      "ĠÑģÐµ": 5040,
      "rupt": 5041,
      "ĠChat": 5042,
      "ĠChar": 5043,
      "å®ĥ": 5044,
      "ography": 5045,
      "Ġfootball": 5046,
      "Ġva": 5047,
      "Ġrequest": 5048,
      "point": 5049,
      "ÑĦÐ¸": 5050,
      "ĠÐµÐ³Ð¾": 5051,
      "Ġlegal": 5052,
      "oint": 5053,
      "enge": 5054,
      "ctor": 5055,
      "Ð½ÑĭÐ¼Ð¸": 5056,
      "Ġcentral": 5057,
      "Ġsurround": 5058,
      "Ġ21": 5059,
      "ĠÐ±Ð¾Ð»ÑĮ": 5060,
      "ĠComput": 5061,
      "æŀľ": 5062,
      "ĠÃºn": 5063,
      "Ġhid": 5064,
      "ĠÐ²Ðµ": 5065,
      "Ġconnected": 5066,
      "nd": 5067,
      "é«": 5068,
      "ĠEdit": 5069,
      "ĠHigh": 5070,
      "ĠÑģÐ¾Ð·Ð´Ð°": 5071,
      "ĠMachine": 5072,
      "js": 5073,
      "Ġancient": 5074,
      "Ġrelax": 5075,
      "Ġphilosoph": 5076,
      "ĠmÃºs": 5077,
      "room": 5078,
      "ĠThen": 5079,
      "Ġattract": 5080,
      "âĢľ": 5081,
      "Ġrot": 5082,
      "Ġpieces": 5083,
      "é¢ĺ": 5084,
      "yal": 5085,
      "Ġdaily": 5086,
      "Ġmanip": 5087,
      "Ġrights": 5088,
      "Ġeventually": 5089,
      "vo": 5090,
      "roid": 5091,
      "Ġmanufact": 5092,
      "åħ¶": 5093,
      "atives": 5094,
      "Ġsuff": 5095,
      "ĠClaro": 5096,
      "aÃ±a": 5097,
      "Ġvideos": 5098,
      "Ġhabilidades": 5099,
      "alls": 5100,
      "ĠAmazon": 5101,
      "ST": 5102,
      "Ġfight": 5103,
      "ĠGet": 5104,
      "Ġdesired": 5105,
      "Ġroot": 5106,
      "jas": 5107,
      "acion": 5108,
      "Ġinstructions": 5109,
      "Ġtopics": 5110,
      "rate": 5111,
      "Ġthing": 5112,
      "etes": 5113,
      "ÑĢÐ°Ð½": 5114,
      "éľĢè¦ģ": 5115,
      "vest": 5116,
      "imens": 5117,
      "ĠOther": 5118,
      "uegos": 5119,
      "Ġsix": 5120,
      "Ġlost": 5121,
      "Ġmeasures": 5122,
      "umin": 5123,
      "ĠBat": 5124,
      "ĠArtificial": 5125,
      "Ġalbum": 5126,
      "Ġcuer": 5127,
      "ĠCalcul": 5128,
      "ĠOverall": 5129,
      "uÃ©s": 5130,
      "ĠÄ": 5131,
      "Ġ22": 5132,
      "arian": 5133,
      "Ġloop": 5134,
      "Ġtesting": 5135,
      "Ã¡tica": 5136,
      "Ġsind": 5137,
      "iring": 5138,
      "æľ¬": 5139,
      "Ð²Ð°ÑĤÑĮ": 5140,
      "ativo": 5141,
      "Ġcombination": 5142,
      "Ġearth": 5143,
      "unto": 5144,
      "Ġmilk": 5145,
      "Ġwer": 5146,
      "ulo": 5147,
      "Ġseem": 5148,
      "Ġresumen": 5149,
      "Ġrow": 5150,
      "Ġverb": 5151,
      "Ġmonths": 5152,
      "atory": 5153,
      "Ġpick": 5154,
      "Ġocean": 5155,
      "ĠDuring": 5156,
      "body": 5157,
      "Ġcomputers": 5158,
      "Ġrecomend": 5159,
      "ç¤": 5160,
      "Ð¿ÑĢÐ¸": 5161,
      "Ġscen": 5162,
      "ungen": 5163,
      "Ġexisting": 5164,
      "æ¨": 5165,
      "Ġfix": 5166,
      "igual": 5167,
      "Ġstar": 5168,
      "Ġinterface": 5169,
      "åĬ©": 5170,
      "Ġemployees": 5171,
      "utton": 5172,
      "ĠGod": 5173,
      "Ġhalf": 5174,
      "ĠÑģÑĥ": 5175,
      "Ġrace": 5176,
      "Ġpiece": 5177,
      "icient": 5178,
      "à¸ŀ": 5179,
      "emon": 5180,
      "Ġinvent": 5181,
      "je": 5182,
      "sole": 5183,
      "Ð¾Ð²Ðµ": 5184,
      "Ġfuncion": 5185,
      "Ġdemon": 5186,
      "Ġbecoming": 5187,
      "ban": 5188,
      "Ġpoco": 5189,
      "Ġdanger": 5190,
      "Ġteas": 5191,
      "Ð¶Ð¸": 5192,
      "Ġhowever": 5193,
      "Ġengineering": 5194,
      "Ġstrugg": 5195,
      "ply": 5196,
      "Ġaus": 5197,
      "ĠMany": 5198,
      "ĠHum": 5199,
      "Ġitself": 5200,
      "Ġ80": 5201,
      "Ġfelt": 5202,
      "ĠteorÃŃa": 5203,
      "pass": 5204,
      "çº": 5205,
      "uth": 5206,
      "Ġ--": 5207,
      "enda": 5208,
      "Ġhelpful": 5209,
      "Ġ%": 5210,
      "Ġfat": 5211,
      "oding": 5212,
      "Ġemphas": 5213,
      "Ġpurchase": 5214,
      "ira": 5215,
      "Ġexplic": 5216,
      "Ġsche": 5217,
      "Ġinside": 5218,
      "Ġquery": 5219,
      "ĠÐ±ÑĥÐ´": 5220,
      "Ġtal": 5221,
      "Ġmist": 5222,
      "ĠStud": 5223,
      "Ġfields": 5224,
      "zy": 5225,
      "ruction": 5226,
      "Ġinfluence": 5227,
      "Ġadvantage": 5228,
      "åģ": 5229,
      "ĠsÃŃ": 5230,
      "Ã¡p": 5231,
      "ured": 5232,
      "Ġestable": 5233,
      "ĠÐ´Ðµ": 5234,
      "ÃŃsticas": 5235,
      "ĠÐŃÑĤÐ¾": 5236,
      "ĠAre": 5237,
      "Ð±Ðµ": 5238,
      "ÑİÑī": 5239,
      "Ġassistant": 5240,
      "Ġmilitary": 5241,
      "è½": 5242,
      "Ġrom": 5243,
      "Ġcame": 5244,
      "vey": 5245,
      "Ġthemselves": 5246,
      "Ġagre": 5247,
      "Ġtodas": 5248,
      "ÑĢÐ¾Ð¼": 5249,
      "ĠMus": 5250,
      "Ġobjetos": 5251,
      "len": 5252,
      "Ġaz": 5253,
      "ÑĩÐ½Ð¾": 5254,
      "ÑĪÐ°": 5255,
      "Ġcauses": 5256,
      "Ġtemperatures": 5257,
      "é«ĺ": 5258,
      "alt": 5259,
      "ĠSeg": 5260,
      "ĠDay": 5261,
      "II": 5262,
      "lin": 5263,
      "Ġkn": 5264,
      "Ġentren": 5265,
      "Ġwhole": 5266,
      "Ġremain": 5267,
      "Ġmovement": 5268,
      "Ġsand": 5269,
      "Ġyet": 5270,
      "ĠEach": 5271,
      "ÐºÑĤ": 5272,
      "ÅĤ": 5273,
      "Ġdistribut": 5274,
      "Phone": 5275,
      "eline": 5276,
      "opt": 5277,
      "izaje": 5278,
      "Ġcold": 5279,
      "Ġpassword": 5280,
      "ĠÐ²Ð°Ð¼": 5281,
      "ĠÃºltim": 5282,
      "Ġinteligencia": 5283,
      "ĠJack": 5284,
      "Ġauth": 5285,
      "Ġconsequences": 5286,
      "file": 5287,
      "Ġlado": 5288,
      "Ġgru": 5289,
      "à¸ĸ": 5290,
      "Ġpractices": 5291,
      "åº¦": 5292,
      "ques": 5293,
      "cha": 5294,
      "Ġinvolved": 5295,
      "Ġincorpor": 5296,
      "Ġdecir": 5297,
      "vant": 5298,
      "ĠtecnologÃŃa": 5299,
      "ĠfÃ¡cil": 5300,
      "!\"": 5301,
      "EN": 5302,
      "Ġprecis": 5303,
      "Ġproperties": 5304,
      "Ġrecipe": 5305,
      "ono": 5306,
      "ĠÐĹ": 5307,
      "Ġones": 5308,
      "Ð²ÐµÑĢ": 5309,
      "éĢļ": 5310,
      "Ġdecided": 5311,
      "Ãµ": 5312,
      "Ġinfr": 5313,
      "antic": 5314,
      "Ġimplic": 5315,
      "Ġlaws": 5316,
      "BA": 5317,
      "rel": 5318,
      "ĠIts": 5319,
      "Ġcalidad": 5320,
      "Ġbelief": 5321,
      "Ġparticularly": 5322,
      "Ġthreat": 5323,
      "Ð½Ð¾Ð¼": 5324,
      "ership": 5325,
      "Ġsuitable": 5326,
      "agement": 5327,
      "Ġcredit": 5328,
      "Ġsentiment": 5329,
      "Ġhandle": 5330,
      "Ġrevolution": 5331,
      "Ġcirc": 5332,
      "ĠSuper": 5333,
      "çĦ¶": 5334,
      "Ġtomar": 5335,
      "ÐµÐ½Ð¸Ð¹": 5336,
      "Ġsignifica": 5337,
      "ĠPuedes": 5338,
      "è¨Ģ": 5339,
      "Ġsaw": 5340,
      "Ġrecursos": 5341,
      "Ġanalyze": 5342,
      "ĠÃ©s": 5343,
      "aria": 5344,
      "à¸ĵ": 5345,
      "Ġcand": 5346,
      "Ġinstrument": 5347,
      "bar": 5348,
      "tings": 5349,
      "Ġmut": 5350,
      "Ġorden": 5351,
      "ĠAnother": 5352,
      "Ġreality": 5353,
      "Ġdrink": 5354,
      "Ġobjeto": 5355,
      "Ġsiguiente": 5356,
      "Ġfruits": 5357,
      "Ġ2019": 5358,
      "iation": 5359,
      "Ġmais": 5360,
      "ima": 5361,
      "Ãµes": 5362,
      "ager": 5363,
      "ende": 5364,
      "alla": 5365,
      "Ġimportantes": 5366,
      "Ġfacil": 5367,
      "Ġsnow": 5368,
      "Ġefic": 5369,
      "Ġvan": 5370,
      "ĠEd": 5371,
      "Ġmucho": 5372,
      "Ġapproxim": 5373,
      "ĠÑĤÐ°ÐºÐ¶Ðµ": 5374,
      "Ġsequence": 5375,
      "CT": 5376,
      "Ġhon": 5377,
      "Ġdispon": 5378,
      "ĠLeague": 5379,
      "Ġcelebr": 5380,
      "Ġcompos": 5381,
      "Ġreceived": 5382,
      "div": 5383,
      "Ð¼Ñĥ": 5384,
      "Ġapro": 5385,
      "aron": 5386,
      "Ġbad": 5387,
      "ĠTy": 5388,
      "ĠĠĠĠĠĠĠ": 5389,
      "ĠCanada": 5390,
      "ĠUsing": 5391,
      "Ùħ": 5392,
      "Ġmiss": 5393,
      "Ġep": 5394,
      "aciÃ³": 5395,
      "Ġrais": 5396,
      "Ġstop": 5397,
      "Ġamounts": 5398,
      "ĠOutput": 5399,
      "Ġdamage": 5400,
      "Ġgard": 5401,
      "Ã¡m": 5402,
      "à¹Į": 5403,
      "Ð¾Ð´Ñĥ": 5404,
      "Ġsimpl": 5405,
      "Ġmagical": 5406,
      "Ġich": 5407,
      "Ġsav": 5408,
      "tics": 5409,
      "ÑģÐºÐ°": 5410,
      "Ġoccur": 5411,
      "åŀ": 5412,
      "Ġmism": 5413,
      "Ġsport": 5414,
      "ä½ĵ": 5415,
      "Ġdiagn": 5416,
      "Ġreference": 5417,
      "Ġcalculate": 5418,
      "ä½¿çĶ¨": 5419,
      "illing": 5420,
      "ĠÐ¾Ð´": 5421,
      "Ġmatem": 5422,
      "Ġsides": 5423,
      "eds": 5424,
      "ĠÐĳ": 5425,
      "imal": 5426,
      "ĠrÃ©": 5427,
      "ĠÐ²Ð¾": 5428,
      "iano": 5429,
      "ampionship": 5430,
      "gy": 5431,
      "Ġutilizando": 5432,
      "ĠÐ¼Ð¾Ð¶Ð½Ð¾": 5433,
      "æį®": 5434,
      "python": 5435,
      "Ġtab": 5436,
      "Ġdir": 5437,
      "ĠMal": 5438,
      "Ġdirectly": 5439,
      "Ġidi": 5440,
      "æ¸": 5441,
      "Ð¼Ð¾Ð¶": 5442,
      "Ġcloth": 5443,
      "Ġproduced": 5444,
      "Ġtransfer": 5445,
      "Ã¨re": 5446,
      "Ã¡tico": 5447,
      "Ġsistemas": 5448,
      "No": 5449,
      "gram": 5450,
      "Ġmaint": 5451,
      "Ġadded": 5452,
      "Ġmusical": 5453,
      "Ġpepper": 5454,
      "æĥħ": 5455,
      "ho": 5456,
      "ÑĬ": 5457,
      "Ġpens": 5458,
      "Ġpsy": 5459,
      "izza": 5460,
      "Ġ60": 5461,
      "Ġfuer": 5462,
      "Ġorigin": 5463,
      "ray": 5464,
      "Ġconnection": 5465,
      "åĮĸ": 5466,
      "known": 5467,
      "eration": 5468,
      "ĠAccording": 5469,
      "Ġtens": 5470,
      "Ġgirl": 5471,
      "ĠNov": 5472,
      "Ġcorres": 5473,
      "Ġwalking": 5474,
      "Ġchemical": 5475,
      "Ġimpl": 5476,
      "Ġscreen": 5477,
      "åĬ¨": 5478,
      "Ġmountain": 5479,
      "ĠCu": 5480,
      "GPT": 5481,
      "down": 5482,
      "uff": 5483,
      "zcl": 5484,
      "Ð¶Ð´": 5485,
      "Ġconfigur": 5486,
      "date": 5487,
      "Ġpes": 5488,
      "ĠJan": 5489,
      "Ġpresident": 5490,
      "Ġchanging": 5491,
      "Ġbowl": 5492,
      "AN": 5493,
      "hi": 5494,
      "Ġcaf": 5495,
      "reci": 5496,
      "terior": 5497,
      "rix": 5498,
      "Ġproperty": 5499,
      "Ġdisease": 5500,
      "Ġfollowed": 5501,
      "ä¹ĭ": 5502,
      "Ð¾ÐºÐ°": 5503,
      "Ġaprendizaje": 5504,
      "Ġfarm": 5505,
      "Ġbrown": 5506,
      "ĠMount": 5507,
      "sol": 5508,
      "Ġeating": 5509,
      "ĠSk": 5510,
      "ota": 5511,
      "Ġintent": 5512,
      "Ġmedium": 5513,
      "ĠComm": 5514,
      "åĽł": 5515,
      "ĠEmp": 5516,
      "Ġmorning": 5517,
      "Ġdataset": 5518,
      "¦Ì": 5519,
      "Ġfear": 5520,
      "ï¼ī": 5521,
      "ĠÑıÐ·Ñĭ": 5522,
      "åı¯èĥ½": 5523,
      "ĠFurthermore": 5524,
      "ç©": 5525,
      "tico": 5526,
      "Ġeffort": 5527,
      "Ġideal": 5528,
      "Ġtrip": 5529,
      "Ġexpression": 5530,
      "lished": 5531,
      "Ġhi": 5532,
      "ĠAfrica": 5533,
      "ï¼Ī": 5534,
      "Ġrestaurant": 5535,
      "uk": 5536,
      "Ġdans": 5537,
      "ĠMart": 5538,
      "Ġdese": 5539,
      "å®ŀ": 5540,
      "agen": 5541,
      "ference": 5542,
      "Ġconcent": 5543,
      "ET": 5544,
      "house": 5545,
      "Ġfront": 5546,
      "ester": 5547,
      "ĠChin": 5548,
      "encial": 5549,
      "igu": 5550,
      "ĠJames": 5551,
      "Ġclub": 5552,
      "ĠÑĩÐµÐ»": 5553,
      "Ġsubst": 5554,
      "augh": 5555,
      "Ġcurrently": 5556,
      "Ġplatforms": 5557,
      "Ġobtener": 5558,
      "])": 5559,
      "Ġtelev": 5560,
      "Ġscore": 5561,
      "ĠGerman": 5562,
      "ĠChrist": 5563,
      "à¹ģà¸¥": 5564,
      "Ġblood": 5565,
      "ĠAugust": 5566,
      "ĠIl": 5567,
      "ĠCome": 5568,
      "chain": 5569,
      "abel": 5570,
      "Ġserved": 5571,
      "ĠEstos": 5572,
      "é¡": 5573,
      "Ġdynam": 5574,
      "ares": 5575,
      "Ġwel": 5576,
      "ille": 5577,
      "cto": 5578,
      "ĠRoman": 5579,
      "Ġpron": 5580,
      "ĠiPhone": 5581,
      "Ġtrends": 5582,
      "Ġengaging": 5583,
      "AS": 5584,
      "Ð»ÐµÐ½": 5585,
      "geb": 5586,
      "ĠApril": 5587,
      "æ¨¡": 5588,
      "Ġcats": 5589,
      "Ġplastic": 5590,
      "ĠThree": 5591,
      "Ġswitch": 5592,
      "Ġdetermined": 5593,
      "ibilidad": 5594,
      "Ġcm": 5595,
      "ĠForm": 5596,
      "Ġpromote": 5597,
      "Ġelementos": 5598,
      "Ġcitiz": 5599,
      "vis": 5600,
      "Ġdial": 5601,
      "alle": 5602,
      "aza": 5603,
      "Ġpolic": 5604,
      "En": 5605,
      "ĠtÃ©r": 5606,
      "Ġsau": 5607,
      "Ġcart": 5608,
      "Ġindex": 5609,
      "':": 5610,
      "çľ": 5611,
      "Ġscale": 5612,
      "åĬł": 5613,
      "ĠGeorge": 5614,
      "åŀĭ": 5615,
      "flow": 5616,
      "éĽ": 5617,
      "ĠMost": 5618,
      "Ġhyp": 5619,
      "cuss": 5620,
      "Ġna": 5621,
      "Ġcomen": 5622,
      "ãģ®": 5623,
      "à¸²à¸ĩ": 5624,
      "Ġblog": 5625,
      "Ġseguridad": 5626,
      "Ġmole": 5627,
      "Ġethical": 5628,
      "Ġtall": 5629,
      "Ø§ÙĦ": 5630,
      "ĠHarry": 5631,
      "Ġload": 5632,
      "Ġpainting": 5633,
      "Ġfundamental": 5634,
      "Ġsty": 5635,
      "Ġcharg": 5636,
      "ĠSpanish": 5637,
      "friend": 5638,
      "vol": 5639,
      "Ġhat": 5640,
      "ĠsegÃºn": 5641,
      "çī©": 5642,
      "emy": 5643,
      "Ġaseg": 5644,
      "aper": 5645,
      "Ð¾Ð³Ð´Ð°": 5646,
      "ĠÑıÐ²Ð»Ñı": 5647,
      "estic": 5648,
      "Ġround": 5649,
      "Ġextern": 5650,
      "ĠLond": 5651,
      "ĠÐºÑĥ": 5652,
      "Ġseguir": 5653,
      "Ġdogs": 5654,
      "ĠÐ¶Ðµ": 5655,
      "æĦı": 5656,
      "Ġalternative": 5657,
      "dro": 5658,
      "æº": 5659,
      "Ġaim": 5660,
      "itan": 5661,
      "Ġbread": 5662,
      "edia": 5663,
      "Ð»ÐµÐ¼": 5664,
      "ĠĠĠĠĠĠĠĠĠĠ": 5665,
      "Ġobst": 5666,
      "Ġsold": 5667,
      "Th": 5668,
      "Ġdry": 5669,
      "Ġconven": 5670,
      "emb": 5671,
      "Ġworth": 5672,
      "Ġmachines": 5673,
      "Ġfruit": 5674,
      "Ġsweet": 5675,
      "ĠElect": 5676,
      "Ġdegrees": 5677,
      "TP": 5678,
      "istas": 5679,
      "ĠMarch": 5680,
      "reek": 5681,
      "fully": 5682,
      "Ġleader": 5683,
      "Ġincluyendo": 5684,
      "aca": 5685,
      "ĠBen": 5686,
      "isms": 5687,
      "Ġresulting": 5688,
      "ĠCompare": 5689,
      "________": 5690,
      "Ġfigure": 5691,
      "rim": 5692,
      "Ġdead": 5693,
      "ĠprÃ¡ct": 5694,
      "Ġconsumption": 5695,
      "eza": 5696,
      "hood": 5697,
      "ĠAc": 5698,
      "ĠMet": 5699,
      "ĠÐ´Ð¸": 5700,
      "Ġsimply": 5701,
      "orno": 5702,
      "åĲĪ": 5703,
      "Ġhacia": 5704,
      "urt": 5705,
      "udo": 5706,
      "Ġformer": 5707,
      "Ġfocused": 5708,
      "Ġregularly": 5709,
      "Ġoppos": 5710,
      "Ġarchitecture": 5711,
      "Ġwerden": 5712,
      "rest": 5713,
      "Ġcreativ": 5714,
      "Ġvarios": 5715,
      "Ġflour": 5716,
      "Ġallowed": 5717,
      "Ġwarming": 5718,
      "ĠStep": 5719,
      "à¸·à¹Ī": 5720,
      "Ġbirds": 5721,
      "Ġorganizations": 5722,
      "ael": 5723,
      "Ġtut": 5724,
      "Ġdent": 5725,
      "ĠÐ¯": 5726,
      "ĠTwo": 5727,
      "ĠMich": 5728,
      "cias": 5729,
      "Ð·Ð¸": 5730,
      "Qu": 5731,
      "Te": 5732,
      "Ġmap": 5733,
      "Ġfail": 5734,
      "ĠJust": 5735,
      "Ġappe": 5736,
      "Ġchanged": 5737,
      "ned": 5738,
      "ief": 5739,
      "Ġestr": 5740,
      "icket": 5741,
      "Ġprofes": 5742,
      "Ġconcepts": 5743,
      "Ġmomento": 5744,
      "Ġmantener": 5745,
      "æ´": 5746,
      "Ġfair": 5747,
      "cious": 5748,
      "ĠBoth": 5749,
      "ĠGood": 5750,
      "Ġprem": 5751,
      "Ġfactor": 5752,
      "Ġrapid": 5753,
      "size": 5754,
      "icult": 5755,
      "Ġvibr": 5756,
      "Ġpros": 5757,
      "ä¸İ": 5758,
      "ĠCho": 5759,
      "Ġprivacy": 5760,
      "ĠInternet": 5761,
      "Ġsustainable": 5762,
      "æ¬": 5763,
      "ĠMc": 5764,
      "Ġopportunity": 5765,
      "Ġmathematical": 5766,
      "å»": 5767,
      "echa": 5768,
      "Ð±Ð¾": 5769,
      "ĠYouT": 5770,
      "Ð¾Ð½Ð°": 5771,
      "ĠPeople": 5772,
      "Ġdemonstr": 5773,
      "Ġdouble": 5774,
      "iche": 5775,
      "ĠAnt": 5776,
      "ä»£": 5777,
      "æīĢ": 5778,
      "è¶": 5779,
      "alax": 5780,
      "Ġje": 5781,
      "Ġelectricity": 5782,
      "Ġexpected": 5783,
      "ç±": 5784,
      "Ð»Ð¾Ð²": 5785,
      "Ġeverything": 5786,
      "where": 5787,
      "Ġcorrespond": 5788,
      "Ġigual": 5789,
      "inks": 5790,
      "atos": 5791,
      "Ġpair": 5792,
      "ĠÐ±Ð¾Ð»ÐµÐµ": 5793,
      "Ġdevelopers": 5794,
      "Ġpatient": 5795,
      "ĠCount": 5796,
      "ĠJune": 5797,
      "Ġassign": 5798,
      "ĠCheck": 5799,
      "gent": 5800,
      "åºĶ": 5801,
      "Ġmeeting": 5802,
      "bor": 5803,
      "asy": 5804,
      "Ġleaves": 5805,
      "Ġessay": 5806,
      "Ġsymbol": 5807,
      "gu": 5808,
      "à¸¶": 5809,
      "Ġclaim": 5810,
      "ç³": 5811,
      "ç½": 5812,
      "itle": 5813,
      "ĠSing": 5814,
      "Ġloyal": 5815,
      "Ġusuarios": 5816,
      "hen": 5817,
      "erve": 5818,
      "icon": 5819,
      "oken": 5820,
      "Ġterrit": 5821,
      "ketball": 5822,
      "ĠLondon": 5823,
      "ED": 5824,
      "OM": 5825,
      "mp": 5826,
      "zo": 5827,
      "â£": 5828,
      "Ġtraff": 5829,
      "raf": 5830,
      "Ð¶Ð½Ð¾": 5831,
      "Ġinstit": 5832,
      "Ġadventure": 5833,
      "orize": 5834,
      "Ġmir": 5835,
      "Ġgest": 5836,
      "def": 5837,
      "Ġinvestment": 5838,
      "Ġsometimes": 5839,
      "ĠTV": 5840,
      "Ġrule": 5841,
      "ĠDav": 5842,
      "ĠLes": 5843,
      "Ġrefers": 5844,
      "Ġshows": 5845,
      "Ł¥": 5846,
      "Ġwie": 5847,
      "Ð¸ÑĩÐµÑģÐº": 5848,
      "Ġvict": 5849,
      "Ã³s": 5850,
      "ensity": 5851,
      "Ġadvance": 5852,
      "Ġremov": 5853,
      "Ġoffice": 5854,
      "ĠDespite": 5855,
      "Ġhit": 5856,
      "ilo": 5857,
      "ĠTer": 5858,
      "aming": 5859,
      "Ġshopping": 5860,
      "].": 5861,
      "iers": 5862,
      "Ġlived": 5863,
      "ella": 5864,
      "Ġadult": 5865,
      "Ġtransl": 5866,
      "à¹Ģà¸Ľ": 5867,
      "Ġtriangle": 5868,
      "iox": 5869,
      "Ġbutton": 5870,
      "åĬ¡": 5871,
      "Ġwanted": 5872,
      "Ġlatest": 5873,
      "yond": 5874,
      "ptember": 5875,
      "Ġtaste": 5876,
      "Ġconstruct": 5877,
      "ĠÃ¡re": 5878,
      "AD": 5879,
      "iante": 5880,
      "icaciÃ³n": 5881,
      "change": 5882,
      "Ġju": 5883,
      "Ã±a": 5884,
      "å¹´": 5885,
      "Ġcircu": 5886,
      "ko": 5887,
      "life": 5888,
      "Ġcin": 5889,
      "Ġyellow": 5890,
      "Ġgather": 5891,
      "ÑģÐ°": 5892,
      "Ġ28": 5893,
      "illo": 5894,
      "ĠUnion": 5895,
      "Ġdirection": 5896,
      "çķ": 5897,
      "asc": 5898,
      "ĠÐĵ": 5899,
      "ĠCateg": 5900,
      "ceed": 5901,
      "à¹Ĥ": 5902,
      "Ġclar": 5903,
      "Ġconsists": 5904,
      "æľº": 5905,
      "ĠBlack": 5906,
      "Ġnivel": 5907,
      "Ġapproximately": 5908,
      "?\"": 5909,
      "iant": 5910,
      "Ġpare": 5911,
      "Ġdud": 5912,
      "rot": 5913,
      "ĠAir": 5914,
      "ĠÐ¸Ñħ": 5915,
      "Ġmedio": 5916,
      "Ġlargo": 5917,
      "Ġteaspoon": 5918,
      "ĠChinese": 5919,
      "Ġ_": 5920,
      "eness": 5921,
      "ĠRet": 5922,
      "Ġspir": 5923,
      "Ġestado": 5924,
      "Ġincluded": 5925,
      "ĠeconÃ³m": 5926,
      "Ġfavorite": 5927,
      "ĠAustralia": 5928,
      "Ġquer": 5929,
      "unk": 5930,
      "Ġals": 5931,
      "ÑģÑĤÑĥ": 5932,
      "¦Ì¦Ì": 5933,
      "éĺ": 5934,
      "Ġtail": 5935,
      "Ġvast": 5936,
      "äº§": 5937,
      "ativa": 5938,
      "Ġchallenge": 5939,
      "arlic": 5940,
      "ercial": 5941,
      "ĠrÃ¡p": 5942,
      "ĠIng": 5943,
      "ellent": 5944,
      "Ġestablished": 5945,
      "Ġvehicles": 5946,
      "ya": 5947,
      "anas": 5948,
      "ivas": 5949,
      "Ġcondition": 5950,
      "ĠCap": 5951,
      "ĠExt": 5952,
      "ĠMex": 5953,
      "ĠLat": 5954,
      "Ġchicken": 5955,
      "Ġmedic": 5956,
      "æľĢ": 5957,
      "ÑīÐ°": 5958,
      "Ġmovies": 5959,
      "Ġcommunicate": 5960,
      "umb": 5961,
      "Ġserve": 5962,
      "Ġhelping": 5963,
      "ĠCalculate": 5964,
      "Ġvul": 5965,
      "Ġemoc": 5966,
      "'d": 5967,
      "Ar": 5968,
      "Ġpip": 5969,
      "ĠÑģÐ°Ð¼": 5970,
      "ionales": 5971,
      "Ġobser": 5972,
      "ĠespaÃ±": 5973,
      "åħ³": 5974,
      "å®¶": 5975,
      "åĲİ": 5976,
      "ĠÄĳ": 5977,
      "Ġfoods": 5978,
      "Ġdoesn": 5979,
      "ĠÐķÑģÐ»Ð¸": 5980,
      "amin": 5981,
      "olÃ³g": 5982,
      "Ð½Ð°Ðº": 5983,
      "Ġforces": 5984,
      "Ġenab": 5985,
      "ĠCat": 5986,
      "Ġexpert": 5987,
      "Ġbenefit": 5988,
      "ĠÐ¿ÑĢÐ¾Ð³": 5989,
      "Ġvelocidad": 5990,
      "ĠSub": 5991,
      "ÑĢÐ¾Ð¹": 5992,
      "ĠItal": 5993,
      "Ġ2018": 5994,
      "Ġpalabras": 5995,
      "ugh": 5996,
      "iny": 5997,
      "rect": 5998,
      "ĠGre": 5999,
      "izon": 6000,
      "ÑĦÐ¾ÑĢ": 6001,
      "éĩı": 6002,
      "'.": 6003,
      "ÑĶ": 6004,
      "ingu": 6005,
      "Ġprices": 6006,
      "à¸²à¸Ļ": 6007,
      "hington": 6008,
      "Ġherramientas": 6009,
      "uary": 6010,
      "ĠMax": 6011,
      "ĠState": 6012,
      "Ġformal": 6013,
      "Ġeffectively": 6014,
      "Ã³r": 6015,
      "ĠQue": 6016,
      "Ġthinking": 6017,
      "ĠFrancis": 6018,
      "ĠmÃºsica": 6019,
      "æģ": 6020,
      "char": 6021,
      "Ġescrib": 6022,
      "ĠUtil": 6023,
      "irect": 6024,
      "Ð¾Ð´Ðµ": 6025,
      "Ġclasses": 6026,
      "abe": 6027,
      "ĠÑĢÐ°Ð±Ð¾ÑĤ": 6028,
      "ĠResearch": 6029,
      "éĹ´": 6030,
      "Ġsupply": 6031,
      "ç¾": 6032,
      "Ġauch": 6033,
      "Ġresultado": 6034,
      "Ġadvice": 6035,
      "value": 6036,
      "Ġbroad": 6037,
      "Ġeye": 6038,
      "Ġtraffic": 6039,
      "ags": 6040,
      "Ġdefe": 6041,
      "zing": 6042,
      "Ñį": 6043,
      "Ð¾ÑĢÐ¸": 6044,
      "ĠBus": 6045,
      "Ġgreatest": 6046,
      "ÑĮÑİ": 6047,
      "Ġmezcl": 6048,
      "Ġentr": 6049,
      "Ġdefine": 6050,
      "arter": 6051,
      "Ġcreatures": 6052,
      "enses": 6053,
      "ĠYouTube": 6054,
      "fit": 6055,
      "Ġvit": 6056,
      "inder": 6057,
      "Ġalguna": 6058,
      "Ġpreferences": 6059,
      "à¹ĥà¸«": 6060,
      "rap": 6061,
      "Ġcient": 6062,
      "Ġfran": 6063,
      "uries": 6064,
      "urance": 6065,
      "uts": 6066,
      "ÐºÐ¾Ð¼": 6067,
      "ÑİÑĤÑģÑı": 6068,
      "Ġaccompl": 6069,
      "Ġbrow": 6070,
      "enty": 6071,
      "ä¸»": 6072,
      "Ġfinding": 6073,
      "ĠÐµÑģÐ»Ð¸": 6074,
      "Ð¾Ð¿ÑĢÐ¾Ñģ": 6075,
      "Ġnuevo": 6076,
      "ctober": 6077,
      "RL": 6078,
      "SC": 6079,
      "Ġ,": 6080,
      "itÃ©": 6081,
      "ÑĥÐ½": 6082,
      "Ġremove": 6083,
      "ĠÐ¿Ð¾Ñģ": 6084,
      "Ġwindow": 6085,
      "500": 6086,
      "gers": 6087,
      "Ġcorpor": 6088,
      "ĠAnalyze": 6089,
      "arÃŃa": 6090,
      "ĠServ": 6091,
      "Ġcreates": 6092,
      "Ġautomat": 6093,
      "Ġnuclear": 6094,
      "hold": 6095,
      "ÙĨ": 6096,
      "Ġcatch": 6097,
      "Ġproced": 6098,
      "ĠPa": 6099,
      "Ġmer": 6100,
      "Ġbond": 6101,
      "Ġesper": 6102,
      "ĠOur": 6103,
      "Ġcream": 6104,
      "Ġdisposit": 6105,
      "phone": 6106,
      "Ġpersonalized": 6107,
      "Ġgrandes": 6108,
      "Ġdomin": 6109,
      "Ġconversation": 6110,
      "Ġsmooth": 6111,
      "Ġ?": 6112,
      "Ġpy": 6113,
      "ĠOf": 6114,
      "ĠtÃ©rmin": 6115,
      "Ġelimin": 6116,
      "ĠÑģÐ»Ñĥ": 6117,
      "Ġcompetition": 6118,
      "Ġreceive": 6119,
      "æĦŁ": 6120,
      "Ġextrem": 6121,
      "ĠcaracterÃŃsticas": 6122,
      "uan": 6123,
      "omic": 6124,
      "Ġrepe": 6125,
      "Ġexpres": 6126,
      "Ġtrat": 6127,
      "Ġeleg": 6128,
      "Ġpunto": 6129,
      "Ġabsor": 6130,
      "Ġstories": 6131,
      "ĠFe": 6132,
      "ously": 6133,
      "ierto": 6134,
      "Ġpopul": 6135,
      "Ġcollege": 6136,
      "ÄĻ": 6137,
      "amil": 6138,
      "Ġvirus": 6139,
      "aint": 6140,
      "ÑģÑĤÐµÐ¼": 6141,
      "Ġfactores": 6142,
      "æĸ°": 6143,
      "Ġglass": 6144,
      "Ġmiddle": 6145,
      "ĠEvery": 6146,
      "VID": 6147,
      "hib": 6148,
      "Ġale": 6149,
      "Ġca": 6150,
      "omas": 6151,
      "Ġcoord": 6152,
      "åĪ¶": 6153,
      "Ġcultures": 6154,
      "Ġcasa": 6155,
      "à¹Ħà¸Ķ": 6156,
      "Ġreliable": 6157,
      "wise": 6158,
      "Ġbaking": 6159,
      "ilities": 6160,
      "Ġrelease": 6161,
      "Ġ23": 6162,
      "Ð¿Ðµ": 6163,
      "Ġvalu": 6164,
      "ĠPract": 6165,
      "Ġemotions": 6166,
      ".)": 6167,
      "Ġplease": 6168,
      "Ġfant": 6169,
      "Ġbound": 6170,
      "Ġ=>": 6171,
      "Ġcolon": 6172,
      "ãģĻ": 6173,
      "ĠAsia": 6174,
      "Ġgrowing": 6175,
      "à¸Ħà¸§": 6176,
      "ÑģÑĤÐ¾Ñı": 6177,
      "Ġinfin": 6178,
      "ĠPat": 6179,
      "ĠRob": 6180,
      "Ġtexto": 6181,
      "Ġflight": 6182,
      "Ġhistorical": 6183,
      "Ġprinciples": 6184,
      "å»º": 6185,
      "Ġvector": 6186,
      "anges": 6187,
      "ishing": 6188,
      "Ġproblema": 6189,
      "Ġconclusion": 6190,
      "ĠWashington": 6191,
      "IT": 6192,
      "rew": 6193,
      "Ġord": 6194,
      "ĠGold": 6195,
      "ificaciÃ³n": 6196,
      "ÐµÑĤÑĮ": 6197,
      "Ġadding": 6198,
      "Ġho": 6199,
      "Ġyog": 6200,
      "ete": 6201,
      "Ġlapt": 6202,
      "ÑĢÐµÐ±": 6203,
      "Ġtareas": 6204,
      "inger": 6205,
      "ĠAlex": 6206,
      "Ã©ct": 6207,
      "ĠOctober": 6208,
      "ÑĢÐ°Ð±Ð¾ÑĤ": 6209,
      "Ġafect": 6210,
      "ä¹ł": 6211,
      "Ġchallenging": 6212,
      "Ġcritical": 6213,
      "Ġusuario": 6214,
      "Ġmicro": 6215,
      "Ġrecon": 6216,
      "ÑĤÐ¸ÑĩÐµÑģÐº": 6217,
      "Ġexpensive": 6218,
      "ĠSeptember": 6219,
      "è¡¨": 6220,
      "ĠTechnology": 6221,
      "çł": 6222,
      "aten": 6223,
      "edom": 6224,
      "ĠMat": 6225,
      "ĠÐ½Ð¸": 6226,
      "ĠÑĸ": 6227,
      "Ġcombin": 6228,
      "Ġescrit": 6229,
      "ĠBuild": 6230,
      "Ġfalse": 6231,
      "Ġdistribution": 6232,
      "Hello": 6233,
      "ĠpÃº": 6234,
      "ĠSci": 6235,
      "Ġconsole": 6236,
      "Ġviv": 6237,
      "ĠDel": 6238,
      "Ġadvert": 6239,
      "Ġinsights": 6240,
      "Ġhands": 6241,
      "Ġcomplexity": 6242,
      "Ġarchivo": 6243,
      "Ġsaber": 6244,
      "Ġpolicies": 6245,
      "ĠÐ¼Ð½": 6246,
      "bled": 6247,
      "Ġdebido": 6248,
      "ĠÐºÐ¾ÑĤÐ¾ÑĢÑĭÐ¹": 6249,
      "æĬĢ": 6250,
      "Ġfully": 6251,
      "Ġcou": 6252,
      "Ġple": 6253,
      "Ġels": 6254,
      "Ġgoods": 6255,
      "à¸£à¸°": 6256,
      "Ġdefinition": 6257,
      "Ġtro": 6258,
      "Ð¿Ð¾Ð»": 6259,
      "Ġbuena": 6260,
      "ÑĸÐ´": 6261,
      "Ġequipment": 6262,
      "ocolate": 6263,
      "Ġquieres": 6264,
      "Ġpublished": 6265,
      "button": 6266,
      "incl": 6267,
      "ened": 6268,
      "Ġapart": 6269,
      "Ġready": 6270,
      "ĠEngland": 6271,
      "Ġdiverse": 6272,
      "Ġnumerous": 6273,
      "cen": 6274,
      "ncia": 6275,
      "ĠÐ¾Ð½": 6276,
      "ĠStar": 6277,
      "Ġappreci": 6278,
      "Ġvarias": 6279,
      "ĠaplicaciÃ³n": 6280,
      "Ġmac": 6281,
      "Ġwoman": 6282,
      "Ġimproving": 6283,
      "Ġinterests": 6284,
      "ĠEspaÃ±a": 6285,
      "Ġcambi": 6286,
      "urch": 6287,
      "Ġ27": 6288,
      "ãĢĬ": 6289,
      "ãĢĭ": 6290,
      "Ġcapable": 6291,
      "ĠTherefore": 6292,
      "Ġaudio": 6293,
      "jud": 6294,
      "year": 6295,
      "rio": 6296,
      "pped": 6297,
      "ĠdifÃŃ": 6298,
      "urrency": 6299,
      "ä¿Ŀ": 6300,
      "Ġbattery": 6301,
      "El": 6302,
      "OR": 6303,
      "adamente": 6304,
      "ette": 6305,
      "ç»ı": 6306,
      "ĠCompose": 6307,
      "Ġswim": 6308,
      "éĩį": 6309,
      "Ġpsych": 6310,
      "Ã´": 6311,
      "inas": 6312,
      "iling": 6313,
      "Ġstri": 6314,
      "Ġimmedi": 6315,
      "Ġvariedad": 6316,
      "encies": 6317,
      "ĠSince": 6318,
      "ÑīÐµÑģÑĤÐ²": 6319,
      "Ġsie": 6320,
      "Ġdro": 6321,
      "Ġknew": 6322,
      "ception": 6323,
      "ĠZe": 6324,
      "Ġphysics": 6325,
      "ygen": 6326,
      "zas": 6327,
      "ç«": 6328,
      "reh": 6329,
      "ajas": 6330,
      "Ġstructures": 6331,
      "icks": 6332,
      "eca": 6333,
      "Ġincluyen": 6334,
      "Ġfunctional": 6335,
      "Ġsorry": 6336,
      "ask": 6337,
      "ĠTime": 6338,
      "ĠCSS": 6339,
      "ĠMor": 6340,
      "Ġcontroll": 6341,
      "---": 6342,
      "ĠdiseÃ±o": 6343,
      "Ġfamiliar": 6344,
      "ç³»": 6345,
      "Ġpizza": 6346,
      "Ġgro": 6347,
      "ĠdifÃŃcil": 6348,
      "400": 6349,
      "oes": 6350,
      "Ġthr": 6351,
      "estyle": 6352,
      "Ġactually": 6353,
      "Ġmuest": 6354,
      "å°±": 6355,
      "uta": 6356,
      "ĠSE": 6357,
      "Ġellos": 6358,
      "ï¼Ł": 6359,
      "aÃ±o": 6360,
      "Ġdescribed": 6361,
      "Ġcandid": 6362,
      "anos": 6363,
      "ĠHol": 6364,
      "Ġmoving": 6365,
      "Ġchatbot": 6366,
      "ĠfÃŃsica": 6367,
      "Ġgarlic": 6368,
      "Ġsue": 6369,
      "Ġmyster": 6370,
      "Ġparticles": 6371,
      "Ġcharacteristics": 6372,
      "ĉĉ": 6373,
      "Ġaunque": 6374,
      "Ġma": 6375,
      "Ġley": 6376,
      "ĠÐ²Ð¾Ð¿ÑĢÐ¾Ñģ": 6377,
      "Ġwealth": 6378,
      "Ġminutos": 6379,
      "Ġproperly": 6380,
      "td": 6381,
      "Ġabilities": 6382,
      "Ġpresence": 6383,
      "Ġcitizens": 6384,
      "Ġ!": 6385,
      "ĠmÃ©s": 6386,
      "Ġdeber": 6387,
      "ĠJuly": 6388,
      "Ð¾Ð½Ð¸": 6389,
      "Ġremains": 6390,
      "Ġbirth": 6391,
      "Ġmaximum": 6392,
      "vement": 6393,
      "æ·": 6394,
      "éļ": 6395,
      "Ġfem": 6396,
      "Ġshared": 6397,
      "ĠConvert": 6398,
      "ĠÃ¨": 6399,
      "Ġejecut": 6400,
      "Ġempresa": 6401,
      "Ġvulner": 6402,
      "ls": 6403,
      "çĻ": 6404,
      "level": 6405,
      "ĠHouse": 6406,
      "ÐµÑĤÐ°": 6407,
      "Ġdriving": 6408,
      "Ġinterested": 6409,
      "çĽ®": 6410,
      "è¯Ńè¨Ģ": 6411,
      "ÑĹ": 6412,
      "elo": 6413,
      "Ġgases": 6414,
      "Ġbeyond": 6415,
      "ĠWhere": 6416,
      "world": 6417,
      "Ġintegral": 6418,
      "éĹ®é¢ĺ": 6419,
      "Ġauthent": 6420,
      "AL": 6421,
      "ÙĪ": 6422,
      "Ġtor": 6423,
      "itter": 6424,
      "amples": 6425,
      "Ġenh": 6426,
      "seg": 6427,
      "venue": 6428,
      "Ġcourage": 6429,
      "Ġmixt": 6430,
      "Ġpandemic": 6431,
      "nal": 6432,
      "esta": 6433,
      "used": 6434,
      "Ð»ÐµÐ½Ð¸Ñı": 6435,
      "ĠBob": 6436,
      "Ġevitar": 6437,
      "Ġreading": 6438,
      "Ġdiseases": 6439,
      "å¸¸": 6440,
      "Ġestablish": 6441,
      "Ġsauce": 6442,
      "Ġvaluable": 6443,
      "Ġlic": 6444,
      "Ġwird": 6445,
      "Ġexcl": 6446,
      "ä¸ļ": 6447,
      "ä¸ĢäºĽ": 6448,
      "å¾Ĺ": 6449,
      "Ġerrors": 6450,
      "Ġvillage": 6451,
      "lor": 6452,
      "icar": 6453,
      "ĠÐ£": 6454,
      "acc": 6455,
      "Ġtres": 6456,
      "ĠÃ¼": 6457,
      "Ġreturns": 6458,
      "Ġincreasingly": 6459,
      "Ġaire": 6460,
      "Ġhuev": 6461,
      "ĠCr": 6462,
      "Ġadminist": 6463,
      "Ġacad": 6464,
      "å¤©": 6465,
      "Ġexperiencia": 6466,
      "heit": 6467,
      "Ġwomen": 6468,
      "Ġinj": 6469,
      "ums": 6470,
      "ĠDem": 6471,
      "Ð¼Ð¾": 6472,
      "rones": 6473,
      "ĠopciÃ³n": 6474,
      "Name": 6475,
      "ged": 6476,
      "ij": 6477,
      "Ġporque": 6478,
      "Ġnecesidades": 6479,
      "ĠÑģÐ¸ÑģÑĤÐµÐ¼": 6480,
      "pan": 6481,
      "Ġusage": 6482,
      "Ġtrade": 6483,
      "Ġcapabilities": 6484,
      "Ġutilizan": 6485,
      "ĠkÃ¶nnen": 6486,
      "part": 6487,
      "ĠaÃ±o": 6488,
      "Ġreward": 6489,
      "ĠBay": 6490,
      "anging": 6491,
      "ĠThank": 6492,
      "iber": 6493,
      "Ġ500": 6494,
      "ifying": 6495,
      "à¸²à¸¢": 6496,
      "Ġcel": 6497,
      "Ġbird": 6498,
      "Ġgiving": 6499,
      "Ġrich": 6500,
      "astructure": 6501,
      "æºĲ": 6502,
      "cr": 6503,
      "sv": 6504,
      "onym": 6505,
      "ĠNote": 6506,
      "Ð²Ð¾Ð´": 6507,
      "ĠÐ¿ÑĢÐµ": 6508,
      "duc": 6509,
      "overs": 6510,
      "ĠÑĤÐ¾Ð³Ð¾": 6511,
      "ĠSoft": 6512,
      "Ġmotor": 6513,
      "uce": 6514,
      "ini": 6515,
      "iciones": 6516,
      "ils": 6517,
      "ĠMac": 6518,
      "rief": 6519,
      "ptoms": 6520,
      "Ġconserv": 6521,
      "azÃ³n": 6522,
      "Ð¿ÑĢÐ¸Ð¼ÐµÑĢ": 6523,
      "ĠChoose": 6524,
      "LP": 6525,
      "ĠØ§ÙĦ": 6526,
      "Ġtan": 6527,
      "Ġsite": 6528,
      "Ġjud": 6529,
      "Ð¾Ð»Ð¾Ð³": 6530,
      "Ġindependent": 6531,
      "Ġpreguntas": 6532,
      "éĥ½": 6533,
      "ĠPero": 6534,
      "ĠBec": 6535,
      "Ġprime": 6536,
      "ĠÐ¿ÐµÑĢ": 6537,
      "ticas": 6538,
      "Ġvalores": 6539,
      "ä½Ĩ": 6540,
      "Ġwinter": 6541,
      "ĠPresident": 6542,
      "odos": 6543,
      "uso": 6544,
      "Ġdoor": 6545,
      "Ġentender": 6546,
      "Ã¡gina": 6547,
      "ĠJanuary": 6548,
      "uate": 6549,
      "é£": 6550,
      "Ġcore": 6551,
      "Ġ26": 6552,
      "Ġoutdo": 6553,
      "Ġincred": 6554,
      "Ġmention": 6555,
      "ĠKingdom": 6556,
      "xi": 6557,
      "è°": 6558,
      "Ġcert": 6559,
      "oute": 6560,
      "Ġuns": 6561,
      "ĠestÃ©": 6562,
      "Ġcalor": 6563,
      "Ġfilter": 6564,
      "Ġbelieved": 6565,
      "Ġdescub": 6566,
      "Ġpackage": 6567,
      "omin": 6568,
      "Ġrein": 6569,
      "urg": 6570,
      "Ġriver": 6571,
      "ĠPy": 6572,
      "Ġese": 6573,
      "Ġdistinct": 6574,
      "Ġvision": 6575,
      "ĠOrgan": 6576,
      "Ġradio": 6577,
      "Ġcosas": 6578,
      "acer": 6579,
      "unda": 6580,
      "Ġfeelings": 6581,
      "Ã©rica": 6582,
      "ĠIntelligence": 6583,
      "Ex": 6584,
      "unning": 6585,
      "Ġphen": 6586,
      "Ġexcellent": 6587,
      "Ġbeginning": 6588,
      "Ġcollection": 6589,
      ".-": 6590,
      "ĠmÃ¡": 6591,
      "icing": 6592,
      "ciÃ³": 6593,
      "Ġcolores": 6594,
      "Ġliqu": 6595,
      "Ġworked": 6596,
      "Ġcuerpo": 6597,
      "source": 6598,
      "Ġtouch": 6599,
      "Ġoven": 6600,
      "ĠGreek": 6601,
      "verse": 6602,
      "Ġreferred": 6603,
      "Ġlayers": 6604,
      "Ġparameters": 6605,
      "ĠNovember": 6606,
      "Cl": 6607,
      "NA": 6608,
      "ĠHy": 6609,
      "ĠPrin": 6610,
      "ä¿¡": 6611,
      "ederal": 6612,
      "Ġcontenido": 6613,
      "à¹ģà¸¥à¸°": 6614,
      "fol": 6615,
      "ecraft": 6616,
      "aby": 6617,
      "Ġscene": 6618,
      "Ġacqu": 6619,
      "ental": 6620,
      "ĠSant": 6621,
      "Ġtra": 6622,
      "Ã©l": 6623,
      "Ð²Ð¾Ð»": 6624,
      "ä»»": 6625,
      "cohol": 6626,
      "Ġwebsites": 6627,
      "Ġhimself": 6628,
      "ĠnÃºmeros": 6629,
      "ĠPal": 6630,
      "rier": 6631,
      "ĠelÃ©ct": 6632,
      "ÐºÐ»Ñİ": 6633,
      "äºĭ": 6634,
      "Ġmedida": 6635,
      "ocket": 6636,
      "Ġhumanos": 6637,
      "Ġdetailed": 6638,
      "Ġpasos": 6639,
      "åŃĲ": 6640,
      "Ġannoun": 6641,
      "ç´": 6642,
      "ott": 6643,
      "orte": 6644,
      "ĠUp": 6645,
      "ĠÐ¼Ñĭ": 6646,
      "ĠEngine": 6647,
      "ĠEmpire": 6648,
      "dis": 6649,
      "unction": 6650,
      "Ġcarry": 6651,
      "è¯´": 6652,
      "Ġprimer": 6653,
      "Ġmeaningful": 6654,
      "Ġespacio": 6655,
      "ĠTur": 6656,
      "Ġchance": 6657,
      "å¾Ī": 6658,
      "Ġimplications": 6659,
      "friendly": 6660,
      "ĠSQL": 6661,
      "ĠÐ¿Ð¾ÑĤ": 6662,
      "Ġblan": 6663,
      "Ġruns": 6664,
      "Ġfuel": 6665,
      "Ġmoral": 6666,
      "ĠDecember": 6667,
      "Ġaspects": 6668,
      "atu": 6669,
      "Ġfab": 6670,
      "Ġlaunch": 6671,
      "ĠBel": 6672,
      "Ġspending": 6673,
      "Ġtechnique": 6674,
      "Ġrequests": 6675,
      "cling": 6676,
      "Ġ+=": 6677,
      "Ġmillones": 6678,
      "Ġdangerous": 6679,
      "Ġcrypt": 6680,
      "Ġreplace": 6681,
      "Ġpeut": 6682,
      "Ġtheme": 6683,
      "Ġgeneration": 6684,
      "Ġexpos": 6685,
      "ĠÑħÐ¾": 6686,
      "==": 6687,
      "hal": 6688,
      "Ġskin": 6689,
      "Ġdownload": 6690,
      "Ġcooking": 6691,
      "ÃŃculas": 6692,
      "Ġalmost": 6693,
      "cipl": 6694,
      "ĠBo": 6695,
      "Ġparents": 6696,
      "illas": 6697,
      "Ġprotection": 6698,
      "å¸®": 6699,
      "ĠConsider": 6700,
      "ionar": 6701,
      "oles": 6702,
      "Ġfore": 6703,
      "Ġcompleted": 6704,
      "Ġsubs": 6705,
      "Ġcausing": 6706,
      "Ġaccurately": 6707,
      "Ġcum": 6708,
      "ĠpÃ¡gina": 6709,
      "ivery": 6710,
      "ĠÐ¿ÑĢÐ°": 6711,
      "Ġamaz": 6712,
      "Ġassess": 6713,
      "Ġjobs": 6714,
      "Ġrecommended": 6715,
      "Ġseparate": 6716,
      "ĠKeep": 6717,
      "ÑĢÑı": 6718,
      "Ġstored": 6719,
      "å°Ĩ": 6720,
      "Ġthoughts": 6721,
      "Ġrecords": 6722,
      "Ġhidden": 6723,
      "ĠPac": 6724,
      "ĠMid": 6725,
      "ĠFal": 6726,
      "ounds": 6727,
      "Ġposit": 6728,
      "Ġstudies": 6729,
      "Ġimagen": 6730,
      "Ġau": 6731,
      "ĠDep": 6732,
      "Ġ2000": 6733,
      "ĠÐ²ÐµÑĢ": 6734,
      "Ġadap": 6735,
      "Ġadject": 6736,
      "Ġ45": 6737,
      "Ġrelacion": 6738,
      "ãģ§": 6739,
      "Ġdegree": 6740,
      "right": 6741,
      "yo": 6742,
      "Ð¸ÑĤÐ°": 6743,
      "Ġreb": 6744,
      "Ġiter": 6745,
      "ĠBest": 6746,
      "ĠÐ¿Ð°": 6747,
      "ĠAlthough": 6748,
      "Ġpassion": 6749,
      "Ġobjetivo": 6750,
      "ĠFrancisco": 6751,
      "wik": 6752,
      "Ð¸Ð¼Ð¸": 6753,
      "uls": 6754,
      "Ġalta": 6755,
      "ĠFre": 6756,
      "ĠFeb": 6757,
      "ĠestÃ¡s": 6758,
      "Ġ90": 6759,
      "comes": 6760,
      "Ġstarts": 6761,
      "box": 6762,
      "Ġopciones": 6763,
      "Ġsociedad": 6764,
      "Ġsounds": 6765,
      "æĥ³": 6766,
      "Ġpode": 6767,
      "ading": 6768,
      "Ġgives": 6769,
      "Ġstores": 6770,
      "agram": 6771,
      "ÑģÑĤÐ²Ð¸": 6772,
      "Ġorganized": 6773,
      "Ġcultura": 6774,
      "ĠSocial": 6775,
      "nes": 6776,
      "px": 6777,
      "vised": 6778,
      "Ġleave": 6779,
      "ĠserÃŃa": 6780,
      "Ġdemocr": 6781,
      "Ġmotion": 6782,
      "Ġlogo": 6783,
      "Ġhorizon": 6784,
      "Ġjoin": 6785,
      "Ġelectrical": 6786,
      "Ġlifestyle": 6787,
      "ĠpaÃŃses": 6788,
      "Å¼": 6789,
      "igos": 6790,
      "usiÃ³n": 6791,
      "umber": 6792,
      "Ġorange": 6793,
      "ĠÐ¸Ð¼Ðµ": 6794,
      "Ġplanning": 6795,
      "ĠGrand": 6796,
      "Ġresponses": 6797,
      "å·±": 6798,
      "å¦Ĥæŀľ": 6799,
      "ding": 6800,
      "ibli": 6801,
      "Ġbattle": 6802,
      "çĽ¸": 6803,
      "isiÃ³n": 6804,
      "Ġunit": 6805,
      "ĠCup": 6806,
      "rug": 6807,
      "Ġdeliver": 6808,
      "Ġformas": 6809,
      "Ġsecret": 6810,
      "Ġpredictions": 6811,
      "ĠDeterm": 6812,
      "game": 6813,
      "Ġajust": 6814,
      "Ġmission": 6815,
      "Ġneut": 6816,
      "Ġcontra": 6817,
      "Ġmetal": 6818,
      "Ġcommunities": 6819,
      "ĠPlan": 6820,
      "ĠInternational": 6821,
      "edy": 6822,
      "Ġrank": 6823,
      "Ġweap": 6824,
      "Ġregions": 6825,
      "poons": 6826,
      "ĠParis": 6827,
      "Ġconcerns": 6828,
      "ded": 6829,
      "Ġlle": 6830,
      "ĠSpr": 6831,
      "ĠCustom": 6832,
      "ĠPC": 6833,
      "plit": 6834,
      "ĠFinal": 6835,
      "Ġinterview": 6836,
      "isp": 6837,
      "Ġfinally": 6838,
      "ÑĨÐ°": 6839,
      "Ġflat": 6840,
      "Ġhumano": 6841,
      "à¹ĥà¸Ļ": 6842,
      "SD": 6843,
      "ye": 6844,
      "arn": 6845,
      "Ġwest": 6846,
      "ÑģÑĥ": 6847,
      "Ġsex": 6848,
      "ĠBer": 6849,
      "ĠThrough": 6850,
      "Ġcontract": 6851,
      "Ġexploring": 6852,
      "Ġheavy": 6853,
      "ĠPotter": 6854,
      "ĠTry": 6855,
      "Ġunl": 6856,
      "ruary": 6857,
      "Ġamor": 6858,
      "Ð½Ð¸Ð¹": 6859,
      "Ð½Ð¸Ð¼Ð°": 6860,
      "Ġproductivity": 6861,
      "Ġsociales": 6862,
      "Ġcontinued": 6863,
      "Ġfounded": 6864,
      "Ġhydro": 6865,
      "Ġgrande": 6866,
      "Ġcycle": 6867,
      "ĠIncre": 6868,
      "Ġcomfortable": 6869,
      "nament": 6870,
      "Ġtam": 6871,
      "Ġaware": 6872,
      "Ġdiox": 6873,
      "Ġtheor": 6874,
      "Ġconver": 6875,
      "Ġheard": 6876,
      "Ã¡fic": 6877,
      "ĠÐ´Ð¾Ð»": 6878,
      "Ġsolid": 6879,
      "Ġtechnical": 6880,
      "Ġreduced": 6881,
      "Ġrobots": 6882,
      "åīį": 6883,
      "ËĪ": 6884,
      "Ġcake": 6885,
      "Ġnp": 6886,
      "ÑĥÑĩÐ¸": 6887,
      "Ġclassic": 6888,
      "ĠÐ·Ð°Ð´Ð°": 6889,
      "ataform": 6890,
      "ĠWestern": 6891,
      "craft": 6892,
      "riz": 6893,
      "Ġcompreh": 6894,
      "ibly": 6895,
      "acks": 6896,
      "ĠUnder": 6897,
      "Ġassum": 6898,
      "string": 6899,
      "Ġemotional": 6900,
      "èĩªå·±": 6901,
      "Ġmerc": 6902,
      "Ġecos": 6903,
      "Ġrice": 6904,
      "ĠEast": 6905,
      "ĠMil": 6906,
      "ÃŃo": 6907,
      "Ġpueda": 6908,
      "Ġmetaph": 6909,
      "Ġflavor": 6910,
      "Ġpassed": 6911,
      "Ġdebes": 6912,
      "Ġlandsc": 6913,
      "Ã¡lisis": 6914,
      "Ġneuron": 6915,
      "uation": 6916,
      "ancing": 6917,
      "ĠTierra": 6918,
      "Ð°Ð¹": 6919,
      "ogue": 6920,
      "Ġdelicious": 6921,
      "ĠÐ¼Ð¾": 6922,
      "ĠÐ²Ð°ÑĪ": 6923,
      "ç±»": 6924,
      "Ġfo": 6925,
      "eler": 6926,
      "ĠHave": 6927,
      "Ġsoil": 6928,
      "ensiÃ³n": 6929,
      "Ġgoes": 6930,
      "Ġnutri": 6931,
      "Ġastron": 6932,
      "stein": 6933,
      "PS": 6934,
      "å¢": 6935,
      "ĠFire": 6936,
      "Ġbelong": 6937,
      "**:": 6938,
      "Ġpotentially": 6939,
      "ĠÐ¶Ð¸Ð·": 6940,
      "Ġprobability": 6941,
      "Ġsiguientes": 6942,
      "å±ķ": 6943,
      "];": 6944,
      "lÃ©s": 6945,
      "Ġpad": 6946,
      "Ġcoming": 6947,
      "Ġspend": 6948,
      "ĠÐ¸Ð³": 6949,
      "ĠÐ½Ñĥ": 6950,
      "Ġformula": 6951,
      "Ġfriendly": 6952,
      "Ġagricult": 6953,
      "Ġinfrastructure": 6954,
      "ĠÐ¿ÑĢÐ¾Ð³ÑĢÐ°Ð¼": 6955,
      "Äħ": 6956,
      "aries": 6957,
      "ĠAndroid": 6958,
      "Ġexperienced": 6959,
      "ä¾ĭ": 6960,
      "å¿ĥ": 6961,
      "ĠRevolution": 6962,
      "Ã¢": 6963,
      "elle": 6964,
      "Ġalc": 6965,
      "ĠÐ¿Ð¾Ð¿": 6966,
      "ords": 6967,
      "Ġfacts": 6968,
      "ÑĨÐ¸Ñİ": 6969,
      "ÑģÐ¿Ðµ": 6970,
      "Ġintroduced": 6971,
      "Ġestructura": 6972,
      "Ġbranch": 6973,
      "Ġaproxim": 6974,
      "ç¡": 6975,
      "à¸ľ": 6976,
      "ĠBig": 6977,
      "Ġ32": 6978,
      "Ġcreation": 6979,
      "Ġcapture": 6980,
      "Ġcollaboration": 6981,
      "ÑĤÑģÑı": 6982,
      "ĠLast": 6983,
      "Ġneigh": 6984,
      "ĠÑģÐ¾Ð²": 6985,
      "Ġcommercial": 6986,
      "Ġformed": 6987,
      "Ġapply": 6988,
      "anguage": 6989,
      "Ġpresid": 6990,
      "Ġminer": 6991,
      "ĠÐ¾Ð±ÑĬ": 6992,
      "Ġprimarily": 6993,
      "Ġconocido": 6994,
      "Ġprotein": 6995,
      "Ġdiscovered": 6996,
      "Ġsupuesto": 6997,
      "lines": 6998,
      "Ġrat": 6999,
      "ĠRust": 7000,
      "Ġcoast": 7001,
      "Ã§Ãµes": 7002,
      "ĠBlue": 7003,
      "ä¾Ľ": 7004,
      "Ġcategories": 7005,
      "Ġwrong": 7006,
      "Ġbeliefs": 7007,
      "range": 7008,
      "Ġrect": 7009,
      "Ġopinion": 7010,
      "wide": 7011,
      "Ð½Ñĸ": 7012,
      "Ġquite": 7013,
      "ĠBased": 7014,
      "Ġmeal": 7015,
      "Ġsymptoms": 7016,
      "Ġwaves": 7017,
      "ili": 7018,
      "Ġonto": 7019,
      "ĠNow": 7020,
      "Ġnothing": 7021,
      "ifications": 7022,
      "Ġmixture": 7023,
      "Com": 7024,
      "ying": 7025,
      "âķ": 7026,
      "Ġaward": 7027,
      "iday": 7028,
      "ĠSchool": 7029,
      "ĠÐ²Ñģ": 7030,
      "Ġtempor": 7031,
      "Ġcomponent": 7032,
      "ĠÐºÐ¾Ð¼Ð¿": 7033,
      "Ġnorth": 7034,
      "Ġdioxide": 7035,
      "Ġsouth": 7036,
      "Ġcri": 7037,
      "ĠBas": 7038,
      "formation": 7039,
      "Ġoutcomes": 7040,
      "ĠIntrodu": 7041,
      "ĠRepublic": 7042,
      "ĠÐ»ÑİÐ±": 7043,
      "Ġsend": 7044,
      "ĠLu": 7045,
      "Ð¾Ð»Ð¸": 7046,
      "uciones": 7047,
      "ãģĹ": 7048,
      "Ġbeneficial": 7049,
      "cussion": 7050,
      "ĠIngred": 7051,
      "ky": 7052,
      "ÑĤÐ¾Ð²": 7053,
      "Ġrid": 7054,
      "ĠPan": 7055,
      "ãģĦ": 7056,
      "Ġfilos": 7057,
      "ĠAlgunos": 7058,
      "éĥ": 7059,
      "ered": 7060,
      "ĠDear": 7061,
      "Ġvolume": 7062,
      "odies": 7063,
      "Ġ->": 7064,
      "Ġspent": 7065,
      "Ġstrings": 7066,
      "Ġextreme": 7067,
      "Ġestimated": 7068,
      "vi": 7069,
      "Ġfine": 7070,
      "dule": 7071,
      "Ġserious": 7072,
      "Ġ2017": 7073,
      "Ġejerc": 7074,
      "Ġasked": 7075,
      "uge": 7076,
      "ĠÐ½Ð°Ð¿": 7077,
      "è®¡": 7078,
      "Ġlinear": 7079,
      "Ġprincipales": 7080,
      "ibilities": 7081,
      "ĠJapanese": 7082,
      "Ġpowers": 7083,
      "Ġencuentra": 7084,
      "Wh": 7085,
      "Ġace": 7086,
      "ĠGame": 7087,
      "Ġmediante": 7088,
      "ocker": 7089,
      "Ġfreedom": 7090,
      "Ġdefined": 7091,
      "ĠÐ²ÑĢÐµÐ¼Ñı": 7092,
      "fig": 7093,
      "Ġtort": 7094,
      "Ġresource": 7095,
      "Ġ31": 7096,
      "ellen": 7097,
      "ĠJos": 7098,
      "Ġprec": 7099,
      "Ġinterf": 7100,
      "Ġspecif": 7101,
      "åħ¬": 7102,
      "Ġimpacts": 7103,
      "Ġfuturo": 7104,
      "åĽŀ": 7105,
      "Ġscientists": 7106,
      "Ġoxygen": 7107,
      "ĠmÃ©todo": 7108,
      "Ġdentro": 7109,
      "ĠMichael": 7110,
      "Ġlaptop": 7111,
      "\"\"": 7112,
      "ln": 7113,
      "power": 7114,
      "writ": 7115,
      "orrow": 7116,
      "åħ¨": 7117,
      "Ġclassification": 7118,
      "Ġguer": 7119,
      "ĠÐ¾ÑĤÐ²ÐµÑĤ": 7120,
      "å½ĵ": 7121,
      "Ġattacks": 7122,
      "Ġgarden": 7123,
      "Ġmysterious": 7124,
      "Ġrecy": 7125,
      "ĠrelaciÃ³n": 7126,
      "çĤ¹": 7127,
      ":**": 7128,
      "Ġpython": 7129,
      "ĠSur": 7130,
      "Ġcompl": 7131,
      "Ġbeg": 7132,
      "aker": 7133,
      "Ġanyone": 7134,
      "Ġbuscar": 7135,
      "Ġsegu": 7136,
      "pression": 7137,
      "Ġcamera": 7138,
      "Ġmaster": 7139,
      "ĠEstas": 7140,
      "orus": 7141,
      "Ġfoss": 7142,
      "Ġhair": 7143,
      "Ġrates": 7144,
      "ĠDu": 7145,
      "ĠLeg": 7146,
      "Ġdisfr": 7147,
      "Ġejemplos": 7148,
      "ĠÐ¢Ð°Ðº": 7149,
      "ault": 7150,
      "ĠMain": 7151,
      "Ġcomposed": 7152,
      "ĠJe": 7153,
      "prise": 7154,
      "ĠReal": 7155,
      "æĮģ": 7156,
      "Ġà¹Ģà¸": 7157,
      "ĠÐ§": 7158,
      "Ġreached": 7159,
      "ĠDog": 7160,
      "ĠFace": 7161,
      "ĠRiver": 7162,
      "Ġcompat": 7163,
      "Ġnoise": 7164,
      "Ġsolving": 7165,
      "ĠÐ±ÐµÐ·": 7166,
      "Ġbasketball": 7167,
      "Ġachieved": 7168,
      "Ġsuppl": 7169,
      "ĠItalian": 7170,
      "Ġtun": 7171,
      "Ġfather": 7172,
      "Ġchocolate": 7173,
      "Ġtelevision": 7174,
      "cas": 7175,
      "cks": 7176,
      "mes": 7177,
      "ĠMoon": 7178,
      "cciones": 7179,
      "ĠÑģÐ¾Ð±": 7180,
      "Ġtema": 7181,
      "Ã¡ticas": 7182,
      "Ġinfluen": 7183,
      "ĶĢâĶĢâĶĢâĶĢâ": 7184,
      "ham": 7185,
      "Ġceb": 7186,
      "anza": 7187,
      "Ġgod": 7188,
      "ands": 7189,
      "izado": 7190,
      "Ġhear": 7191,
      "Ġavanz": 7192,
      "example": 7193,
      "Ġlabel": 7194,
      "ĠCategorize": 7195,
      "mark": 7196,
      "making": 7197,
      "edor": 7198,
      "ÑĥÐµÑĤ": 7199,
      "ÃŃt": 7200,
      "ĠInvest": 7201,
      "ipe": 7202,
      "Ġsont": 7203,
      "adora": 7204,
      "Ã¶g": 7205,
      "hl": 7206,
      "isl": 7207,
      "Ġmens": 7208,
      "rog": 7209,
      "Ġchann": 7210,
      "Ġplans": 7211,
      "Ġequival": 7212,
      "è¿ĺ": 7213,
      "Ġconsistent": 7214,
      "Ġregulations": 7215,
      "Ġframework": 7216,
      "Ġpowder": 7217,
      "Ġasegur": 7218,
      "iden": 7219,
      "ĠText": 7220,
      "arlos": 7221,
      "opped": 7222,
      "Ġcontribute": 7223,
      "fast": 7224,
      "iro": 7225,
      "Ġpon": 7226,
      "Ġpant": 7227,
      "acciÃ³n": 7228,
      "ÑģÑģÐ¸": 7229,
      "Ġcompart": 7230,
      "Ġ35": 7231,
      "Ġpercussion": 7232,
      "Ġmanner": 7233,
      "wood": 7234,
      "Ġacid": 7235,
      "Ġhaya": 7236,
      "Ġredes": 7237,
      "ĠÃ¼ber": 7238,
      "é¦": 7239,
      "atas": 7240,
      "asure": 7241,
      "Ġran": 7242,
      "ĠLife": 7243,
      "ĠĠĠĠĠĠĠĠĠĠĠĠĠ": 7244,
      "Ġplataform": 7245,
      "ĠÐ¼ÐµÐ½": 7246,
      "åħ¥": 7247,
      "Ġtipos": 7248,
      "Ġdedic": 7249,
      "Ġamplia": 7250,
      "BC": 7251,
      "eks": 7252,
      "Æ°": 7253,
      "Ġ__": 7254,
      "iner": 7255,
      "Ġcounter": 7256,
      "Ġfel": 7257,
      "ĠBill": 7258,
      "Ġopening": 7259,
      "ĠÐ²Ð°Ñģ": 7260,
      "Ġoffering": 7261,
      "Ġresolver": 7262,
      "Ġkingdom": 7263,
      "Ġescribir": 7264,
      "Ġcards": 7265,
      "ĠBre": 7266,
      "ĠHist": 7267,
      "verb": 7268,
      "ĠGit": 7269,
      "Ġjump": 7270,
      "Ġbias": 7271,
      "Ġindustrial": 7272,
      "cre": 7273,
      "ÑĢÐ°Ð½Ð¸": 7274,
      "Ã§a": 7275,
      "Ġbottom": 7276,
      "Ġrepet": 7277,
      "ĠFebruary": 7278,
      "cles": 7279,
      "Ġpic": 7280,
      "ĠÐ¿Ð¾Ð·": 7281,
      "ticos": 7282,
      "Ġ<<": 7283,
      "Ġproductos": 7284,
      "Ġincreases": 7285,
      "ĠSpain": 7286,
      "Ġdepende": 7287,
      "Ġalmac": 7288,
      "Ġperspective": 7289,
      "\");": 7290,
      "Ġunos": 7291,
      "ĠChange": 7292,
      "Ġ70": 7293,
      "ĠPrim": 7294,
      "ĠmÃ©d": 7295,
      "Ġhaz": 7296,
      "Ð°Ð»": 7297,
      "Ġalcohol": 7298,
      "izer": 7299,
      "Ġjuegos": 7300,
      "Ġnotes": 7301,
      "Ġbuen": 7302,
      "ĠProduct": 7303,
      "Ġcontinues": 7304,
      "Ð¾ÑģÐ¾Ð±": 7305,
      "Ġimplementation": 7306,
      "Ġroutine": 7307,
      "IM": 7308,
      "ui": 7309,
      "isa": 7310,
      "ĠRich": 7311,
      "Ġcompare": 7312,
      "being": 7313,
      "Ġrecently": 7314,
      "Ġrecognize": 7315,
      "Ġnutrit": 7316,
      "Ġequipo": 7317,
      "Ġapplied": 7318,
      "ĠWilliam": 7319,
      "eper": 7320,
      "èī": 7321,
      "arÃ¡": 7322,
      "ĠMore": 7323,
      "ĠItaly": 7324,
      "Ġderech": 7325,
      "Ġopened": 7326,
      "ĠÐµÑģÑĤÑĮ": 7327,
      "Ġmagic": 7328,
      "å¼ı": 7329,
      "ĠNext": 7330,
      "ç¼": 7331,
      "Ġcro": 7332,
      "ession": 7333,
      "Ġ29": 7334,
      "ĠHealth": 7335,
      "Ġeta": 7336,
      "à¹Ħà¸¡": 7337,
      "ĠCOVID": 7338,
      "ĠChatGPT": 7339,
      "ĠÐ±ÑĥÐ´ÐµÑĤ": 7340,
      "Ġtutorial": 7341,
      "ici": 7342,
      "Ġdeploy": 7343,
      "oso": 7344,
      "idth": 7345,
      "Ġimper": 7346,
      "Ġchain": 7347,
      "Ġsoy": 7348,
      "Ð½Ð¸Ð¸": 7349,
      "Ð»Ð¸Ñĩ": 7350,
      "ÐµÐ½Ð¸Ð¸": 7351,
      "ÑĨÐ¸Ð¾Ð½": 7352,
      "Ġengage": 7353,
      "Ġrestrict": 7354,
      "LM": 7355,
      "çĿ": 7356,
      "Ġpie": 7357,
      "Ġinfect": 7358,
      "ĠEle": 7359,
      "ĠRome": 7360,
      "Ġcontrib": 7361,
      "Ġinstal": 7362,
      "åħ·": 7363,
      "Ġeiner": 7364,
      "Ġecosystem": 7365,
      "Ġtone": 7366,
      "osp": 7367,
      "Ġthus": 7368,
      "Ġcomplic": 7369,
      "Ġresid": 7370,
      "Ġtele": 7371,
      "Ġdelivery": 7372,
      "Ġcub": 7373,
      "ãģ«": 7374,
      "Ð¾Ð¶Ðµ": 7375,
      "ativos": 7376,
      "ä¹Ī": 7377,
      "Ġnecesario": 7378,
      "Ġfocuses": 7379,
      "å°ı": 7380,
      "Ġefficiently": 7381,
      "ç¾İ": 7382,
      "Ġrecip": 7383,
      "Ġabstr": 7384,
      "ãģ¯": 7385,
      "Ġlearned": 7386,
      "amento": 7387,
      "Ġtemperatura": 7388,
      "Ġcambio": 7389,
      "title": 7390,
      "ç¬": 7391,
      "è¢": 7392,
      "ani": 7393,
      "rote": 7394,
      "Ġstage": 7395,
      "Ġseven": 7396,
      "ĠFol": 7397,
      "Ġincent": 7398,
      "ÑĸÐ²": 7399,
      "Ġdetall": 7400,
      "Ġencounter": 7401,
      "æ±Ĥ": 7402,
      "Ġaccomplish": 7403,
      "host": 7404,
      "itution": 7405,
      "Ġenfer": 7406,
      "ĠMo": 7407,
      "ango": 7408,
      "produ": 7409,
      "Ġmessages": 7410,
      "Ġblockchain": 7411,
      "å¸®åĬ©": 7412,
      "yl": 7413,
      "Ġsac": 7414,
      "Ġreact": 7415,
      "sequ": 7416,
      "ĠPhil": 7417,
      "ĠdespuÃ©s": 7418,
      "åŃ¦ä¹ł": 7419,
      "ĠÐ¾ÑģÐ½Ð¾Ð²": 7420,
      "List": 7421,
      "Ð°Ñģ": 7422,
      "Ġenable": 7423,
      "ĠMag": 7424,
      "keit": 7425,
      "Ã©m": 7426,
      "æĺİ": 7427,
      "chools": 7428,
      "pected": 7429,
      "Ġfuente": 7430,
      "Ġeinen": 7431,
      "Ġwonder": 7432,
      "Ġsignificantly": 7433,
      "Ġtitles": 7434,
      "razil": 7435,
      "](": 7436,
      "person": 7437,
      "Ġcups": 7438,
      "Ġprotagon": 7439,
      "Ø§Ø": 7440,
      "Ġpriorit": 7441,
      "ĠÑıÐ²Ð»ÑıÐµÑĤÑģÑı": 7442,
      "wend": 7443,
      "Ã³l": 7444,
      "Ð´ÐµÑĢ": 7445,
      "Ġpartir": 7446,
      "Ġ2016": 7447,
      "ĠinglÃ©s": 7448,
      "ĠAutom": 7449,
      "Ġmisma": 7450,
      "æ¨¡åŀĭ": 7451,
      "test": 7452,
      "èģ": 7453,
      "Ġsod": 7454,
      "ĠcomÃºn": 7455,
      "ĠWater": 7456,
      "ĠBro": 7457,
      "Ġcomport": 7458,
      "Ġempe": 7459,
      "äº¤": 7460,
      "Ġskill": 7461,
      "Ġnecesitas": 7462,
      "ĠÐ¿ÑĢÐ¾Ð¸Ð·": 7463,
      "Ġcriter": 7464,
      "Ġstyles": 7465,
      "Con": 7466,
      "otos": 7467,
      "ĠEu": 7468,
      "Ã©es": 7469,
      "Ġinstance": 7470,
      "à¸Ńà¸¢": 7471,
      "Ġguide": 7472,
      "Ġdirectory": 7473,
      "Ġphotos": 7474,
      "Ġupdate": 7475,
      "ĠespaÃ±ol": 7476,
      "à¸Ħà¸§à¸²à¸¡": 7477,
      "quir": 7478,
      "ĠHaw": 7479,
      "ĠcreaciÃ³n": 7480,
      "Ġdepth": 7481,
      "Ġslight": 7482,
      "Â²": 7483,
      "esla": 7484,
      "Ġshad": 7485,
      "arias": 7486,
      "Ġgenerar": 7487,
      "ĠÃª": 7488,
      "ĠÃ©l": 7489,
      "æĹł": 7490,
      "ĠSmith": 7491,
      "ms": 7492,
      "ischen": 7493,
      "ett": 7494,
      "occer": 7495,
      "Ġmeat": 7496,
      "Ġclient": 7497,
      "Ġapple": 7498,
      "Ġpoor": 7499,
      "æľ¯": 7500,
      "Ġinteractive": 7501,
      "çī¹": 7502,
      "Ġ...": 7503,
      "Ġmath": 7504,
      "Ġbibli": 7505,
      "plication": 7506,
      "Ġlights": 7507,
      "Ġpodemos": 7508,
      "Ġgarant": 7509,
      "ses": 7510,
      "osis": 7511,
      "Ġexcept": 7512,
      "ĠDer": 7513,
      "Ġalgorit": 7514,
      "ĠAngeles": 7515,
      "ĠMexico": 7516,
      "ĠpÃºblic": 7517,
      "born": 7518,
      "des": 7519,
      "Ġmother": 7520,
      "uto": 7521,
      "ĠSÃŃ": 7522,
      "oking": 7523,
      "Ġstrange": 7524,
      "Ġsettings": 7525,
      "ĠComo": 7526,
      "Ġ2010": 7527,
      "Ġ2008": 7528,
      "Ġdinner": 7529,
      "ĠSecond": 7530,
      "ĠÐ²Ð¾Ð·Ð¼Ð¾Ð¶": 7531,
      "Ġfly": 7532,
      "oub": 7533,
      "Ð°Ð»Ð¸": 7534,
      "iga": 7535,
      "ĠPo": 7536,
      "Ġclase": 7537,
      "ãģ¾": 7538,
      "Ġdiam": 7539,
      "Ġ2015": 7540,
      "uerda": 7541,
      "Ġnearby": 7542,
      "Ġspirit": 7543,
      "ĠDetermine": 7544,
      "Ġhous": 7545,
      "Ġnoun": 7546,
      "ecciÃ³n": 7547,
      "Ġalthough": 7548,
      "lla": 7549,
      "Ġaccessible": 7550,
      "Ġcrisis": 7551,
      "Ġgravity": 7552,
      "Ġdishes": 7553,
      "Ġconjunto": 7554,
      "Ġdeal": 7555,
      "iled": 7556,
      "Ġstir": 7557,
      "cios": 7558,
      "ĠLook": 7559,
      "Ġexplan": 7560,
      "Ġderiv": 7561,
      "Ġstatus": 7562,
      "Ġvibrant": 7563,
      "Ġfabric": 7564,
      "AC": 7565,
      "éĤ": 7566,
      "ÑĢÐ¾Ð½": 7567,
      "Ġstd": 7568,
      "ĠEduc": 7569,
      "afe": 7570,
      "ĠÐ½ÐµÐ¾Ð±": 7571,
      "Ġtrabajar": 7572,
      "Ġbecomes": 7573,
      "Ġcogn": 7574,
      "Ġmad": 7575,
      "acias": 7576,
      "Ġnar": 7577,
      "ĠseÃ±": 7578,
      "ĠBook": 7579,
      "Ġrob": 7580,
      "Ġhelped": 7581,
      "Ġgenerated": 7582,
      "ÐµÐ½Ð¸Ñİ": 7583,
      "Ġexisten": 7584,
      "genes": 7585,
      "ĠÐ»ÑİÐ´": 7586,
      "Ġherramienta": 7587,
      "Ġexternal": 7588,
      "sum": 7589,
      "ĠTest": 7590,
      "Ġalone": 7591,
      "oche": 7592,
      "ĠOcean": 7593,
      "Ġdecl": 7594,
      "Ġprograma": 7595,
      "Ã¤t": 7596,
      "Ġcombined": 7597,
      "Ġseek": 7598,
      "ĠÐ¸Ð½ÑĤÐµ": 7599,
      "\";": 7600,
      "west": 7601,
      "Ġhour": 7602,
      "Ġvoid": 7603,
      "ighter": 7604,
      "Ġserie": 7605,
      "Ġdoctor": 7606,
      "ĠEnd": 7607,
      "Ġapples": 7608,
      "atively": 7609,
      "portun": 7610,
      "Ġclassify": 7611,
      "Ġdeben": 7612,
      "ĠÑĦÐ¸": 7613,
      "ĠÐŀÐ´": 7614,
      "ÑĥÐ½Ðº": 7615,
      "Ġfossil": 7616,
      "ento": 7617,
      "Ġchart": 7618,
      "ĠUltimately": 7619,
      "iveness": 7620,
      "Ġleads": 7621,
      "ĠÑįÐº": 7622,
      "lam": 7623,
      "ĠdÃŃas": 7624,
      "Ġstorm": 7625,
      "thesis": 7626,
      "Ġefforts": 7627,
      "Ġequil": 7628,
      "words": 7629,
      "Ġdocuments": 7630,
      "Ġvotre": 7631,
      "Pro": 7632,
      "Ġfirm": 7633,
      "ĠÐĽ": 7634,
      "ander": 7635,
      "Ġplot": 7636,
      "ustr": 7637,
      "Ġimpress": 7638,
      "Ġmode": 7639,
      "undial": 7640,
      "ĠReact": 7641,
      "Ġconcise": 7642,
      "Ġrelatively": 7643,
      "Ġcompletely": 7644,
      "æ¯Ķ": 7645,
      "->": 7646,
      "RE": 7647,
      "uj": 7648,
      "emente": 7649,
      "Ġalive": 7650,
      "Ġorient": 7651,
      "ĠBC": 7652,
      "ÑģÑĤÐµ": 7653,
      "ĠÐ½ÐµÑģÐº": 7654,
      "Ġmoved": 7655,
      "Ġdreams": 7656,
      "Ġsatisfaction": 7657,
      "Tr": 7658,
      "Ġsample": 7659,
      "Ġecu": 7660,
      "imos": 7661,
      "ĠMer": 7662,
      "asters": 7663,
      "Ġthemes": 7664,
      "Ġtranspar": 7665,
      "Ġremote": 7666,
      "à¸Ńà¸Ļ": 7667,
      "Ġautomated": 7668,
      "Ġsituations": 7669,
      "Ġdistributed": 7670,
      "DP": 7671,
      "Ġaw": 7672,
      "Ġluego": 7673,
      "Ġwa": 7674,
      "Ġwish": 7675,
      "Ġborder": 7676,
      "ĠIP": 7677,
      "ĠSon": 7678,
      "Ġtruth": 7679,
      "Ġworkers": 7680,
      "Ġreducir": 7681,
      "Ġcombust": 7682,
      "Ġuniverso": 7683,
      "Ġcircle": 7684,
      "Ġpict": 7685,
      "Ð¸ÑĤÐµ": 7686,
      "iana": 7687,
      "Ġfinish": 7688,
      "Ġautomate": 7689,
      "ĠImpro": 7690,
      "affe": 7691,
      "ĠÐ¼Ð¾Ð¶ÐµÑĤÐµ": 7692,
      "ĠelectrÃ³n": 7693,
      "ĠDavid": 7694,
      "ĠÑģÐ»ÑĥÑĩÐ°": 7695,
      "Ġpush": 7696,
      "oto": 7697,
      "ĠDur": 7698,
      "Ġplenty": 7699,
      "Ġclick": 7700,
      "Ġweeks": 7701,
      "Ġscal": 7702,
      "nesses": 7703,
      "ennis": 7704,
      "ĠcontinuaciÃ³n": 7705,
      "Ġslowly": 7706,
      "åŁº": 7707,
      "gypt": 7708,
      "pa": 7709,
      "enciÃ³n": 7710,
      "Ġnode": 7711,
      "ĠTesla": 7712,
      "ÃŃm": 7713,
      "ibt": 7714,
      "ä¸ŃåĽ½": 7715,
      "Ġreviews": 7716,
      "Ġtalking": 7717,
      "è¿Ľè¡Į": 7718,
      "åĻ": 7719,
      "imo": 7720,
      "ĠPower": 7721,
      "Ġdisp": 7722,
      "Ġrecover": 7723,
      "ĠâĢĺ": 7724,
      "azo": 7725,
      "Ġwhereas": 7726,
      "ĠÐĴÑĭ": 7727,
      "advant": 7728,
      "Ð´Ð¾": 7729,
      "Ġdesaf": 7730,
      "Ġpercent": 7731,
      "Ġmateriales": 7732,
      "Ġhora": 7733,
      "Ġdescribes": 7734,
      "Ġminimum": 7735,
      "ĠCentral": 7736,
      "Ġcreativity": 7737,
      "Ġtow": 7738,
      "Ġdispl": 7739,
      "ĠðŁĺ": 7740,
      "raries": 7741,
      "Ġmathematics": 7742,
      "Ġangle": 7743,
      "ÑĤÐ¾Ð¼": 7744,
      "Ġgent": 7745,
      "Ġunits": 7746,
      "Ġenem": 7747,
      "ĠCop": 7748,
      "ieron": 7749,
      "Ġpropied": 7750,
      "Ġmanager": 7751,
      "Ġverdad": 7752,
      "æĻº": 7753,
      "æıĲä¾Ľ": 7754,
      "bing": 7755,
      "Ġpadd": 7756,
      "ĠMars": 7757,
      "ĠBan": 7758,
      "ĠhabÃŃa": 7759,
      "å½±": 7760,
      "Ġabsol": 7761,
      "ĠÐ¾Ð¿ÑĢÐµÐ´": 7762,
      "à¸Ĥà¸Ńà¸ĩ": 7763,
      "gentina": 7764,
      "ĠTod": 7765,
      "istry": 7766,
      "Ġshown": 7767,
      "Ġmanual": 7768,
      "ãģª": 7769,
      "Ġacord": 7770,
      "Ġpartes": 7771,
      "Ġlongest": 7772,
      "ÑĨÐ¸Ð°Ð»ÑĮ": 7773,
      "Ġcampo": 7774,
      "Ġteacher": 7775,
      "Ġproyecto": 7776,
      "Ġmaintaining": 7777,
      "ga": 7778,
      "Ð¡": 7779,
      "Ġdied": 7780,
      "ĠgÃ©n": 7781,
      "ĠSov": 7782,
      "Ġvuel": 7783,
      "Ġstick": 7784,
      "under": 7785,
      "ĠBrazil": 7786,
      "Ġspin": 7787,
      "ensa": 7788,
      "Ð¾Ð²Ð°ÑĤÑĮ": 7789,
      "Ġidentity": 7790,
      "ÑĤÐµÐ»ÑĮÐ½Ð¾": 7791,
      "ç¤¾": 7792,
      "vements": 7793,
      "Ġaid": 7794,
      "isk": 7795,
      "osing": 7796,
      "Ġultimately": 7797,
      "ĠIch": 7798,
      "ĠAlso": 7799,
      "ĠÑįÑĤÐ¸": 7800,
      "Ġgeomet": 7801,
      "Ġencourage": 7802,
      "och": 7803,
      "åķ": 7804,
      "Ġrend": 7805,
      "ÑĭÑħ": 7806,
      "Ġesa": 7807,
      "ĠVeg": 7808,
      "Ġentertain": 7809,
      "Ġlooks": 7810,
      "Ġletters": 7811,
      "Ã¨s": 7812,
      "ĠBecause": 7813,
      "Ġbegins": 7814,
      "ĠCle": 7815,
      "Ġexchange": 7816,
      "Ð±Ð¸": 7817,
      "Ġdepart": 7818,
      "ĠÐ·Ð°Ð¿": 7819,
      "Ð¾ÑĤÐ¾ÑĢÑĭ": 7820,
      "Ġoccurs": 7821,
      "Ġmezcla": 7822,
      "An": 7823,
      "La": 7824,
      "iance": 7825,
      "ĠTok": 7826,
      "Ġgan": 7827,
      "ipedia": 7828,
      "ÑĢÐ°Ð¶": 7829,
      "ĠÐºÐ¾": 7830,
      "Ġdress": 7831,
      "Ġstatic": 7832,
      "ãĤĭ": 7833,
      "ÑħÐ¾Ð´Ð¸Ð¼": 7834,
      "Ġiniti": 7835,
      "ĠSoftware": 7836,
      "Ġdf": 7837,
      "Ġwall": 7838,
      "cher": 7839,
      "ĠMary": 7840,
      "ĠNatural": 7841,
      "ĠÐ¿Ð»Ð°": 7842,
      "Ġimpres": 7843,
      "ĠVol": 7844,
      "Ġretrie": 7845,
      "rico": 7846,
      "hora": 7847,
      "ĠcientÃŃfic": 7848,
      "éĥ¨": 7849,
      "Ġdisfrut": 7850,
      "plement": 7851,
      "ĠÐ¼Ñĥ": 7852,
      "connect": 7853,
      "tenance": 7854,
      "åıĬ": 7855,
      "Ġattribut": 7856,
      "iking": 7857,
      "Ġfuels": 7858,
      "æĪĳä»¬": 7859,
      "Ġafford": 7860,
      "Ġschedule": 7861,
      "avel": 7862,
      "ĠDiv": 7863,
      "Ġcuanto": 7864,
      "Ġliber": 7865,
      "Ġprimera": 7866,
      "poses": 7867,
      "Ġbehavi": 7868,
      "ĠAtl": 7869,
      "Ġwidth": 7870,
      "æŃ¤": 7871,
      "ÑĢÐ¾Ð²Ð°ÑĤÑĮ": 7872,
      "éģĵ": 7873,
      "Ġloyalty": 7874,
      "è¢«": 7875,
      "sm": 7876,
      "Ġoportun": 7877,
      "isation": 7878,
      "ĠanÃ¡lisis": 7879,
      "Ġmamm": 7880,
      "Ġarqu": 7881,
      "Ġ1990": 7882,
      "Ġdestination": 7883,
      "ĠAfric": 7884,
      "pciÃ³n": 7885,
      "var": 7886,
      "Ġthick": 7887,
      "olla": 7888,
      "oper": 7889,
      "Ġweak": 7890,
      "ĠPlace": 7891,
      "Ġpresentation": 7892,
      "Ġstudying": 7893,
      "ĠÑģÐ¿Ð¾ÑģÐ¾Ð±": 7894,
      "ÑĦÐ¾ÑĢÐ¼Ð°": 7895,
      "zt": 7896,
      "å§": 7897,
      "otic": 7898,
      "ĠDi": 7899,
      "ĠLanguage": 7900,
      "ÃŃfica": 7901,
      "akers": 7902,
      "ername": 7903,
      "ativas": 7904,
      "Ġdecisiones": 7905,
      "Ġinvesting": 7906,
      "Ġdidn": 7907,
      "efficient": 7908,
      "='": 7909,
      "ĠIh": 7910,
      "Ġclave": 7911,
      "Ġelection": 7912,
      "Ġsignal": 7913,
      "Ġexpans": 7914,
      "Ġ2011": 7915,
      "Ġoptimize": 7916,
      "Ġvideoj": 7917,
      "Ġcapacity": 7918,
      "ĠtÃ©rminos": 7919,
      "ðĿ": 7920,
      "Ġiron": 7921,
      "Ġsint": 7922,
      "lymp": 7923,
      "Ġfunciones": 7924,
      "cules": 7925,
      "Ġedge": 7926,
      "ahr": 7927,
      "Ġaceite": 7928,
      "lay": 7929,
      "yd": 7930,
      "Ġcry": 7931,
      "Ġpou": 7932,
      "Ġfle": 7933,
      "astern": 7934,
      "Ġisland": 7935,
      "Ġdecor": 7936,
      "æĺ¯ä¸Ģ": 7937,
      "ÑĥÑİÑī": 7938,
      "ĠÑĤÐµÑħ": 7939,
      "ashion": 7940,
      "ĠScience": 7941,
      "rad": 7942,
      "arp": 7943,
      "Ġgave": 7944,
      "ĠSea": 7945,
      "ĠEgypt": 7946,
      "Ġpobl": 7947,
      "Ġmuse": 7948,
      "Ġcooked": 7949,
      "Ġfloat": 7950,
      "Ġolive": 7951,
      "wareness": 7952,
      "è·": 7953,
      "Ġfont": 7954,
      "Ġhier": 7955,
      "Ġnation": 7956,
      "ĠSam": 7957,
      "Ġstreet": 7958,
      "Ġshapes": 7959,
      "Ġautonom": 7960,
      "Ġcalend": 7961,
      "Ġanimales": 7962,
      "Ġlibraries": 7963,
      "âĸĴ": 7964,
      "ĠCuando": 7965,
      "åĻ¨": 7966,
      "AP": 7967,
      "dad": 7968,
      "tax": 7969,
      "èĬ": 7970,
      "Ġfill": 7971,
      "Ġwrote": 7972,
      "style": 7973,
      "ĠSir": 7974,
      "ĠHi": 7975,
      "ĠGreen": 7976,
      "Ġlocations": 7977,
      "Ġ2009": 7978,
      "Ġconceptos": 7979,
      "Ġsuggests": 7980,
      "ĠRobert": 7981,
      "Ġbajo": 7982,
      "Str": 7983,
      "hand": 7984,
      "rir": 7985,
      "ĠSen": 7986,
      "Ġroles": 7987,
      "Ġsummar": 7988,
      "type": 7989,
      "Ġbreaks": 7990,
      "Ġkilomet": 7991,
      "ĠÑĩÐµÐ»Ð¾Ð²Ðµ": 7992,
      "het": 7993,
      "Ġgalax": 7994,
      "ĠMuse": 7995,
      "ects": 7996,
      "apor": 7997,
      "Ã©t": 7998,
      "Ġ36": 7999,
      "Ġclust": 8000,
      "Ġwear": 8001,
      "ĠWhite": 8002,
      "weight": 8003,
      "Ġdeclar": 8004,
      "ĠÐ¾Ð±ÑĢÐ°Ð·": 8005,
      "itchen": 8006,
      "Ġcomunidad": 8007,
      "Ġexercises": 8008,
      "Ġtecnolog": 8009,
      "forcement": 8010,
      "xiety": 8011,
      "Ġcraft": 8012,
      "Ġnative": 8013,
      "elines": 8014,
      "Ġunex": 8015,
      "0000": 8016,
      "ĠAlice": 8017,
      "Ġdrag": 8018,
      "redict": 8019,
      "ĠÑĢÐ°Ñģ": 8020,
      "Ġdiferencia": 8021,
      "Ġeducational": 8022,
      "Ġexcited": 8023,
      "ossible": 8024,
      "Ġlenguajes": 8025,
      "Ġtreatment": 8026,
      "ĠÐ´Ð°Ð½Ð½ÑĭÑħ": 8027,
      "Ġmentioned": 8028,
      "uber": 8029,
      "inc": 8030,
      "icago": 8031,
      "Ġkeyboard": 8032,
      "Ġexistence": 8033,
      "Ġautomation": 8034,
      "Ġliquid": 8035,
      "cast": 8036,
      "gor": 8037,
      "hes": 8038,
      "Ġax": 8039,
      "Ġnun": 8040,
      "ĠNBA": 8041,
      "Ġconscious": 8042,
      "Ġ1980": 8043,
      "ĠcuÃ¡n": 8044,
      "Ġdesarrollar": 8045,
      "Ġgraphics": 8046,
      "Ġselection": 8047,
      "ĠtÃ©cnicas": 8048,
      "}{": 8049,
      "çŁ¥": 8050,
      "Ġpul": 8051,
      "Ġdrug": 8052,
      "Ġfiction": 8053,
      "ĠEcon": 8054,
      "ä»¶": 8055,
      "Ġmoves": 8056,
      "Ġ2013": 8057,
      "Ġexiste": 8058,
      "Ġviews": 8059,
      "Ġnuevas": 8060,
      "Ġmetaphor": 8061,
      "It": 8062,
      "oke": 8063,
      "Ġthous": 8064,
      "eto": 8065,
      "ĠDepend": 8066,
      "ĠDefine": 8067,
      "Ġcomenzar": 8068,
      "Ġsein": 8069,
      "ocal": 8070,
      "arga": 8071,
      "ĠOpenAI": 8072,
      "Ġpayment": 8073,
      "Ġdynamic": 8074,
      "ĠAfrican": 8075,
      "Ġcere": 8076,
      "Ġft": 8077,
      "Ġwave": 8078,
      "otal": 8079,
      "Ġlake": 8080,
      "ective": 8081,
      "ÑĭÐ¹": 8082,
      "Ġspot": 8083,
      "oston": 8084,
      "Ġrecommendations": 8085,
      "Ġcomunes": 8086,
      "Ġcontainer": 8087,
      "Ð½Ð°ÐºÐ¾": 8088,
      "hab": 8089,
      "Ġdough": 8090,
      "Ġbrief": 8091,
      "Ġeso": 8092,
      "Ġescu": 8093,
      "Ð·Ð½Ð°": 8094,
      "Ġ2014": 8095,
      "ĠCompany": 8096,
      "Ġconocimiento": 8097,
      "gebra": 8098,
      "800": 8099,
      "FA": 8100,
      "Ġdich": 8101,
      "Ġwat": 8102,
      "ĠAqu": 8103,
      "ÑĢÐ¾Ðº": 8104,
      "Ġcharge": 8105,
      "Ġinternal": 8106,
      "Ġaumentar": 8107,
      "Ġtablespoons": 8108,
      "wich": 8109,
      "Ġahead": 8110,
      "itat": 8111,
      "ician": 8112,
      "essage": 8113,
      "Ã¡genes": 8114,
      "Ġapolog": 8115,
      "Ġmodelos": 8116,
      "ĠÃī": 8117,
      "Ġbibliot": 8118,
      "ĠÐ½ÐµÐ¾Ð±ÑħÐ¾Ð´Ð¸Ð¼": 8119,
      "vin": 8120,
      "Ġlleg": 8121,
      "Ġbinary": 8122,
      "Ġconect": 8123,
      "Ġleaving": 8124,
      "Ġvariar": 8125,
      "ĠÑĥÐ¿": 8126,
      "culo": 8127,
      "å¹³": 8128,
      "ĠÑģÐ²Ñı": 8129,
      "ĠdiseÃ±": 8130,
      "Ġvegan": 8131,
      "Ġproyectos": 8132,
      "`.": 8133,
      "Ġbear": 8134,
      "ĠTheir": 8135,
      "ÑıÑĤÑĮ": 8136,
      "Ġcontaining": 8137,
      "Ġrespir": 8138,
      "coming": 8139,
      "Ġrising": 8140,
      "Ġflexible": 8141,
      "Ġcambios": 8142,
      "æ´»": 8143,
      "Ġextremely": 8144,
      "itate": 8145,
      "Ġenables": 8146,
      "Ġchess": 8147,
      "ÐµÐ½Ð°": 8148,
      "Ð³Ñĥ": 8149,
      "Ġapps": 8150,
      "Ġasking": 8151,
      "Ġflowers": 8152,
      "łĢâłĢâłĢâłĢâ": 8153,
      "Ġgrammar": 8154,
      "Ġcrucial": 8155,
      "GB": 8156,
      "cional": 8157,
      "script": 8158,
      "Ġfest": 8159,
      "Ġwine": 8160,
      "Ġtherm": 8161,
      "aja": 8162,
      "Ġclassical": 8163,
      "Ġrefr": 8164,
      "apping": 8165,
      "Ġanswers": 8166,
      "Ġexploration": 8167,
      "Ġvehicle": 8168,
      "Ġalmacen": 8169,
      "fin": 8170,
      "Ġmood": 8171,
      "iste": 8172,
      "ĠIns": 8173,
      "ĠOh": 8174,
      "Ġintellig": 8175,
      "Ġdecide": 8176,
      "ĠÑĤÐ°": 8177,
      "Ġpotatoes": 8178,
      "Ġengagement": 8179,
      "airs": 8180,
      "Ġpurposes": 8181,
      "ĠTrue": 8182,
      "Ġfrequency": 8183,
      "aud": 8184,
      "pace": 8185,
      "rÃ³": 8186,
      "ĠmÃ³": 8187,
      "Ġrevenue": 8188,
      "Ġride": 8189,
      "Ġ189": 8190,
      "ĠMad": 8191,
      "7777": 8192,
      "ĠÐŁÑĢÐ¸": 8193,
      "Ġcorrectly": 8194,
      "Ġdivided": 8195,
      "ĠTwitter": 8196,
      "ç®Ĺ": 8197,
      "rado": 8198,
      "width": 8199,
      "Ġsection": 8200,
      "Ġgall": 8201,
      "ĠHello": 8202,
      "Ġplays": 8203,
      "ÐµÑĤÐ¸": 8204,
      "Ġbrought": 8205,
      "Ġtransition": 8206,
      "////": 8207,
      "Ġmasa": 8208,
      "Ġfilms": 8209,
      "Ð¸ÑģÐ°": 8210,
      "QuÃ©": 8211,
      "æĻºèĥ½": 8212,
      "['": 8213,
      "pes": 8214,
      "Ġdance": 8215,
      "rem": 8216,
      "arlo": 8217,
      "oll": 8218,
      "Ġstra": 8219,
      "ĠURL": 8220,
      "Ġdescript": 8221,
      "Ġcontro": 8222,
      "Ġmeters": 8223,
      "Ġavec": 8224,
      "ĠSelect": 8225,
      "Ġambiente": 8226,
      "ographic": 8227,
      "ĠComputer": 8228,
      "ups": 8229,
      "Ùĥ": 8230,
      "Ġboy": 8231,
      "osen": 8232,
      "Ġnada": 8233,
      "Ġplug": 8234,
      "ĠÑĤÐ¾Ð»ÑĮÐºÐ¾": 8235,
      "phant": 8236,
      "Ġartist": 8237,
      "Ġpopulares": 8238,
      "Ġcombat": 8239,
      "Ġimpacto": 8240,
      "Ġinteractions": 8241,
      "Ġanalyzing": 8242,
      "ĠÐ¸ÑģÐ¿Ð¾Ð»ÑĮÐ·Ñĥ": 8243,
      "Ġalimentos": 8244,
      "Ġstret": 8245,
      "ĠLim": 8246,
      "Ġtea": 8247,
      "Ġdiscipl": 8248,
      "Ġboost": 8249,
      "Ġrepresents": 8250,
      "Ġstands": 8251,
      "Ð·ÑĭÐ²Ð°": 8252,
      "ĠRemember": 8253,
      "Ġclothing": 8254,
      "IA": 8255,
      "Ġdimens": 8256,
      "Ġbacter": 8257,
      "Ġonion": 8258,
      "Ġwilling": 8259,
      "Ġrealidad": 8260,
      "Ġsecre": 8261,
      "Ġmatches": 8262,
      "çĶ±": 8263,
      "Ġdetail": 8264,
      "Ġbasis": 8265,
      "Ġlibro": 8266,
      "Ġdependiendo": 8267,
      "ĠÑĦÑĥÐ½Ðº": 8268,
      "Ġcompetitive": 8269,
      "Ġgreenhouse": 8270,
      "Ġforeign": 8271,
      "Ġosc": 8272,
      "ĠDist": 8273,
      "Ð²Ð¾": 8274,
      "ĠOlymp": 8275,
      "Ġadm": 8276,
      "Ġdiff": 8277,
      "ãģ¨": 8278,
      "ÑģÑĤÐ°Ð½Ð¾Ð²": 8279,
      "Ġindustries": 8280,
      "ĠÑĦÐ¾ÑĢ": 8281,
      "ä½łçļĦ": 8282,
      "Ġapproaches": 8283,
      "Ġflexibility": 8284,
      "æģ¯": 8285,
      "ç¡®": 8286,
      "Ġenfermed": 8287,
      "Un": 8288,
      "bec": 8289,
      "roy": 8290,
      "Ġunable": 8291,
      "ĠPers": 8292,
      "aga": 8293,
      "Ġhumor": 8294,
      "å¤ĸ": 8295,
      "elsius": 8296,
      "Ġlograr": 8297,
      "Ġanalytics": 8298,
      "Ġofrece": 8299,
      "ĠÐ¸ÑģÐ¿Ð¾Ð»ÑĮÐ·Ð¾Ð²Ð°ÑĤÑĮ": 8300,
      "ĠFacebook": 8301,
      "èĤ": 8302,
      "anc": 8303,
      "itute": 8304,
      "lete": 8305,
      "Ġnave": 8306,
      "Ġsean": 8307,
      "ĠJul": 8308,
      "Ġintu": 8309,
      "Ġweights": 8310,
      "ĠÐ¾Ð½Ð¸": 8311,
      "Ġlisten": 8312,
      "Ġparties": 8313,
      "Ġmovimiento": 8314,
      "Ġdestac": 8315,
      "à¸Ĺà¸³": 8316,
      "åĨħ": 8317,
      "Ġprepare": 8318,
      "allel": 8319,
      "Ġhypoth": 8320,
      "ĠÃªtre": 8321,
      "Ġign": 8322,
      "real": 8323,
      "elÃ©": 8324,
      "abb": 8325,
      "ĠLib": 8326,
      "Ġkids": 8327,
      "Ġintended": 8328,
      "berry": 8329,
      "Ġzero": 8330,
      "Ġcalcular": 8331,
      "rane": 8332,
      "ahren": 8333,
      "Ġplaneta": 8334,
      "Ġcyber": 8335,
      "Im": 8336,
      "kes": 8337,
      "ĠTop": 8338,
      "Ġgender": 8339,
      "Ġvie": 8340,
      "Ġveces": 8341,
      "emple": 8342,
      "ĠproducciÃ³n": 8343,
      "Ġworldwide": 8344,
      "Ġtransmit": 8345,
      "Ġsurf": 8346,
      "à¹Ģà¸£": 8347,
      "Ġnaturaleza": 8348,
      "Ġlibert": 8349,
      "ç»ĵ": 8350,
      "Ġdialogue": 8351,
      "ki": 8352,
      "length": 8353,
      "Ġluch": 8354,
      "idor": 8355,
      "à¸ł": 8356,
      "Ġtruly": 8357,
      "ĠimÃ¡genes": 8358,
      "aching": 8359,
      "åħ±": 8360,
      "ombres": 8361,
      "Ġincorrect": 8362,
      "Ġinnovation": 8363,
      "Ġprepared": 8364,
      "ĠRussia": 8365,
      "Ġamazing": 8366,
      "ĠPacific": 8367,
      "419": 8368,
      "Ġsell": 8369,
      "Ġcoding": 8370,
      "lection": 8371,
      "Ġalien": 8372,
      "Ġmeant": 8373,
      "Ð±Ñı": 8374,
      "Ġunderlying": 8375,
      "Ġrefiere": 8376,
      "Ġeinem": 8377,
      "Ġpapel": 8378,
      "Ġslightly": 8379,
      "Ġawareness": 8380,
      "Ġmys": 8381,
      "Ġhun": 8382,
      "ĠEv": 8383,
      "rome": 8384,
      "ĠÐ¼Ð¾Ð´Ðµ": 8385,
      "Ġoutcome": 8386,
      "Ġplanets": 8387,
      "ĠDeep": 8388,
      "Ġliterature": 8389,
      "çĿĢ": 8390,
      "label": 8391,
      "ĠAR": 8392,
      "utional": 8393,
      "Ġalign": 8394,
      "Ġ186": 8395,
      "isten": 8396,
      "ÑĮÑĤÐµ": 8397,
      "Ġestilo": 8398,
      "Ġdistint": 8399,
      "æĹ¥": 8400,
      "Ġvacation": 8401,
      "Ġinnovative": 8402,
      "ĠExtract": 8403,
      "erap": 8404,
      "Ġfi": 8405,
      "Ġhop": 8406,
      "Ġrh": 8407,
      "Ġwhose": 8408,
      "Ġadic": 8409,
      "ĠJo": 8410,
      "ĠÐ¼ÐµÑĤ": 8411,
      "iances": 8412,
      "Ġinformed": 8413,
      "Ġregist": 8414,
      "ĠÐ·Ð°Ðº": 8415,
      "Ġplane": 8416,
      "Ġhumana": 8417,
      "Ġbalanced": 8418,
      "ÃŃcula": 8419,
      "aught": 8420,
      "èĪ": 8421,
      "Ġped": 8422,
      "Ġanxiety": 8423,
      "usive": 8424,
      "ĠWars": 8425,
      "Ġcancer": 8426,
      "aped": 8427,
      "ĠKore": 8428,
      "ãģŁ": 8429,
      "åıĸ": 8430,
      "Ġcenturies": 8431,
      "ĠpodrÃŃan": 8432,
      "æķ°æį®": 8433,
      "Ġbomb": 8434,
      "Ġreform": 8435,
      "ĠIN": 8436,
      "Ġven": 8437,
      "ĠCertain": 8438,
      "ÑĢÐ°Ñı": 8439,
      "ĠÑĩÐ¸Ñģ": 8440,
      "Ġensuring": 8441,
      "Ġsupports": 8442,
      "Ġfinanci": 8443,
      "ĠSolar": 8444,
      "Ġassistance": 8445,
      "æ¶": 8446,
      "Ġsenc": 8447,
      "Ġschools": 8448,
      "ĠID": 8449,
      "Ġries": 8450,
      "Ġpeak": 8451,
      "Ġ2012": 8452,
      "ĠÐ·Ð°Ð²Ð¸": 8453,
      "ãĤĴ": 8454,
      "Ġtracking": 8455,
      "Ġappears": 8456,
      "Ġbreath": 8457,
      "Ġsurvive": 8458,
      "ĠPortug": 8459,
      "Ġimmediately": 8460,
      "Ġlandscape": 8461,
      "field": 8462,
      "nel": 8463,
      "etch": 8464,
      "ĠPi": 8465,
      "Ð»ÐµÐ¹": 8466,
      "Ġtrig": 8467,
      "veys": 8468,
      "Ġacceso": 8469,
      "ä½ķ": 8470,
      "Ġdistancia": 8471,
      "Ġresultados": 8472,
      "Ã¡nd": 8473,
      "Ġdebate": 8474,
      "Ġdiscount": 8475,
      "è®¾": 8476,
      "Ġgrupo": 8477,
      "Ġobstac": 8478,
      "Your": 8479,
      "iments": 8480,
      "ĠEth": 8481,
      "ĠHola": 8482,
      "ĠÐ¿Ð¾Ð²": 8483,
      "ĠÐ¾Ð³": 8484,
      "Ġhaber": 8485,
      "Ġguard": 8486,
      "Ġoppon": 8487,
      "Ġgusto": 8488,
      "ĠpolÃŃtica": 8489,
      "count": 8490,
      "net": 8491,
      "ÐŁ": 8492,
      "Ġinher": 8493,
      "user": 8494,
      "rize": 8495,
      "ĠLuego": 8496,
      "ĠGal": 8497,
      "izard": 8498,
      "Ð²Ñĥ": 8499,
      "vez": 8500,
      "Ã±as": 8501,
      "ÐµÐ½Ð¸ÐµÐ¼": 8502,
      "ĠProt": 8503,
      "ĠArch": 8504,
      "Ġjustice": 8505,
      "Ġconsumer": 8506,
      "Ġbroken": 8507,
      "Ġcritic": 8508,
      "Ġdespite": 8509,
      "Ġinspir": 8510,
      "Ġproporcionar": 8511,
      "Ġjuice": 8512,
      "ÑģÑĤÑĥÐ¿": 8513,
      "PE": 8514,
      "Ø±": 8515,
      "éķ": 8516,
      "ĠGen": 8517,
      "ĠÐ¸Ð¼": 8518,
      "berg": 8519,
      "ĠChicago": 8520,
      "alsa": 8521,
      "Ġproducto": 8522,
      "ĠArab": 8523,
      "ĠÐ¾Ð±ÑĥÑĩ": 8524,
      "Ġmajority": 8525,
      "Ġemployee": 8526,
      ".âĢĿ": 8527,
      "wind": 8528,
      "Ġmec": 8529,
      "Ġning": 8530,
      "Ð°Ð·": 8531,
      "ulated": 8532,
      "Ġstim": 8533,
      "Ġbeans": 8534,
      "ĠMem": 8535,
      "ĠBol": 8536,
      "ĠFun": 8537,
      "Ġ42": 8538,
      "ĠExper": 8539,
      "ĠRead": 8540,
      "Ġlibros": 8541,
      "Ġsunlight": 8542,
      "Ġfacing": 8543,
      "ĠcomprensiÃ³n": 8544,
      "Ġelectronic": 8545,
      "ĠcafÃ©": 8546,
      "Ġannounced": 8547,
      "Ġtrop": 8548,
      "atter": 8549,
      "Ġpin": 8550,
      "oses": 8551,
      "oming": 8552,
      "Ġextr": 8553,
      "ĠRock": 8554,
      "aches": 8555,
      "Ġappoint": 8556,
      "ÑĪÑĮ": 8557,
      "ÑĨÑĸ": 8558,
      "Ġdragon": 8559,
      "going": 8560,
      "Ġterminal": 8561,
      "Ġengineer": 8562,
      "array": 8563,
      "Ġresponder": 8564,
      "Ġfuerza": 8565,
      "Ġcomprehensive": 8566,
      "Ġtense": 8567,
      "ĠAtt": 8568,
      "ĠSara": 8569,
      "ĠWord": 8570,
      "ĠĠĠĠĠĠĠĠĠĠĠĠĠĠĠĠĠĠĠĠ": 8571,
      "Ġgets": 8572,
      "å®ī": 8573,
      "ĠIsland": 8574,
      "Ġfaced": 8575,
      "2023": 8576,
      "include": 8577,
      "Ġllegar": 8578,
      "He": 8579,
      "uas": 8580,
      "water": 8581,
      "Ġ;": 8582,
      "Ġanterior": 8583,
      "Ð½Ð³": 8584,
      "ÐºÐ¾Ð¹": 8585,
      "Ġclosed": 8586,
      "Ġworkplace": 8587,
      "ungs": 8588,
      "ttp": 8589,
      "Ġ2006": 8590,
      "Ġtests": 8591,
      "Ġrepresentation": 8592,
      "esch": 8593,
      "Ġmarg": 8594,
      "ÑĥÐ´": 8595,
      "ĠalgÃºn": 8596,
      "Ġbrave": 8597,
      "Ġmyth": 8598,
      "ĠÑĤÐ¾Ð¼": 8599,
      "Ġhablar": 8600,
      "Ġkeeping": 8601,
      "Ġoptimization": 8602,
      "Ġhappiness": 8603,
      "Ġtendr": 8604,
      "Ġconstruction": 8605,
      "Ġdispositivos": 8606,
      "Ġchampionship": 8607,
      "ĠÂ·": 8608,
      "Ġsurvey": 8609,
      "Ġsino": 8610,
      "ĠÐ¾Ð±Ð»Ð°": 8611,
      "Ġfewer": 8612,
      "Ġconnections": 8613,
      "Ġbike": 8614,
      "ponse": 8615,
      "Ġtaxes": 8616,
      "Ġtengo": 8617,
      "Ġpalabra": 8618,
      "ĠprÃ¡ctica": 8619,
      "IS": 8620,
      "US": 8621,
      "uar": 8622,
      "èĻ": 8623,
      "Ġton": 8624,
      "Ġreve": 8625,
      "ĠBud": 8626,
      "ĠOpt": 8627,
      "Ġsharing": 8628,
      "ĠÐ²ÐºÐ»Ñİ": 8629,
      "iera": 8630,
      "Ġmarkets": 8631,
      "Ġmenor": 8632,
      "Ġsuperior": 8633,
      "ĠÑĤÐµÐ¼": 8634,
      "Ġobjetivos": 8635,
      "Ġexciting": 8636,
      "Ġcoordin": 8637,
      "Ġpantalla": 8638,
      "Ġgentle": 8639,
      "ĠaÃ±": 8640,
      "Ġsost": 8641,
      "Ġcad": 8642,
      "image": 8643,
      "ĠCost": 8644,
      "cessing": 8645,
      "Ġconsiderar": 8646,
      "Ġenvironments": 8647,
      "ĠÐĶÐ»Ñı": 8648,
      "solving": 8649,
      "Ġwelcome": 8650,
      "æ·±": 8651,
      "Ġstraight": 8652,
      "gal": 8653,
      "iu": 8654,
      "ĠÑĢÑĥ": 8655,
      "Ġmort": 8656,
      "elen": 8657,
      "ÑģÑĭ": 8658,
      "Ã©tica": 8659,
      "ensor": 8660,
      "idade": 8661,
      "Ġpeu": 8662,
      "ãģĮ": 8663,
      "Ġreturned": 8664,
      "ç»Ł": 8665,
      "Ġdefinit": 8666,
      "è¿ĻäºĽ": 8667,
      "Ġbiggest": 8668,
      "Ġevaluate": 8669,
      "æµģ": 8670,
      "Ġstreaming": 8671,
      "ĠCommun": 8672,
      "Ġspecifically": 8673,
      "Ġfict": 8674,
      "Ġru": 8675,
      "ema": 8676,
      "grad": 8677,
      "Ġsentido": 8678,
      "Ġtransactions": 8679,
      "Ġmanaging": 8680,
      "Ġnuestra": 8681,
      "Ġgolden": 8682,
      "Ġepis": 8683,
      "ĠAcad": 8684,
      "Ġhydrogen": 8685,
      "aac": 8686,
      "pet": 8687,
      "rt": 8688,
      "ype": 8689,
      "Ġfasc": 8690,
      "eless": 8691,
      "Ġreaction": 8692,
      "Ð½ÑĥÑĤ": 8693,
      "ĠDeb": 8694,
      "ĠOt": 8695,
      "Ġkitchen": 8696,
      "ĠYear": 8697,
      "Ð±Ð°": 8698,
      "Ãºrate": 8699,
      "ĠÐ½ÐµÐº": 8700,
      "ĠArgentina": 8701,
      "ÑĩÐ¸ÑĤÐ°": 8702,
      "Ġcampaigns": 8703,
      "Ġcircum": 8704,
      "Ġidioma": 8705,
      "Al": 8706,
      "case": 8707,
      "sen": 8708,
      "inos": 8709,
      "Ġluck": 8710,
      "ĠÐ¿Ðµ": 8711,
      "ĠEnt": 8712,
      "Ð½Ð¸ÐºÐ°": 8713,
      "Ð¾Ð³Ð°": 8714,
      "Ġservicios": 8715,
      "ĠÐ½ÐµÐ¹": 8716,
      "Ġmaintenance": 8717,
      "ĠImplement": 8718,
      "Ġwinning": 8719,
      "ä»ĸä»¬": 8720,
      "ĠvocÃª": 8721,
      "Ġphilosophy": 8722,
      "Ġdisponibles": 8723,
      "ĠDemocr": 8724,
      "448": 8725,
      "fil": 8726,
      "nic": 8727,
      "Äĩ": 8728,
      "Ġ)": 8729,
      "Ġsight": 8730,
      "ede": 8731,
      "Ð¾Ñī": 8732,
      "Ġglo": 8733,
      "Ġsufic": 8734,
      "Ġadopt": 8735,
      "ruption": 8736,
      "Ġago": 8737,
      "Ġvisible": 8738,
      "Ġchoices": 8739,
      "Ð²ÐµÐ´": 8740,
      "ĠâĪ": 8741,
      "æ°´": 8742,
      "ĠIngredients": 8743,
      "402": 8744,
      "bu": 8745,
      "Ġicon": 8746,
      "ouds": 8747,
      "ented": 8748,
      "Ġasist": 8749,
      "Ġseems": 8750,
      "ĠGl": 8751,
      "Ġperce": 8752,
      "Ġ64": 8753,
      "Ġremaining": 8754,
      "ĠFrank": 8755,
      "Ġupdates": 8756,
      "Ġguidance": 8757,
      "Ġraise": 8758,
      "Ġdecrease": 8759,
      "ĠHuman": 8760,
      "Ġmolecules": 8761,
      "ĠtamaÃ±o": 8762,
      "Ġarquitect": 8763,
      "iate": 8764,
      "iÃ¨re": 8765,
      "Â·": 8766,
      "erry": 8767,
      "Ġsen": 8768,
      "iture": 8769,
      "Ġhip": 8770,
      "step": 8771,
      "ĠSatur": 8772,
      "Ð»Ð¾Ñģ": 8773,
      "ĠBack": 8774,
      "Ġella": 8775,
      "Ġspaces": 8776,
      "ĠatenciÃ³n": 8777,
      "Ġinterior": 8778,
      "Ġenton": 8779,
      "Ġhumanity": 8780,
      "Ġeveryday": 8781,
      "Ġdurch": 8782,
      "Ġdiscovery": 8783,
      "Ġmechanics": 8784,
      "inst": 8785,
      "entar": 8786,
      "eting": 8787,
      "ĠCour": 8788,
      "ĠBef": 8789,
      "anda": 8790,
      "Ġdriver": 8791,
      "ĠProblem": 8792,
      "Ġmuscle": 8793,
      "ropa": 8794,
      "ĠGroup": 8795,
      "Ġsiglo": 8796,
      "ĠImag": 8797,
      "Ġbrowser": 8798,
      "sal": 8799,
      "Ä±": 8800,
      "Ġlaugh": 8801,
      "ĠPu": 8802,
      "ĠDif": 8803,
      "ĠHall": 8804,
      "ĠĠĠĠĠĠĠĠĠĠĠ": 8805,
      "elled": 8806,
      "åĲį": 8807,
      "Ġcarefully": 8808,
      "ĠÐ¶Ð¸": 8809,
      "à¸«à¸£": 8810,
      "gression": 8811,
      "fall": 8812,
      "iantes": 8813,
      "lier": 8814,
      "liche": 8815,
      "mas": 8816,
      "ç¥": 8817,
      "Ġpasta": 8818,
      "Ġlie": 8819,
      "aban": 8820,
      "Ġsuc": 8821,
      "ĠPop": 8822,
      "Ð»ÐµÐ½Ð¸Ðµ": 8823,
      "ĠBoston": 8824,
      "ÑĩÐµÐ½": 8825,
      "ierno": 8826,
      "åıĹ": 8827,
      "Ġserving": 8828,
      "Ġpossess": 8829,
      "Ġinputs": 8830,
      "Ġimplemented": 8831,
      "ĠModel": 8832,
      "Ġurban": 8833,
      "Ġscenario": 8834,
      "ĠBusiness": 8835,
      "%%": 8836,
      "bi": 8837,
      "orter": 8838,
      "quality": 8839,
      "ĠCE": 8840,
      "uno": 8841,
      "anted": 8842,
      "Ġseu": 8843,
      "ĠGlobal": 8844,
      "ÑıÑħ": 8845,
      "ĠJS": 8846,
      "ä¸ĸ": 8847,
      "æľŁ": 8848,
      "åĲĳ": 8849,
      "Ġsusp": 8850,
      "Ġmenu": 8851,
      "Ġgenre": 8852,
      "Ġsupplies": 8853,
      "Ġunexpected": 8854,
      "oster": 8855,
      "Ġquien": 8856,
      "ĠFoot": 8857,
      "ogram": 8858,
      "Ð±Ð»Ð¸": 8859,
      "peed": 8860,
      "Ġcuis": 8861,
      "ĠGeneral": 8862,
      "åĪ©": 8863,
      "çĶµ": 8864,
      "Ġsigue": 8865,
      "å¯¼": 8866,
      "Ġfixed": 8867,
      "Ġmistakes": 8868,
      "â£¿": 8869,
      "vil": 8870,
      "oro": 8871,
      "Ġwait": 8872,
      "acement": 8873,
      "ĠAunque": 8874,
      "storm": 8875,
      "Ġends": 8876,
      "Ġquiet": 8877,
      "Ġbei": 8878,
      "ĠEven": 8879,
      "ĠUm": 8880,
      "Ġ65": 8881,
      "Ġmejores": 8882,
      "ÂłÂł": 8883,
      "Ġnavigate": 8884,
      "ford": 8885,
      "aste": 8886,
      "Ġnom": 8887,
      "oli": 8888,
      "stream": 8889,
      "ĠCamp": 8890,
      "verty": 8891,
      "ĠRom": 8892,
      "Ġspect": 8893,
      "Ġcreature": 8894,
      "Ġdates": 8895,
      "Ð¾Ð´Ñĭ": 8896,
      "ricos": 8897,
      "Ġsegment": 8898,
      "Ġfinished": 8899,
      "Ġprobably": 8900,
      "ĠSingap": 8901,
      "Ġacademic": 8902,
      "HP": 8903,
      "bas": 8904,
      "main": 8905,
      "Ġ@": 8906,
      "Ġfra": 8907,
      "asp": 8908,
      "Ġroute": 8909,
      "ĠDan": 8910,
      "ĠBang": 8911,
      "ĠRAM": 8912,
      "Ġadop": 8913,
      "Ġoverw": 8914,
      "ĠConnect": 8915,
      "ports": 8916,
      "Ã¤n": 8917,
      "Ð»ÐµÐºÑĤ": 8918,
      "Ġsuperfic": 8919,
      "Ġstandards": 8920,
      "éĩĮ": 8921,
      "ĠIII": 8922,
      "Ġaquell": 8923,
      "æĬĢæľ¯": 8924,
      "Ġapologize": 8925,
      "TE": 8926,
      "Ġ01": 8927,
      "Ġfan": 8928,
      "Ġlect": 8929,
      "ĠTex": 8930,
      "Ġvor": 8931,
      "ÑĩÐµÐ½Ð¸Ðµ": 8932,
      "ĠVir": 8933,
      "Ġattend": 8934,
      "è®©": 8935,
      "Ġmencion": 8936,
      "Ġgenetic": 8937,
      "Ġsuggestions": 8938,
      "Ġmitig": 8939,
      "Ġaccounts": 8940,
      "ĠÐ¼Ð¾Ð³Ñĥ": 8941,
      "Ġcloser": 8942,
      "Ġfrequently": 8943,
      "æ²¡": 8944,
      "LL": 8945,
      "UR": 8946,
      "ben": 8947,
      "base": 8948,
      "ienda": 8949,
      "icia": 8950,
      "ÐµÑĢÐ°": 8951,
      "ĠCPU": 8952,
      "Ġrul": 8953,
      "plo": 8954,
      "ĠFil": 8955,
      "ä»İ": 8956,
      "Ġserves": 8957,
      "à¸±à¹ī": 8958,
      "ĠÑĢÐ°Ð·Ð»Ð¸Ñĩ": 8959,
      "Ð´Ð¸Ð½": 8960,
      "Ġdivis": 8961,
      "Ġsongs": 8962,
      "HT": 8963,
      "NN": 8964,
      "Ġses": 8965,
      "Ġspr": 8966,
      "Ġarte": 8967,
      "Ġmane": 8968,
      "Ġgrass": 8969,
      "ĠEnerg": 8970,
      "Ġkept": 8971,
      "ĠSpec": 8972,
      "è®®": 8973,
      "Ġlogic": 8974,
      "Ġseconds": 8975,
      "Ġgovernments": 8976,
      "ä¸įåĲĮ": 8977,
      "Ġoccas": 8978,
      "Ġbanana": 8979,
      "çľĭ": 8980,
      "Ġopposite": 8981,
      "Ġoutdoor": 8982,
      "Ġcebolla": 8983,
      "Ġentonces": 8984,
      "itors": 8985,
      "Ġlyr": 8986,
      "abul": 8987,
      "Ġsudd": 8988,
      "ĠÐ¿Ð¾ÐºÐ°": 8989,
      "ĠÐ¾Ñĩ": 8990,
      "Ġmodify": 8991,
      "Ġpoverty": 8992,
      "Ġski": 8993,
      "ÑĢÑĥÐ´": 8994,
      "Ġperforming": 8995,
      "åĮħ": 8996,
      "Ġfloor": 8997,
      "Ġtournament": 8998,
      "Ġmotivated": 8999,
      "Ġprioritize": 9000,
      "Ġmouse": 9001,
      "Ġisol": 9002,
      "ĠIr": 9003,
      "irse": 9004,
      "avas": 9005,
      "ĠRE": 9006,
      "pty": 9007,
      "Ġ300": 9008,
      "ĠestÃ©n": 9009,
      "ÑħÐ°": 9010,
      "Ġsiendo": 9011,
      "ĠProgram": 9012,
      "ĠUSA": 9013,
      "ĠÐ¸Ð½ÑĦÐ¾ÑĢÐ¼Ð°": 9014,
      "à¸Īà¸°": 9015,
      "Ġcambiar": 9016,
      "pack": 9017,
      "onna": 9018,
      "Ġherm": 9019,
      "Ġub": 9020,
      "Ġvert": 9021,
      "ĠCook": 9022,
      "ÃŃos": 9023,
      "Ð·Ñĥ": 9024,
      "oughly": 9025,
      "ĠEnc": 9026,
      "ĠChorus": 9027,
      "Ġinsurance": 9028,
      "Ġpopularity": 9029,
      "Ġoperation": 9030,
      "è®º": 9031,
      "æĮĩ": 9032,
      "Ġneurons": 9033,
      "Ġadjectives": 9034,
      "ĠCustomer": 9035,
      "ĠSoviet": 9036,
      "Ġmic": 9037,
      "Ġfashion": 9038,
      "Ġunc": 9039,
      "Ġalert": 9040,
      "ĠMass": 9041,
      "Ġhecho": 9042,
      "Ġimpossible": 9043,
      "Ġestre": 9044,
      "Ġalgu": 9045,
      "Ġtransm": 9046,
      "Ġrealistic": 9047,
      "Ġblocks": 9048,
      "Ġtemas": 9049,
      "ronic": 9050,
      "....": 9051,
      "è¯·": 9052,
      "Ġgravit": 9053,
      "Ġinspired": 9054,
      "Ġnuestro": 9055,
      "çķĮ": 9056,
      "Ġauthentication": 9057,
      "Ġempezar": 9058,
      "è±": 9059,
      "attle": 9060,
      "Ġthread": 9061,
      "ĠAst": 9062,
      "Ð½ÑĮ": 9063,
      "ĠRub": 9064,
      "Ġincluso": 9065,
      "Ġamigos": 9066,
      "untu": 9067,
      "Ġprimero": 9068,
      "Ġfrecu": 9069,
      "Ġfourth": 9070,
      "Ġturned": 9071,
      "Ġtenga": 9072,
      "Ġsavings": 9073,
      "Ġweapons": 9074,
      "Ġabstract": 9075,
      "ĠÐŀÐ´Ð½Ð°ÐºÐ¾": 9076,
      "iado": 9077,
      "âł": 9078,
      "Ġtweet": 9079,
      "Ġans": 9080,
      "Ġhob": 9081,
      "Ġgibt": 9082,
      "Ġreprodu": 9083,
      "Ġunknown": 9084,
      "Ġalto": 9085,
      "Ġinvers": 9086,
      "Ġrealized": 9087,
      "Ġcalm": 9088,
      "ĠClimate": 9089,
      "Ġtypical": 9090,
      "ä»¥ä¸ĭ": 9091,
      "ĠÐĿÐµ": 9092,
      "Ġmountains": 9093,
      "Ð¾Ð²ÑĭÑħ": 9094,
      "Ġadministr": 9095,
      "Ã¶glich": 9096,
      "Ġentertainment": 9097,
      "aÃ§Ã£o": 9098,
      "Ġtheories": 9099,
      "quer": 9100,
      "Ġgift": 9101,
      "ĠCivil": 9102,
      "anged": 9103,
      "Ġkg": 9104,
      "ĠString": 9105,
      "Ġhero": 9106,
      "Ġeditor": 9107,
      "ĠÑĢÐ°ÑģÐ¿": 9108,
      "Ġfacial": 9109,
      "Ġbuying": 9110,
      "Ġopinions": 9111,
      "Ġfailure": 9112,
      "Ġmercado": 9113,
      "Ġguerra": 9114,
      "Ġdedicated": 9115,
      "kl": 9116,
      "lig": 9117,
      "Ġtard": 9118,
      "ested": 9119,
      "Ġalred": 9120,
      "ĠPay": 9121,
      "ĠLake": 9122,
      "pert": 9123,
      "Ġprue": 9124,
      "lowing": 9125,
      "ĠAltern": 9126,
      "Ġcrime": 9127,
      "è¿Ļä¸ª": 9128,
      "Ġprobable": 9129,
      "Ġsudden": 9130,
      "free": 9131,
      "Ġaer": 9132,
      "ĠaÃºn": 9133,
      "Ġcrow": 9134,
      "Ġfur": 9135,
      "Ġhoy": 9136,
      "Ġenfr": 9137,
      "ĠsoluciÃ³n": 9138,
      "Ġshel": 9139,
      "åĪĽ": 9140,
      "Ġowner": 9141,
      "ÑģÑĤÐ°Ð²Ð»Ñı": 9142,
      "sche": 9143,
      "ĠRecuerda": 9144,
      "ĠTransform": 9145,
      "Ġtimeline": 9146,
      "Ġaccepted": 9147,
      "Ġmanufacturing": 9148,
      "Ġsect": 9149,
      "Ġciencia": 9150,
      "Ġfuego": 9151,
      "Ġlon": 9152,
      "Ġwire": 9153,
      "Ġnarr": 9154,
      "ÑĭÐµ": 9155,
      "Ġbuildings": 9156,
      "Ġimplementing": 9157,
      "Ġrestaurants": 9158,
      "èµ·": 9159,
      "Ð¾ÑĩÑĮ": 9160,
      "Ġalcanz": 9161,
      "401": 9162,
      "ati": 9163,
      "ania": 9164,
      "eli": 9165,
      "Ġstaff": 9166,
      "izations": 9167,
      "ĠJoe": 9168,
      "ĠChampionship": 9169,
      "ĠLaw": 9170,
      "Ġtherefore": 9171,
      "Ġrequiere": 9172,
      "Ġconstit": 9173,
      "Ġorganisms": 9174,
      "åºı": 9175,
      "Ġsearching": 9176,
      "Ġsyntax": 9177,
      "Ġrespuestas": 9178,
      "æİ¥": 9179,
      "ĠService": 9180,
      "Ġhuevos": 9181,
      "Ġoverwhel": 9182,
      "446": 9183,
      "IC": 9184,
      "lege": 9185,
      "ecess": 9186,
      "ĠAge": 9187,
      "utch": 9188,
      "Ġrare": 9189,
      "ĠPen": 9190,
      "ĠProm": 9191,
      "istan": 9192,
      "Ð´Ñĭ": 9193,
      "Ġauto": 9194,
      "Ġ2007": 9195,
      "Ġpractical": 9196,
      "Ġinfluential": 9197,
      "++)": 9198,
      "SQL": 9199,
      "uv": 9200,
      "enas": 9201,
      "item": 9202,
      "Ġfecha": 9203,
      "Ġeast": 9204,
      "acial": 9205,
      "ĠSl": 9206,
      "ĠCam": 9207,
      "Ġalter": 9208,
      "Ġshoot": 9209,
      "Ġestad": 9210,
      "Ġpuzz": 9211,
      "Ġloved": 9212,
      "Ġincluir": 9213,
      "arme": 9214,
      "Ġshell": 9215,
      "âĢĿ.": 9216,
      "ĠÐ±ÑĭÐ»": 9217,
      "Ġcourt": 9218,
      "Ġolder": 9219,
      "ç§ĳ": 9220,
      "Ġpeaceful": 9221,
      "ĠÐ½ÐµÑģÐºÐ¾Ð»ÑĮÐºÐ¾": 9222,
      "dec": 9223,
      "ç¦": 9224,
      "èį": 9225,
      "éª": 9226,
      "Ġnach": 9227,
      "etime": 9228,
      "Ġstation": 9229,
      "ĠLED": 9230,
      "Ġspark": 9231,
      "Ġelev": 9232,
      "Ġapoy": 9233,
      "ĠExamples": 9234,
      "Ġleadership": 9235,
      "Ġorganic": 9236,
      "ĠSpace": 9237,
      "Ġincluye": 9238,
      "åĵģ": 9239,
      "Ġentrenamiento": 9240,
      "Ġdeseas": 9241,
      "Ġburn": 9242,
      "Ġtoken": 9243,
      "esto": 9244,
      "ĠLight": 9245,
      "ounder": 9246,
      "ogy": 9247,
      "ĠÐ¸ÑģÑĤÐ¾": 9248,
      "ĠVerse": 9249,
      "Ð±Ð¾ÑĢ": 9250,
      "Ġevil": 9251,
      "Ġscr": 9252,
      "Ġprogramas": 9253,
      "ÑĢÐ¾ÑĪ": 9254,
      "Ġartists": 9255,
      "Ġlibre": 9256,
      "Ġavailability": 9257,
      "ĠÐºÐ°Ð¶Ð´": 9258,
      "Ġdatasets": 9259,
      "Ġequivalent": 9260,
      "Æ°á»": 9261,
      "Ġprotagonist": 9262,
      "Ġsad": 9263,
      "Ġbag": 9264,
      "ĠTen": 9265,
      "Ġgaming": 9266,
      "ÑĢÐ¾Ð±": 9267,
      "Ġstable": 9268,
      "ocar": 9269,
      "Ġestoy": 9270,
      "Ġmemoria": 9271,
      "Ġperformed": 9272,
      "position": 9273,
      "Ġlayout": 9274,
      "Ġintroduction": 9275,
      "ĠÑĨÐµ": 9276,
      "Â».": 9277,
      "hydr": 9278,
      "Ġadvertising": 9279,
      "dir": 9280,
      "fen": 9281,
      "hop": 9282,
      "ÅĽ": 9283,
      "Ġsua": 9284,
      "ĠEval": 9285,
      "ĠDoc": 9286,
      "ĠGPU": 9287,
      "Ġ1960": 9288,
      "Ġpreviously": 9289,
      "jer": 9290,
      "Ġsan": 9291,
      "orient": 9292,
      "Ġpuntos": 9293,
      "ulas": 9294,
      "Ġstability": 9295,
      "Ġalph": 9296,
      "ĠBet": 9297,
      "ĠLit": 9298,
      "Ġplaced": 9299,
      "berries": 9300,
      "Ġproduces": 9301,
      "Ġlooked": 9302,
      "Ġperman": 9303,
      "çŃĶ": 9304,
      "Ġcontributions": 9305,
      "ĠCharles": 9306,
      "Ġinfluenced": 9307,
      "442": 9308,
      "pg": 9309,
      "rics": 9310,
      "Ġtech": 9311,
      "iser": 9312,
      "igr": 9313,
      "Ġfort": 9314,
      "ĠMah": 9315,
      "ĠJane": 9316,
      "ÑĢÐ°ÑĤÐ¸": 9317,
      "ãģ¦": 9318,
      "Ġhabl": 9319,
      "Ġengines": 9320,
      "Ġpurs": 9321,
      "Ġsynonym": 9322,
      "ĠÐ¿Ð¾Ð¼Ð¾Ñī": 9323,
      "æĪĸèĢħ": 9324,
      "ĠType": 9325,
      "Ġnunca": 9326,
      "Ġalguien": 9327,
      "Ðŀ": 9328,
      "åĸ": 9329,
      "Ġdice": 9330,
      "Ġparallel": 9331,
      "ĠInput": 9332,
      "âĢ¦": 9333,
      "ĠÑģÑĢÐµÐ´": 9334,
      "Ġemple": 9335,
      "Ġevolution": 9336,
      "Ġboat": 9337,
      "Ġcorner": 9338,
      "Ġautor": 9339,
      "apped": 9340,
      "frac": 9341,
      "Ġmanaged": 9342,
      "Ġdifficulty": 9343,
      "Ġsociet": 9344,
      "Int": 9345,
      "Ð¾Ð»ÑĮÐ·Ð¾Ð²Ð°": 9346,
      "Ġdomestic": 9347,
      "driven": 9348,
      "æł·": 9349,
      "Ġĉĉ": 9350,
      "holders": 9351,
      "`,": 9352,
      "rd": 9353,
      "Ġajud": 9354,
      "lets": 9355,
      "ĠAward": 9356,
      "ĠLord": 9357,
      "ĠNF": 9358,
      "Ġjuntos": 9359,
      "Ġlistening": 9360,
      "append": 9361,
      "Ġarguments": 9362,
      "Ġinstalled": 9363,
      "ĠFalse": 9364,
      "Ġfilosof": 9365,
      "ĠBefore": 9366,
      "Ġpil": 9367,
      "Ġwal": 9368,
      "Ġyo": 9369,
      "Ġorbit": 9370,
      "Ġseasons": 9371,
      "Ġ---": 9372,
      "Ġcomprom": 9373,
      "Ġemails": 9374,
      "Ġvegetable": 9375,
      "ĠEinstein": 9376,
      "443": 9377,
      "Ø©": 9378,
      "ç²": 9379,
      "init": 9380,
      "Ġpull": 9381,
      "Ġeu": 9382,
      "Ġrewards": 9383,
      "uten": 9384,
      "Ġvote": 9385,
      "aven": 9386,
      "ĠWhe": 9387,
      "ĠFR": 9388,
      "ÑĩÐµÐ½Ð¸Ñı": 9389,
      "ĠserÃ¡": 9390,
      "Ġmeditation": 9391,
      "è¯Ĩ": 9392,
      "Ġsites": 9393,
      "Ġexcel": 9394,
      "éĤ£": 9395,
      "ĠtecnologÃŃas": 9396,
      "gi": 9397,
      "ÉĻ": 9398,
      "Ġtar": 9399,
      "Ġeight": 9400,
      "Ġparent": 9401,
      "uda": 9402,
      "ĠNight": 9403,
      "ĠÑģÐ»Ð¾Ð¶": 9404,
      "ĠJuan": 9405,
      "Ġescal": 9406,
      "æ³¨": 9407,
[...]
