<unk>	0
<s>	0
</s>	0
==	-0
::	-1
on	-2
te	-3
▁::	-4
re	-5
in	-6
ti	-7
▁s	-8
en	-9
▁"	-10
or	-11
et	-12
al	-13
st	-14
▁{	-15
--	-16
an	-17
▁}	-18
▁=	-19
tion	-20
====	-21
er	-22
it	-23
co	-24
at	-25
le	-26
▁set	-27
me	-28
ce	-29
ent	-30
ss	-31
ing	-32
ar	-33
▁t	-34
▁f	-35
tu	-36
ate	-37
mp	-38
----	-39
▁e	-40
de	-41
ra	-42
========	-43
ul	-44
se	-45
con	-46
un	-47
qu	-48
▁re	-49
▁#	-50
ro	-51
▁p	-52
ay	-53
▁l	-54
▁w	-55
▁i	-56
ation	-57
us	-58
ch	-59
▁+	-60
comp	-61
▁say	-62
is	-63
tum	-64
antum	-65
▁a	-66
rn	-67
▁0	-68
fi	-69
ve	-70
ction	-71
ne	-72
ith	-73
ri	-74
",	-75
quantum	-76
ur	-77
mit	-78
res	-79
iz	-80
▁with	-81
ata	-82
pe	-83
data	-84
▁emit	-85
ue	-86
ult	-87
op	-88
ys	-89
ory	-90
▁in	-91
--------	-92
mo	-93
ag	-94
test	-95
▁st	-96
▁if	-97
id	-98
ed	-99
th	-100
================	-101
lo	-102
cess	-103
ment	-104
▁for	-105
▁b	-106
▁S	-107
ec	-108
ten	-109
est	-110
▁A	-111
▁1	-112
ad	-113
turn	-114
sc	-115
▁return	-116
ype	-117
▁(	-118
ut	-119
▁tr	-120
time	-121
▁C	-122
▁T	-123
and	-124
as	-125
ance	-126
es	-127
tem	-128
mory	-129
result	-130
▁c	-131
ren	-132
ity	-133
val	-134
▁/	-135
il	-136
▁th	-137
▁0.	-138
no	-139
si	-140
ab	-141
rain	-142
memory	-143
()	-144
ystem	-145
age	-146
for	-147
di	-148
▁con	-149
("	-150
▁==	-151
▁true	-152
ap	-153
unction	-154
")	-155
ter	-156
ath	-157
vent	-158
▁[	-159
▁comp	-160
ac	-161
ha	-162
ness	-163
int	-164
io	-165
onent	-166
zme	-167
▁//	-168
iti	-169
eng	-170
▁quantum	-171
xt	-172
raining	-173
uc	-174
to	-175
ious	-176
ame	-177
▁m	-178
scious	-179
▁to	-180
state	-181
pro	-182
ver	-183
ize	-184
(::	-185
cs	-186
sciousness	-187
po	-188
zl	-189
oal	-190
mode	-191
pl	-192
..	-193
ength	-194
form	-195
goal	-196
type	-197
▁$	-198
00	-199
vi	-200
----------------	-201
event	-202
ore	-203
▁let	-204
rom	-205
coun	-206
length	-207
ol	-208
ile	-209
ex	-210
gh	-211
tern	-212
isten	-213
uccess	-214
ted	-215
name	-216
code	-217
▁function	-218
per	-219
ic	-220
ror	-221
▁from	-222
stat	-223
rent	-224
▁P	-225
itial	-226
urrent	-227
gra	-228
text	-229
ts	-230
ion	-231
end	-232
tim	-233
model	-234
count	-235
▁res	-236
error	-237
ct	-238
met	-239
rint	-240
he	-241
tive	-242
▁I	-243
▁azme	-244
▁AZ	-245
ine	-246
confi	-247
▁Test	-248
▁print	-249
▁R	-250
▁on	-251
get	-252
▁listen	-253
li	-254
▁store	-255
core	-256
system	-257
str	-258
ress	-259
ence	-260
azl	-261
ran	-262
▁el	-263
ution	-264
ener	-265
optim	-266
▁[]	-267
▁o	-268
▁n	-269
▁else	-270
quest	-271
▁{}	-272
um	-273
ke	-274
▁-	-275
▁lo	-276
hance	-277
training	-278
rics	-279
ure	-280
ken	-281
comple	-282
ural	-283
▁E	-284
par	-285
able	-286
eha	-287
vior	-288
ehavior	-289
▁ex	-290
path	-291
enhance	-292
ang	-293
▁test	-294
up	-295
art	-296
ning	-297
anal	-298
vel	-299
▁|	-300
▁L	-301
▁$1	-302
now	-303
config	-304
ck	-305
put	-306
request	-307
value	-308
our	-309
current	-310
optimiz	-311
attern	-312
component	-313
amp	-314
▁pro	-315
▁||	-316
igh	-317
ource	-318
▁M	-319
neural	-320
▁result	-321
consciousness	-322
▁In	-323
":	-324
all	-325
level	-326
▁2	-327
tal	-328
status	-329
gration	-330
tegration	-331
ated	-332
file	-333
▁h	-334
▁Co	-335
ork	-336
results	-337
▁then	-338
[::	-339
▁par	-340
ush	-341
formance	-342
);	-343
enhanced	-344
process	-345
el	-346
ull	-347
▁component	-348
eck	-349
gener	-350
0,	-351
metrics	-352
fa	-353
tep	-354
▁AZL	-355
ast	-356
ass	-357
tent	-358
ist	-359
arning	-360
push	-361
...	-362
cy	-363
gn	-364
ati	-365
pon	-366
ady	-367
mess	-368
▁F	-369
bo	-370
rate	-371
run	-372
");	-373
ponse	-374
▁this	-375
▁memory	-376
▁co	-377
sion	-378
ser	-379
set	-380
valid	-381
▁or	-382
token	-383
ression	-384
▁success	-385
▁system	-386
▁de	-387
eigh	-388
node	-389
ry	-390
▁Comp	-391
mm	-392
ute	-393
▁"✅	-394
▁type	-395
ink	-396
ulate	-397
ard	-398
ations	-399
du	-400
em	-401
learning	-402
key	-403
azme	-404
date	-405
itialize	-406
message	-407
success	-408
▁data	-409
tri	-410
▁===	-411
▁>	-412
ho	-413
pattern	-414
Qu	-415
reg	-416
ers	-417
ain	-418
ort	-419
▁3	-420
rence	-421
..."	-422
ysis	-423
arget	-424
itializ	-425
▁<	-426
fo	-427
ci	-428
vol	-429
▁and	-430
size	-431
ason	-432
alse	-433
Quantum	-434
▁G	-435
ug	-436
iled	-437
tic	-438
hen	-439
analysis	-440
var	-441
ask	-442
atch	-443
▁null	-444
▁false	-445
▁consciousness	-446
exec	-447
ack	-448
tran	-449
work	-450
▁time	-451
alc	-452
fied	-453
cre	-454
bj	-455
▁*	-456
complete	-457
▁comple	-458
▁state	-459
stamp	-460
ready	-461
motion	-462
ME	-463
optimization	-464
━━	-465
score	-466
▁Re	-467
performance	-468
istory	-469
im	-470
log	-471
sed	-472
▁training	-473
line	-474
volution	-475
herence	-476
integration	-477
▁U	-478
"]	-479
TI	-480
▁0.0	-481
LE	-482
▁!	-483
stats	-484
▁4	-485
▁behavior	-486
##	-487
enti	-488
▁error	-489
▁St	-490
▁met	-491
abil	-492
hase	-493
▁loop	-494
scend	-495
om	-496
red	-497
check	-498
xity	-499
▁link	-500
▁fn	-501
▁},	-502
lock	-503
bjec	-504
function	-505
▁(::	-506
angu	-507
start	-508
▁D	-509
uni	-510
▁ac	-511
info	-512
weigh	-513
mar	-514
oper	-515
▁path	-516
imp	-517
▁ar	-518
▁H	-519
entry	-520
inal	-521
ator	-522
response	-523
tests	-524
behavior	-525
▁azl	-526
alculate	-527
dim	-528
point	-529
ax	-530
ord	-531
total	-532
anguage	-533
tics	-534
pre	-535
ines	-536
asoning	-537
ateg	-538
pression	-539
lement	-540
cu	-541
ract	-542
ash	-543
mmand	-544
▁Quantum	-545
▁stat	-546
ge	-547
▁d	-548
dex	-549
▁the	-550
step	-551
▁=>	-552
dy	-553
MP	-554
ctions	-555
ved	-556
history	-557
ef	-558
generate	-559
▁&	-560
▁cre	-561
ach	-562
▁event	-563
und	-564
▁AZME	-565
▁0.9	-566
▁exec	-567
ply	-568
onit	-569
tions	-570
statement	-571
ension	-572
ild	-573
out	-574
are	-575
ranch	-576
poch	-577
ternal	-578
onitor	-579
runtime	-580
▁goal	-581
update	-582
port	-583
new	-584
▁"📊	-585
infor	-586
dence	-587
inter	-588
▁5	-589
▁Comple	-590
arch	-591
cted	-592
mic	-593
vari	-594
▁file	-595
dimension	-596
ST	-597
real	-598
inforce	-599
ulation	-600
ON	-601
▁process	-602
load	-603
▁N	-604
ugin	-605
man	-606
asure	-607
ty	-608
analy	-609
▁B	-610
▁model	-611
▁ad	-612
context	-613
motional	-614
uild	-615
validation	-616
yte	-617
MPLE	-618
tual	-619
▁total	-620
▁0,	-621
andl	-622
▁Initialize	-623
sform	-624
▁&&	-625
am	-626
umb	-627
▁se	-628
ot	-629
▁real	-630
▁Ch	-631
▁status	-632
fic	-633
fle	-634
.0	-635
▁when	-636
measure	-637
cl	-638
agent	-639
scendent	-640
les	-641
loss	-642
▁init	-643
apabil	-644
ward	-645
internal	-646
▁context	-647
ail	-648
▁["	-649
▁branch	-650
▁confi	-651
fe	-652
▁timestamp	-653
block	-654
▁current	-655
inforcement	-656
coherence	-657
oul	-658
▁O	-659
engine	-660
meta	-661
unified	-662
ded	-663
▁$1.	-664
rack	-665
ly	-666
▁!=	-667
))	-668
ll	-669
smic	-670
ware	-671
▁out	-672
andle	-673
ind	-674
pa	-675
▁Pro	-676
not	-677
target	-678
bject	-679
variable	-680
input	-681
▁tran	-682
low	-683
▁message	-684
ght	-685
back	-686
active	-687
tokens	-688
ature	-689
index	-690
ters	-691
su	-692
valu	-693
vity	-694
etwork	-695
▁Check	-696
anglement	-697
▁Type	-698
rip	-699
iler	-700
▁per	-701
▁neural	-702
!"	-703
failed	-704
ill	-705
ayer	-706
patterns	-707
call	-708
if	-709
▁Con	-710
ities	-711
language	-712
▁get	-713
weights	-714
ite	-715
stics	-716
task	-717
parser	-718
ency	-719
plugin	-720
▁SA	-721
),	-722
old	-723
elf	-724
▁bo	-725
ir	-726
▁token	-727
command	-728
map	-729
assed	-730
ration	-731
itialized	-732
keys	-733
ust	-734
pri	-735
source	-736
av	-737
cont	-738
5,	-739
▁Ex	-740
ze	-741
▁Source	-742
▁""	-743
▁Complexity	-744
▁value	-745
entanglement	-746
string	-747
measurement	-748
evolution	-749
execution	-750
components	-751
jo	-752
▁Lines	-753
▁SAMPLE	-754
▁pattern	-755
kill	-756
ray	-757
loop	-758
▁0.0,	-759
▁parse	-760
goals	-761
phase	-762
intent	-763
yn	-764
▁target	-765
▁ch	-766
sign	-767
ative	-768
▁100	-769
gs	-770
ctor	-771
expression	-772
▁is	-773
IN	-774
ssion	-775
lf	-776
ched	-777
vers	-778
flection	-779
know	-780
ailed	-781
ativity	-782
ase	-783
self	-784
▁System	-785
64	-786
uctu	-787
▁mo	-788
dep	-789
andom	-790
ision	-791
▁oper	-792
ED	-793
▁0.8	-794
processing	-795
▁Gener	-796
random	-797
wareness	-798
━━━━	-799
ful	-800
▁Up	-801
▁en	-802
cura	-803
▁response	-804
cogn	-805
umber	-806
itializing	-807
▁qu	-808
scrip	-809
▁Start	-810
curacy	-811
ractal	-812
sition	-813
▁{},	-814
TION	-815
▁[],	-816
▁di	-817
board	-818
rec	-819
spe	-820
col	-821
ashboard	-822
act	-823
istr	-824
pply	-825
tention	-826
confidence	-827
▁name	-828
alth	-829
▁g	-830
face	-831
onitoring	-832
bit	-833
epoch	-834
▁V	-835
ger	-836
▁id	-837
emb	-838
▁"🎯	-839
apabilities	-840
(),	-841
mary	-842
rove	-843
▁Ad	-844
▁he	-845
rid	-846
gence	-847
▁work	-848
fici	-849
atistics	-850
ache	-851
▁Lo	-852
verage	-853
ms	-854
1,	-855
▁str	-856
ipe	-857
▁al	-858
].	-859
_"	-860
aba	-861
body	-862
completed	-863
▁metrics	-864
duction	-865
SS	-866
rehen	-867
nel	-868
istry	-869
▁Me	-870
▁not	-871
▁code	-872
sim	-873
transform	-874
cle	-875
ude	-876
ipeline	-877
dimensions	-878
####	-879
entity	-880
▁Update	-881
parse	-882
temp	-883
▁8	-884
▁parser	-885
attention	-886
▁"/	-887
orre	-888
py	-889
▁v	-890
resh	-891
▁now	-892
▁imp	-893
▁step	-894
rap	-895
tiv	-896
with	-897
signature	-898
son	-899
ff	-900
mt	-901
min	-902
emotional	-903
dule	-904
trie	-905
▁config	-906
ER	-907
tt	-908
lha	-909
▁learning	-910
sive	-911
build	-912
▁'	-913
▁W	-914
"],	-915
▁start	-916
rovement	-917
3_	-918
▁k	-919
▁integration	-920
mi	-921
▁6	-922
reinforcement	-923
adap	-924
▁Testing	-925
processor	-926
sum	-927
▁inter	-928
AL	-929
▁10	-930
▁performance	-931
version	-932
ies	-933
▁En	-934
tens	-935
vance	-936
▁weigh	-937
ule	-938
▁op	-939
trial	-940
▁create	-941
cep	-942
▁ag	-943
ority	-944
search	-945
timestamp	-946
St	-947
ains	-948
passed	-949
rite	-950
vector	-951
json	-952
strateg	-953
▁generate	-954
▁};	-955
dataset	-956
den	-957
ery	-958
next	-959
▁log	-960
andler	-961
▁ass	-962
▁source	-963
▁ok	-964
ization	-965
ficiency	-966
max	-967
▁new	-968
▁calculate	-969
ok	-970
▁po	-971
▁input	-972
chedule	-973
▁"🧠	-974
inte	-975
abel	-976
optimizer	-977
],	-978
track	-979
output	-980
▁check	-981
byte	-982
regis	-983
hile	-984
race	-985
▁self	-986
ting	-987
["	-988
os	-989
.0,	-990
pos	-991
▁"🚀	-992
processed	-993
rehensive	-994
mark	-995
▁Par	-996
▁final	-997
▁Exec	-998
reshold	-999
eli	-1000
▁max	-1001
imulate	-1002
ical	-1003
seman	-1004
▁complete	-1005
▁processing	-1006
ph	-1007
▁components	-1008
▁optimization	-1009
2,	-1010
▁})	-1011
content	-1012
endpoint	-1013
semantic	-1014
])	-1015
gress	-1016
abled	-1017
awareness	-1018
rator	-1019
ow	-1020
▁"❌	-1021
skill	-1022
NT	-1023
ries	-1024
yscall	-1025
▁analysis	-1026
reflection	-1027
known	-1028
Con	-1029
▁>=	-1030
ased	-1031
store	-1032
entries	-1033
▁Generate	-1034
ttp	-1035
add	-1036
0000	-1037
gment	-1038
accuracy	-1039
position	-1040
pu	-1041
ign	-1042
▁Cre	-1043
ating	-1044
itive	-1045
▁count	-1046
analyze	-1047
mpt	-1048
▁run	-1049
▁body	-1050
chest	-1051
math	-1052
sight	-1053
ameters	-1054
adic	-1055
▁Handle	-1056
initialize	-1057
conver	-1058
ailable	-1059
BA	-1060
health	-1061
▁Memory	-1062
▁execution	-1063
[0	-1064
train	-1065
usage	-1066
▁failed	-1067
In	-1068
conne	-1069
registry	-1070
▁Training	-1071
cat	-1072
▁An	-1073
idden	-1074
▁evolution	-1075
ait	-1076
del	-1077
ures	-1078
AZ	-1079
vanced	-1080
ategory	-1081
▁key	-1082
▁Process	-1083
▁tri	-1084
▁ready	-1085
▁statement	-1086
ner	-1087
item	-1088
concat	-1089
▁results	-1090
sa	-1091
cosmic	-1092
▁pre	-1093
cache	-1094
quence	-1095
cur	-1096
\"	-1097
led	-1098
▁while	-1099
eman	-1100
otst	-1101
otstrap	-1102
ds	-1103
▁7	-1104
emantic	-1105
▁transcendent	-1106
fin	-1107
aded	-1108
vide	-1109
elief	-1110
chestrator	-1111
upd	-1112
▁ABA	-1113
ality	-1114
weight	-1115
▁byte	-1116
dashboard	-1117
stmt	-1118
▁content	-1119
({	-1120
Ex	-1121
stand	-1122
▁actual	-1123
sh	-1124
dic	-1125
mat	-1126
▁sum	-1127
execute	-1128
▁unified	-1129
host	-1130
fractal	-1131
use	-1132
ble	-1133
let	-1134
▁Get	-1135
erstand	-1136
strategy	-1137
generated	-1138
uting	-1139
▁update	-1140
▁Simulate	-1141
▁all	-1142
compiler	-1143
Re	-1144
aly	-1145
api	-1146
▁0;	-1147
▁systems	-1148
word	-1149
rect	-1150
▁of	-1151
ench	-1152
▁cont	-1153
enchmark	-1154
mean	-1155
▁reg	-1156
▁output	-1157
compression	-1158
lli	-1159
syn	-1160
rame	-1161
thon	-1162
systems	-1163
reasoning	-1164
▁pri	-1165
embly	-1166
tered	-1167
edback	-1168
retrie	-1169
▁Function	-1170
enhancement	-1171
ep	-1172
ice	-1173
plan	-1174
▁1.0	-1175
evalu	-1176
structu	-1177
updated	-1178
job	-1179
tial	-1180
▁execute	-1181
ayload	-1182
initialized	-1183
pr	-1184
00,	-1185
env	-1186
gor	-1187
▁add	-1188
gorith	-1189
xtract	-1190
read	-1191
ulti	-1192
layer	-1193
HA	-1194
rust	-1195
udes	-1196
chain	-1197
▁text	-1198
▁ro	-1199
sub	-1200
▁args	-1201
transcendent	-1202
fier	-1203
ping	-1204
▁inte	-1205
preter	-1206
improvement	-1207
match	-1208
states	-1209
network	-1210
sho	-1211
this	-1212
▁0.7	-1213
▁tokens	-1214
▁coherence	-1215
ual	-1216
contains	-1217
fication	-1218
lligence	-1219
gger	-1220
▁Run	-1221
rateg	-1222
versal	-1223
creativity	-1224
ASS	-1225
param	-1226
atures	-1227
▁dataset	-1228
threshold	-1229
generation	-1230
http	-1231
actor	-1232
depth	-1233
efficiency	-1234
▁completed	-1235
▁Add	-1236
▁CO	-1237
unity	-1238
actual	-1239
variables	-1240
label	-1241
▁Create	-1242
▁Apply	-1243
▁Calculate	-1244
inu	-1245
eural	-1246
tensor	-1247
scription	-1248
simulation	-1249
dete	-1250
raction	-1251
ert	-1252
tential	-1253
gmentation	-1254
loc	-1255
▁col	-1256
med	-1257
▁0)	-1258
star	-1259
▁based	-1260
▁fe	-1261
full	-1262
oice	-1263
oration	-1264
ary	-1265
aut	-1266
nodes	-1267
understand	-1268
transformation	-1269
write	-1270
events	-1271
rative	-1272
▁cosmic	-1273
:"	-1274
▁RE	-1275
0.	-1276
ma	-1277
ING	-1278
▁"🔍	-1279
ages	-1280
ates	-1281
soul	-1282
▁loss	-1283
▁Initializing	-1284
mb	-1285
sing	-1286
▁epoch	-1287
schedule	-1288
user	-1289
amples	-1290
EM	-1291
▁by	-1292
brid	-1293
eue	-1294
▁"🧪	-1295
▁Step	-1296
▁command	-1297
▁"🔧	-1298
▁su	-1299
belief	-1300
EN	-1301
plit	-1302
▁meta	-1303
▁soul	-1304
▁array	-1305
emotion	-1306
▁Integration	-1307
cision	-1308
▁measurement	-1309
query	-1310
tation	-1311
steps	-1312
urn	-1313
char	-1314
▁Math	-1315
▁agent	-1316
OR	-1317
▁1:	-1318
ition	-1319
▁layer	-1320
pipeline	-1321
cognitive	-1322
▁Starting	-1323
successful	-1324
▁emotional	-1325
";	-1326
▁rec	-1327
batch	-1328
▁patterns	-1329
AZL	-1330
dis	-1331
▁Per	-1332
types	-1333
[0]	-1334
pair	-1335
number	-1336
32	-1337
ant	-1338
ized	-1339
▁batch	-1340
entifier	-1341
▁request	-1342
interface	-1343
optimized	-1344
scendence	-1345
[1	-1346
▁:	-1347
▁?	-1348
fil	-1349
prompt	-1350
lit	-1351
plic	-1352
thes	-1353
corre	-1354
dient	-1355
).	-1356
▁j	-1357
reward	-1358
▁%	-1359
ges	-1360
gth	-1361
ify	-1362
▁De	-1363
▁av	-1364
ASSED	-1365
emati	-1366
rength	-1367
unknown	-1368
▁confidence	-1369
ak	-1370
▁ap	-1371
▁gra	-1372
▁head	-1373
factor	-1374
▁semantic	-1375
▁monitoring	-1376
RE	-1377
last	-1378
ring	-1379
uted	-1380
lation	-1381
▁object	-1382
TE	-1383
aun	-1384
action	-1385
▁phase	-1386
average	-1387
▁reasoning	-1388
aunch	-1389
video	-1390
▁load	-1391
his	-1392
="	-1393
blem	-1394
▁_	-1395
▁min	-1396
orage	-1397
▁compiler	-1398
qui	-1399
row	-1400
imple	-1401
▁2:	-1402
ager	-1403
python	-1404
▁Component	-1405
▁entanglement	-1406
▁Mo	-1407
errors	-1408
arrative	-1409
ound	-1410
lines	-1411
module	-1412
so	-1413
chat	-1414
ATION	-1415
class	-1416
summary	-1417
spa	-1418
predi	-1419
▁weights	-1420
capabilities	-1421
understanding	-1422
ig	-1423
ture	-1424
▁task	-1425
━━━━━━━━	-1426
▁working	-1427
statistics	-1428
▁validation	-1429
lib	-1430
session	-1431
og	-1432
asic	-1433
hash	-1434
std	-1435
stru	-1436
▁Sto	-1437
array	-1438
▁Real	-1439
thesis	-1440
▁functions	-1441
orm	-1442
insight	-1443
functions	-1444
▁operations	-1445
AR	-1446
gram	-1447
▁build	-1448
ability	-1449
calculate	-1450
▁initialized	-1451
▁capabilities	-1452
++	-1453
ace	-1454
rategy	-1455
fg	-1456
split	-1457
create	-1458
▁Analy	-1459
analytics	-1460
report	-1461
▁block	-1462
▁score	-1463
▁entry	-1464
▁x	-1465
▁pl	-1466
fail	-1467
isual	-1468
adaptive	-1469
0)	-1470
lean	-1471
▁ast	-1472
secur	-1473
loaded	-1474
▁index	-1475
security	-1476
sequence	-1477
6_	-1478
LL	-1479
hod	-1480
script	-1481
8,	-1482
▁3:	-1483
args	-1484
late	-1485
ties	-1486
▁level	-1487
counter	-1488
tracker	-1489
▁Neural	-1490
orchestrator	-1491
list	-1492
▁0.5	-1493
qubit	-1494
ference	-1495
▁Un	-1496
ptim	-1497
ilation	-1498
▁]	-1499
apply	-1500
access	-1501
comm	-1502
init	-1503
used	-1504
ignment	-1505
sol	-1506
▁adap	-1507
▁valid	-1508
().	-1509
▁evalu	-1510
▁Execute	-1511
▁initialize	-1512
agi	-1513
complex	-1514
rati	-1515
ernel	-1516
umbers	-1517
▁tests	-1518
▁0.1	-1519
ample	-1520
tivation	-1521
▁network	-1522
apability	-1523
transcendence	-1524
▁Consciousness	-1525
ied	-1526
lear	-1527
final	-1528
place	-1529
▁line	-1530
▁Parse	-1531
retrieved	-1532
▁transform	-1533
models	-1534
syscall	-1535
();	-1536
peer	-1537
frame	-1538
queue	-1539
utation	-1540
▁active	-1541
comprehensive	-1542
lp	-1543
("\	-1544
ous	-1545
emon	-1546
fault	-1547
rospe	-1548
stdlib	-1549
3,	-1550
very	-1551
gorithm	-1552
optimize	-1553
▁"1	-1554
▁sc	-1555
alog	-1556
lass	-1557
pend	-1558
peri	-1559
▁string	-1560
duration	-1561
▁call	-1562
recent	-1563
Co	-1564
▁9	-1565
por	-1566
rix	-1567
rol	-1568
▁im	-1569
▁Store	-1570
trim	-1571
object	-1572
enabled	-1573
########	-1574
▁language	-1575
monitoring	-1576
▁expression	-1577
▁statistics	-1578
ou	-1579
ratio	-1580
▁next	-1581
alogue	-1582
dition	-1583
ava	-1584
opo	-1585
▁This	-1586
hidden	-1587
handler	-1588
objec	-1589
▁history	-1590
6,	-1591
lic	-1592
▁1,	-1593
flow	-1594
inue	-1595
▁size	-1596
...");	-1597
category	-1598
▁compile	-1599
VE	-1600
available	-1601
▁assembly	-1602
(1	-1603
nap	-1604
▁"📋	-1605
link	-1606
▁complexity	-1607
verall	-1608
meaning	-1609
4,	-1610
ai	-1611
fully	-1612
image	-1613
):	-1614
ET	-1615
of	-1616
one	-1617
unc	-1618
trace	-1619
format	-1620
▁found	-1621
▁track	-1622
priority	-1623
cognition	-1624
FF	-1625
ven	-1626
reak	-1627
▁0.95,	-1628
convert	-1629
progress	-1630
▁"🔄	-1631
clean	-1632
space	-1633
stack	-1634
monitor	-1635
identity	-1636
)"	-1637
CE	-1638
86_	-1639
best	-1640
ghts	-1641
stage	-1642
▁core	-1643
napsho	-1644
▁average	-1645
▁r	-1646
uth	-1647
Type	-1648
cores	-1649
urnal	-1650
handle	-1651
istence	-1652
trainer	-1653
Reasoning	-1654
bootstrap	-1655
versation	-1656
._	-1657
rou	-1658
▁be	-1659
head	-1660
rror	-1661
ving	-1662
files	-1663
complexity	-1664
▁q	-1665
▁+=	-1666
▁AST	-1667
ified	-1668
▁apply	-1669
manager	-1670
plication	-1671
potential	-1672
▁reinforcement	-1673
modi	-1674
CTION	-1675
aemon	-1676
▁Load	-1677
ressed	-1678
RO	-1679
its	-1680
ments	-1681
aration	-1682
07	-1683
cei	-1684
gate	-1685
▁mode	-1686
▁runtime	-1687
[1]	-1688
ories	-1689
▁goals	-1690
ret	-1691
▁LHA	-1692
ayers	-1693
▁number	-1694
▁headers	-1695
parameters	-1696
cap	-1697
zer	-1698
limit	-1699
▁bytes	-1700
▁SY	-1701
mask	-1702
journal	-1703
mission	-1704
▁priority	-1705
initializing	-1706
▁"🔗	-1707
ugges	-1708
sights	-1709
napshot	-1710
▁action	-1711
▁successfully	-1712
ft	-1713
▁y	-1714
iginal	-1715
server	-1716
ulated	-1717
▁intent	-1718
operations	-1719
▁interface	-1720
hy	-1721
ext	-1722
▁Res	-1723
acity	-1724
pected	-1725
▁format	-1726
PI	-1727
ails	-1728
cies	-1729
86_64	-1730
Id	-1731
by	-1732
high	-1733
found	-1734
params	-1735
feedback	-1736
▁structu	-1737
we	-1738
▁map	-1739
▁sim	-1740
▁back	-1741
strength	-1742
narrative	-1743
iss	-1744
simp	-1745
vice	-1746
plied	-1747
▁successful	-1748
NG	-1749
bal	-1750
▁"📝	-1751
▁last	-1752
▁trial	-1753
andlers	-1754
];	-1755
ffi	-1756
▁ab	-1757
cept	-1758
incl	-1759
State	-1760
entro	-1761
▁math	-1762
▁Optim	-1763
modeling	-1764
avascript	-1765
▁creativity	-1766
bug	-1767
base	-1768
▁Hel	-1769
ledge	-1770
▁char	-1771
▁break	-1772
rations	-1773
trigger	-1774
▁handler	-1775
ryp	-1776
▁"🎉	-1777
lect	-1778
▁node	-1779
lified	-1780
▁Phase	-1781
▁4:	-1782
STEM	-1783
lice	-1784
words	-1785
▁dete	-1786
amplit	-1787
etails	-1788
▁reason	-1789
javascript	-1790
▁",	-1791
from	-1792
stop	-1793
rough	-1794
payload	-1795
quality	-1796
▁weight	-1797
GI	-1798
▁variable	-1799
gu	-1800
graph	-1801
parts	-1802
ceived	-1803
testing	-1804
▁Complete	-1805
identifier	-1806
dimensional	-1807
AI	-1808
uld	-1809
!");	-1810
Name	-1811
launch	-1812
▁Helper	-1813
▁parameters	-1814
([	-1815
arma	-1816
cryp	-1817
chang	-1818
ister	-1819
▁best	-1820
RA	-1821
xed	-1822
▁"\	-1823
shap	-1824
tings	-1825
verse	-1826
▁steps	-1827
ploration	-1828
evaluation	-1829
ave	-1830
til	-1831
url	-1832
▁us	-1833
medi	-1834
ormal	-1835
▁stats	-1836
includes	-1837
omo	-1838
the	-1839
▁an	-1840
▁Error	-1841
andling	-1842
▁operation	-1843
DE	-1844
UN	-1845
ess	-1846
▁Link	-1847
agents	-1848
▁syscall	-1849
cal	-1850
▁1)	-1851
worker	-1852
▁conne	-1853
perties	-1854
register	-1855
resource	-1856
substring	-1857
capability	-1858
▁AI	-1859
TIVE	-1860
▁0.9,	-1861
blocks	-1862
points	-1863
▁Performance	-1864
▁K	-1865
▁→	-1866
▁li	-1867
ding	-1868
enal	-1869
ctive	-1870
▁read	-1871
▁corre	-1872
▁SYSTEM	-1873
▁engine	-1874
knowledge	-1875
universal	-1876
▁pipeline	-1877
▁compression	-1878
hosting	-1879
numbers	-1880
▁module	-1881
▁recent	-1882
bytecode	-1883
▁ne	-1884
▁syn	-1885
▁rate	-1886
▁using	-1887
commend	-1888
▁description	-1889
ron	-1890
chan	-1891
failure	-1892
▁Analyze	-1893
(0,	-1894
logy	-1895
flect	-1896
idate	-1897
▁export	-1898
▁strategy	-1899
rospection	-1900
def	-1901
ise	-1902
ric	-1903
ques	-1904
▁method	-1905
advanced	-1906
benchmark	-1907
conscious	-1908
regulation	-1909
interpreter	-1910
Un	-1911
▁1;	-1912
▁events	-1913
▁Reasoning	-1914
000	-1915
gpu	-1916
rax	-1917
▁"")	-1918
bytes	-1919
vision	-1920
▁PASSED	-1921
▁Simple	-1922
▁fractal	-1923
compressed	-1924
ip	-1925
++)	-1926
ech	-1927
nlp	-1928
own	-1929
▁hy	-1930
voice	-1931
▁class	-1932
crement	-1933
ematics	-1934
section	-1935
dri	-1936
roll	-1937
▁Val	-1938
▁end	-1939
anner	-1940
created	-1941
rectory	-1942
▁completion	-1943
▁generation	-1944
itialization	-1945
req	-1946
gent	-1947
play	-1948
tren	-1949
omous	-1950
starts	-1951
onomous	-1952
▁COMPLE	-1953
▁passed	-1954
perience	-1955
▁AC	-1956
slice	-1957
▁Goal	-1958
lection	-1959
storage	-1960
vergence	-1961
struction	-1962
statements	-1963
dr	-1964
EST	-1965
ish	-1966
ncy	-1967
remo	-1968
scores	-1969
entropy	-1970
SE	-1971
expr	-1972
ream	-1973
encies	-1974
visual	-1975
▁Object	-1976
▁endpoint	-1977
▁enhancement	-1978
optimizations	-1979
▁()	-1980
▁up	-1981
itec	-1982
tocol	-1983
▁qubit	-1984
settings	-1985
production	-1986
segmentation	-1987
Int	-1988
dif	-1989
▁$2	-1990
▁To	-1991
reet	-1992
▁0.3	-1993
▁dis	-1994
depend	-1995
▁progress	-1996
ged	-1997
ses	-1998
vid	-1999
▁un	-2000
▁AGI	-2001
lowed	-2002
bridge	-2003
plugins	-2004
▁analyze	-2005
▁transformation	-2006
1"	-2007
▁we	-2008
▁man	-2009
enalty	-2010
structure	-2011
▁benchmark	-2012
oc	-2013
cli	-2014
▁12	-2015
▁\"	-2016
come	-2017
rios	-2018
▁are	-2019
▁aut	-2020
riosity	-2021
snapshot	-2022
▁gradient	-2023
▁attention	-2024
▁available	-2025
perposition	-2026
intelligence	-2027
▁fi	-2028
cepts	-2029
reason	-2030
capacity	-2031
▁continue	-2032
▁Processing	-2033
eta	-2034
agno	-2035
▁sub	-2036
▁base	-2037
▁clean	-2038
cleanup	-2039
2_	-2040
AD	-2041
tr	-2042
coin	-2043
▁File	-2044
qubits	-2045
▁predi	-2046
▁hidden	-2047
TING	-2048
cket	-2049
▁files	-2050
detected	-2051
itecture	-2052
messages	-2053
registered	-2054
ped	-2055
▁20	-2056
gine	-2057
dules	-2058
▁Self	-2059
▁Wait	-2060
ficult	-2061
dicator	-2062
running	-2063
▁reflection	-2064
TT	-2065
Dec	-2066
sha	-2067
▁num	-2068
right	-2069
inuous	-2070
▁Event	-2071
▁plugin	-2072
▁random	-2073
Statement	-2074
properties	-2075
▁simulation	-2076
ree	-2077
▁[0	-2078
dent	-2079
func	-2080
▁Reg	-2081
▁1.0,	-2082
▁parts	-2083
objects	-2084
tensity	-2085
▁enhanced	-2086
commendations	-2087
**	-2088
FI	-2089
PU	-2090
flo	-2091
ymb	-2092
▁PRO	-2093
alert	-2094
multi	-2095
ymbol	-2096
Expression	-2097
▁Q	-2098
box	-2099
cfg	-2100
off	-2101
▁IN	-2102
live	-2103
trust	-2104
covery	-2105
agement	-2106
profile	-2107
▁payload	-2108
connection	-2109
kv	-2110
auto	-2111
ists	-2112
▁try	-2113
▁TEST	-2114
▁train	-2115
"}	-2116
ca	-2117
rc	-2118
▁3.	-2119
▁Ac	-2120
leport	-2121
▁enable	-2122
ategories	-2123
uggestions	-2124
▁dimensions	-2125
LED	-2126
gro	-2127
▁!::	-2128
▁len	-2129
▁spe	-2130
ameter	-2131
formed	-2132
regist	-2133
▁increment	-2134
description	-2135
fy	-2136
1",	-2137
Pro	-2138
mod	-2139
▁ho	-2140
▁API	-2141
paths	-2142
▁arch	-2143
layers	-2144
mining	-2145
▁Final	-2146
▁requi	-2147
valence	-2148
adaptation	-2149
imm	-2150
len	-2151
wen	-2152
▁Se	-2153
term	-2154
trans	-2155
▁hash	-2156
medium	-2157
▁Runtime	-2158
▁interpreter	-2159
num	-2160
ssa	-2161
▁1.	-2162
▁25	-2163
ules	-2164
▁Tri	-2165
▁Data	-2166
▁Stat	-2167
String	-2168
uration	-2169
▁retrie	-2170
iolation	-2171
IT	-2172
fs	-2173
ocu	-2174
utf	-2175
atform	-2176
ficulty	-2177
sections	-2178
tracking	-2179
▁version	-2180
ens	-2181
fet	-2182
rib	-2183
Decl	-2184
ecur	-2185
▁agi	-2186
program	-2187
lections	-2188
▁bytecode	-2189
▁category	-2190
"))	-2191
Cre	-2192
▁2,	-2193
▁2.	-2194
▁at	-2195
llab	-2196
▁For	-2197
▁Ret	-2198
apsed	-2199
▁multi	-2200
options	-2201
reeting	-2202
replace	-2203
▁parsed	-2204
leportation	-2205
16	-2206
gr	-2207
▁"📈	-2208
▁use	-2209
inary	-2210
order	-2211
▁catch	-2212
extract	-2213
dialogue	-2214
ags	-2215
mem	-2216
emit	-2217
▁expr	-2218
labels	-2219
▁problem	-2220
▁tracking	-2221
correction	-2222
ive	-2223
tun	-2224
▁16	-2225
fety	-2226
save	-2227
cycle	-2228
posal	-2229
▁Emit	-2230
▁Enhance	-2231
▁dashboard	-2232
▁optimizer	-2233
application	-2234
IL	-2235
idx	-2236
izer	-2237
topo	-2238
viron	-2239
▁0.8,	-2240
▁imag	-2241
decision	-2242
interval	-2243
▁summary	-2244
vironment	-2245
Declaration	-2246
============	-2247
conversation	-2248
10	-2249
auth	-2250
main	-2251
alloc	-2252
range	-2253
speci	-2254
▁temp	-2255
record	-2256
applied	-2257
▁length	-2258
OST	-2259
cay	-2260
sync	-2261
▁sho	-2262
ridge	-2263
▁fail	-2264
▁wait	-2265
device	-2266
symbol	-2267
matches	-2268
▁Behavior	-2269
mathematics	-2270
modification	-2271
⚠️	-2272
net	-2273
▁("	-2274
ould	-2275
▁dif	-2276
defin	-2277
matrix	-2278
▁point	-2279
▁query	-2280
insights	-2281
▁options	-2282
checkpoint	-2283
pq	-2284
▁<=	-2285
▁sh	-2286
▁aba	-2287
▁Core	-2288
features	-2289
▁creative	-2290
▁feedback	-2291
▁sequence	-2292
lementation	-2293
▁intelligence	-2294
▁configuration	-2295
Me	-2296
Hel	-2297
▁"0	-2298
pers	-2299
karma	-2300
usion	-2301
▁0.0}	-2302
▁Cont	-2303
▁gate	-2304
▁skill	-2305
channel	-2306
▁direct	-2307
executed	-2308
gradient	-2309
agnostics	-2310
fficiency	-2311
▁advanced	-2312
▁features	-2313
▁improvement	-2314
."	-2315
iso	-2316
ned	-2317
obj	-2318
aris	-2319
eness	-2320
▁Inte	-2321
arison	-2322
vation	-2323
ecurity	-2324
▁ACTIVE	-2325
datasets	-2326
categories	-2327
▁processor	-2328
▁evaluation	-2329
▁production	-2330
EL	-2331
▁J	-2332
▁4,	-2333
▁0.2	-2334
▁Log	-2335
raise	-2336
teral	-2337
tical	-2338
▁pass	-2339
epochs	-2340
kernel	-2341
▁Model	-2342
▁label	-2343
Content	-2344
▁handle	-2345
▁insight	-2346
▁through	-2347
1.	-2348
rel	-2349
▁ID	-2350
evol	-2351
vant	-2352
ycle	-2353
▁"::	-2354
▁Set	-2355
Hello	-2356
table	-2357
branch	-2358
parsed	-2359
validate	-2360
▁created	-2361
▁parsing	-2362
▁reflect	-2363
▁COMPLETE	-2364
permission	-2365
▁compilation	-2366
━━━━━━━━━━━━━━━━	-2367
▁pe	-2368
indow	-2369
▁pure	-2370
logical	-2371
▁import	-2372
CH	-2373
avg	-2374
oci	-2375
plo	-2376
raw	-2377
ref	-2378
dist	-2379
ging	-2380
send	-2381
▁[0.	-2382
AILED	-2383
▁high	-2384
isting	-2385
▁route	-2386
updates	-2387
handlers	-2388
directory	-2389
En	-2390
ld	-2391
mov	-2392
▁42	-2393
listen	-2394
repair	-2395
lements	-2396
penalty	-2397
warning	-2398
▁depend	-2399
▁original	-2400
▁bootstrap	-2401
1)	-2402
33	-2403
ear	-2404
has	-2405
tor	-2406
unk	-2407
▁5:	-2408
zero	-2409
▁ver	-2410
ectiv	-2411
prime	-2412
delity	-2413
values	-2414
▁would	-2415
gnitive	-2416
olution	-2417
samples	-2418
▁health	-2419
▁Extract	-2420
▁Network	-2421
operation	-2422
ectiveness	-2423
▁Executing	-2424
===	-2425
ime	-2426
▁**	-2427
With	-2428
orld	-2429
lower	-2430
story	-2431
compute	-2432
latency	-2433
▁errors	-2434
ematical	-2435
variance	-2436
indicator	-2437
completion	-2438
percomplex	-2439
▁structure	-2440
▁Production	-2441
teleportation	-2442
9,	-2443
hdr	-2444
▁le	-2445
inux	-2446
▁"⚠️	-2447
▁job	-2448
coord	-2449
route	-2450
thing	-2451
▁item	-2452
PASSED	-2453
itions	-2454
▁chain	-2455
▁worker	-2456
evaluate	-2457
▁testing	-2458
intensity	-2459
amplitudes	-2460
▁algorithm	-2461
introspection	-2462
kip	-2463
tax	-2464
lish	-2465
rows	-2466
tece	-2467
▁All	-2468
▁can	-2469
▁cfg	-2470
▁that	-2471
▁cache	-2472
overall	-2473
Function	-2474
tecedent	-2475
registers	-2476
synthesis	-2477
activation	-2478
▁awareness	-2479
interaction	-2480
UM	-2481
▁;	-2482
TTP	-2483
bon	-2484
ell	-2485
oral	-2486
loops	-2487
▁objec	-2488
default	-2489
earning	-2490
▁access	-2491
assembly	-2492
▁entries	-2493
▁connection	-2494
2.	-2495
der	-2496
▁(!	-2497
▁3,	-2498
wait	-2499
▁1000	-2500
▁stmt	-2501
lected	-2502
socket	-2503
ulator	-2504
▁prompt	-2505
toString	-2506
alignment	-2507
▁efficiency	-2508
▁comprehensive	-2509
▁15	-2510
miss	-2511
prob	-2512
ther	-2513
▁The	-2514
conds	-2515
collab	-2516
filter	-2517
tivity	-2518
balance	-2519
▁Engine	-2520
▁Status	-2521
▁loaded	-2522
▁tensor	-2523
received	-2524
implified	-2525
compilation	-2526
▁checkpoint	-2527
ew	-2528
arm	-2529
rie	-2530
kind	-2531
lete	-2532
▁cap	-2533
backup	-2534
daemon	-2535
ything	-2536
platform	-2537
algorithm	-2538
▁accuracy	-2539
▁parseInt	-2540
▁variables	-2541
Consciousness	-2542
bus	-2543
ler	-2544
▁"⚡	-2545
atic	-2546
cond	-2547
fter	-2548
sole	-2549
▁api	-2550
basic	-2551
chunk	-2552
simple	-2553
actions	-2554
modules	-2555
scanner	-2556
gorithms	-2557
mutation	-2558
ification	-2559
connections	-2560
sp	-2561
▁"_	-2562
▁"💾	-2563
▁1]	-2564
▁MO	-2565
▁vi	-2566
Comp	-2567
alle	-2568
▁Use	-2569
trend	-2570
▁port	-2571
impact	-2572
▁range	-2573
bitcoin	-2574
mapping	-2575
ritical	-2576
filtered	-2577
violation	-2578
prediction	-2579
exploration	-2580
recognition	-2581
11	-2582
2]	-2583
▁as	-2584
cuit	-2585
ixed	-2586
move	-2587
▁Rec	-2588
atrix	-2589
items	-2590
tific	-2591
▁HTTP	-2592
▁Tran	-2593
regret	-2594
uctive	-2595
▁Evalu	-2596
▁models	-2597
▁enabled	-2598
▁forward	-2599
▁register	-2600
7,	-2601
AN	-2602
cir	-2603
zed	-2604
▁")	-2605
▁"🔌	-2606
role	-2607
ross	-2608
coded	-2609
mpath	-2610
rules	-2611
UCTION	-2612
optimal	-2613
▁===");	-2614
▁simple	-2615
question	-2616
thresholds	-2617
hi	-2618
pag	-2619
MENT	-2620
calc	-2621
cons	-2622
▁avg	-2623
trials	-2624
▁const	-2625
ertific	-2626
reality	-2627
timeout	-2628
▁reward	-2629
proposal	-2630
recovery	-2631
################	-2632
ta	-2633
▁`	-2634
ITI	-2635
dir	-2636
umn	-2637
▁NO	-2638
AZME	-2639
CESS	-2640
qual	-2641
▁cur	-2642
requi	-2643
coding	-2644
logger	-2645
▁Agent	-2646
idation	-2647
problem	-2648
requests	-2649
difficulty	-2650
())	-2651
ERN	-2652
ias	-2653
ple	-2654
stic	-2655
util	-2656
▁trim	-2657
allowed	-2658
▁kernel	-2659
cryption	-2660
▁complex	-2661
▁duration	-2662
▁processed	-2663
instruction	-2664
((	-2665
IZ	-2666
GET	-2667
ands	-2668
down	-2669
▁amp	-2670
enter	-2671
▁PROD	-2672
▁REAL	-2673
▁push	-2674
execut	-2675
stream	-2676
forward	-2677
started	-2678
creation	-2679
greeting	-2680
▁session	-2681
structions	-2682
▁generated	-2683
▁PRODUCTION	-2684
eo	-2685
xy	-2686
URE	-2687
qwen	-2688
tick	-2689
armic	-2690
▁sign	-2691
▁star	-2692
▁user	-2693
finite	-2694
▁0.707	-2695
details	-2696
▁epochs	-2697
▁reality	-2698
▁handling	-2699
▁position	-2700
▁condition	-2701
diagnostics	-2702
▁initialization	-2703
EC	-2704
ADY	-2705
▁".	-2706
cost	-2707
pass	-2708
pure	-2709
grate	-2710
manif	-2711
▁tren	-2712
inding	-2713
speech	-2714
stored	-2715
▁cycle	-2716
removed	-2717
shaping	-2718
metadata	-2719
▁section	-2720
▁validate	-2721
▁activation	-2722
UA	-2723
od	-2724
xFF	-2725
▁-1	-2726
▁ST	-2727
▁json	-2728
Memory	-2729
console	-2730
▁Retrie	-2731
▁meaning	-2732
stringify	-2733
▁adaptive	-2734
▁evaluate	-2735
24	-2736
ml	-2737
ub	-2738
top	-2739
anom	-2740
erts	-2741
flic	-2742
decay	-2743
issue	-2744
prise	-2745
▁0.01	-2746
▁Meta	-2747
▁full	-2748
levels	-2749
▁lines	-2750
▁FAILED	-2751
▁Parser	-2752
ribution	-2753
iterations	-2754
Res	-2755
sam	-2756
unt	-2757
▁18	-2758
cles	-2759
debug	-2760
▁COMP	-2761
▁calc	-2762
entify	-2763
indent	-2764
issing	-2765
▁Tests	-2766
▁Total	-2767
backend	-2768
control	-2769
istency	-2770
pointer	-2771
commands	-2772
expected	-2773
▁address	-2774
▁Validate	-2775
▁threshold	-2776
▁consequence	-2777
2)	-2778
be	-2779
say	-2780
sec	-2781
tes	-2782
RAIN	-2783
diff	-2784
ight	-2785
vert	-2786
▁var	-2787
allel	-2788
▁Main	-2789
change	-2790
omatic	-2791
return	-2792
▁frame	-2793
ertificate	-2794
superposition	-2795
recommendations	-2796
At	-2797
requ	-2798
▁[];	-2799
olved	-2800
ought	-2801
uture	-2802
▁chat	-2803
▁late	-2804
normal	-2805
rection	-2806
▁search	-2807
concepts	-2808
▁details	-2809
▁resource	-2810
experience	-2811
cm	-2812
wn	-2813
bra	-2814
try	-2815
▁no	-2816
000,	-2817
jobs	-2818
root	-2819
▁"_"	-2820
▁INT	-2821
▁dep	-2822
gebra	-2823
▁main	-2824
▁ques	-2825
▁nodes	-2826
▁write	-2827
general	-2828
▁amplit	-2829
▁matrix	-2830
▁report	-2831
▁should	-2832
▁Perform	-2833
▁program	-2834
successes	-2835
strategies	-2836
expressions	-2837
suggestions	-2838
PA	-2839
ek	-2840
vp	-2841
{"	-2842
LLM	-2843
▁6:	-2844
irst	-2845
sume	-2846
grade	-2847
local	-2848
▁0.95	-2849
▁http	-2850
▁save	-2851
praise	-2852
▁Build	-2853
▁vector	-2854
novation	-2855
planning	-2856
curiosity	-2857
72	-2858
fn	-2859
ram	-2860
web	-2861
▁Di	-2862
just	-2863
pati	-2864
▁ALL	-2865
▁Imp	-2866
▁gpu	-2867
velop	-2868
grated	-2869
phases	-2870
shaper	-2871
▁Result	-2872
▁trimmed	-2873
rehension	-2874
▁decision	-2875
▁identity	-2876
▁schedule	-2877
got	-2878
▁":	-2879
Tran	-2880
greg	-2881
isms	-2882
open	-2883
part	-2884
sect	-2885
▁lha	-2886
ports	-2887
timer	-2888
▁Pure	-2889
mpathy	-2890
roller	-2891
▁0.0},	-2892
▁right	-2893
blocked	-2894
ocument	-2895
▁Record	-2896
▁Monitor	-2897
▁Language	-2898
startsWith	-2899
▁Generating	-2900
▁Comprehensive	-2901
▁implementation	-2902
-"	-2903
UL	-2904
⚛️	-2905
dig	-2906
▁40	-2907
:");	-2908
addr	-2909
ined	-2910
▁10,	-2911
▁Ver	-2912
▁low	-2913
aging	-2914
const	-2915
suite	-2916
▁PURE	-2917
altern	-2918
isodic	-2919
loader	-2920
metric	-2921
window	-2922
▁unity	-2923
original	-2924
converted	-2925
▁detected	-2926
▁optimized	-2927
transformed	-2928
▁statements	-2929
▁orchestrator	-2930
"),	-2931
(0.	-2932
ari	-2933
hot	-2934
ral	-2935
tml	-2936
▁No	-2937
▁sa	-2938
eded	-2939
sets	-2940
▁via	-2941
unger	-2942
Failed	-2943
cycles	-2944
ariable	-2945
lations	-2946
perform	-2947
vantage	-2948
workers	-2949
▁Unified	-2950
▁display	-2951
detection	-2952
registration	-2953
collaboration	-2954
▁Reinforcement	-2955
OU	-2956
hs	-2957
▁"📦	-2958
▁14	-2959
▁EX	-2960
▁],	-2961
floor	-2962
▁Adap	-2963
ablish	-2964
ported	-2965
▁READY	-2966
▁match	-2967
▁stage	-2968
Context	-2969
consume	-2970
▁native	-2971
workflow	-2972
▁extract	-2973
formation	-2974
▁Advanced	-2975
transformations	-2976
25	-2977
exp	-2978
toF	-2979
▁8,	-2980
Test	-2981
ript	-2982
aping	-2983
velty	-2984
▁word	-2985
hybrid	-2986
▁Basic	-2987
▁State	-2988
toFixed	-2989
vention	-2990
▁visual	-2991
universe	-2992
▁Success	-2993
▁running	-2994
predicted	-2995
▁Semantic	-2996
▁datasets	-2997
antecedent	-2998
solidation	-2999
correlation	-3000
persistence	-3001
▁Optimization	-3002
CI	-3003
▁@	-3004
TED	-3005
done	-3006
ific	-3007
▁"/"	-3008
arity	-3009
esthe	-3010
extra	-3011
ython	-3012
chedul	-3013
enable	-3014
theory	-3015
▁missing	-3016
claration	-3017
▁executed	-3018
▁protocol	-3019
extraction	-3020
▁analytics	-3021
▁potential	-3022
dependencies	-3023
707	-3024
cpu	-3025
ALIZ	-3026
ehdr	-3027
true	-3028
aware	-3029
erver	-3030
▁Find	-3031
▁each	-3032
associ	-3033
exists	-3034
import	-3035
shared	-3036
▁opcode	-3037
▁states	-3038
operator	-3039
specific	-3040
stopping	-3041
▁updated	-3042
advantage	-3043
inference	-3044
planation	-3045
precision	-3046
▁dialogue	-3047
▁metadata	-3048
integrations	-3049
▁collections	-3050
bu	-3051
vm	-3052
00)	-3053
gan	-3054
slo	-3055
ump	-3056
▁0.6	-3057
▁val	-3058
crete	-3059
lobal	-3060
utter	-3061
▁0.5,	-3062
▁over	-3063
attemp	-3064
▁limit	-3065
Process	-3066
handled	-3067
primary	-3068
ulating	-3069
direction	-3070
utterance	-3071
▁Enhanced	-3072
▁Evaluate	-3073
')	-3074
Mo	-3075
OS	-3076
eff	-3077
ops	-3078
▁24	-3079
POST	-3080
acci	-3081
cent	-3082
vars	-3083
▁raw	-3084
ached	-3085
▁200,	-3086
▁Loss	-3087
opcode	-3088
▁INITI	-3089
bonacci	-3090
istered	-3091
channels	-3092
fidelity	-3093
▁failure	-3094
▁overall	-3095
▁storage	-3096
amplitude	-3097
▁optimize	-3098
ES	-3099
qr	-3100
(1,	-3101
jec	-3102
vpn	-3103
▁((	-3104
bser	-3105
anger	-3106
polic	-3107
▁Rust	-3108
should	-3109
tistic	-3110
tunnel	-3111
▁param	-3112
outcome	-3113
▁daemon	-3114
recision	-3115
▁Dataset	-3116
▁measure	-3117
▁security	-3118
autonomous	-3119
▁INITIALIZ	-3120
▁management	-3121
(-	-3122
99	-3123
:/	-3124
seg	-3125
▁50	-3126
▁Id	-3127
▁Ro	-3128
fiel	-3129
ular	-3130
▁"",	-3131
▁arr	-3132
▁req	-3133
(1.0,	-3134
based	-3135
▁"1.0	-3136
▁0.7,	-3137
▁Code	-3138
▁into	-3139
▁kind	-3140
alerts	-3141
policy	-3142
safety	-3143
▁appro	-3144
▁image	-3145
ERATION	-3146
beliefs	-3147
keyword	-3148
learner	-3149
▁assemb	-3150
creative	-3151
critical	-3152
evolving	-3153
requency	-3154
reversal	-3155
ulations	-3156
upported	-3157
▁correct	-3158
condition	-3159
▁Learning	-3160
enterprise	-3161
▁precision	-3162
predictions	-3163
▁segmentation	-3164
80	-3165
UR	-3166
://	-3167
cmd	-3168
uct	-3169
▁SU	-3170
([])	-3171
707,	-3172
pqke	-3173
entic	-3174
ining	-3175
peers	-3176
▁STAR	-3177
address	-3178
anomaly	-3179
00000000	-3180
analyzer	-3181
▁replace	-3182
stability	-3183
ythingLLM	-3184
▁handlers	-3185
▁strength	-3186
▁architecture	-3187
▁conversation	-3188
%"	-3189
":"	-3190
Vec	-3191
[2]	-3192
hat	-3193
tle	-3194
▁->	-3195
Adic	-3196
cope	-3197
html	-3198
pool	-3199
unic	-3200
▁Aut	-3201
▁keys	-3202
factual	-3203
tension	-3204
angerous	-3205
elements	-3206
keywords	-3207
connected	-3208
▁insights	-3209
▁simulate	-3210
▁dimension	-3211
▁dependencies	-3212
▁understanding	-3213
15	-3214
RI	-3215
("✅	-3216
ORK	-3217
fer	-3218
ids	-3219
vec	-3220
▁"📁	-3221
▁36	-3222
NTUM	-3223
cand	-3224
▁Ent	-3225
▁[::	-3226
CCESS	-3227
ensus	-3228
gency	-3229
light	-3230
▁0.85	-3231
UANTUM	-3232
binary	-3233
▁Ready	-3234
▁brace	-3235
▁defin	-3236
▁first	-3237
▁other	-3238
ractive	-3239
thought	-3240
▁execut	-3241
topology	-3242
warnings	-3243
▁loading	-3244
executions	-3245
simplified	-3246
structures	-3247
distribution	-3248
ragmentation	-3249
(0	-3250
gg	-3251
bro	-3252
opt	-3253
sca	-3254
▁2)	-3255
▁{"	-3256
sure	-3257
tool	-3258
▁FFI	-3259
▁fil	-3260
links	-3261
reset	-3262
title	-3263
▁Chat	-3264
achine	-3265
ferent	-3266
▁Inter	-3267
▁loops	-3268
compile	-3269
ficient	-3270
saction	-3271
termine	-3272
tivated	-3273
▁bridge	-3274
▁qubits	-3275
retrieve	-3276
parameter	-3277
velopment	-3278
▁Register	-3279
▁expected	-3280
controller	-3281
▁adaptation	-3282
▁calculation	-3283
12	-3284
MA	-3285
_2	-3286
ey	-3287
ie	-3288
ors	-3289
uli	-3290
drive	-3291
istic	-3292
tract	-3293
method	-3294
▁chang	-3295
▁belief	-3296
mappings	-3297
▁Trigger	-3298
continuous	-3299
▁knowledge	-3300
▁synthesis	-3301
▁Simplified	-3302
▁dimensional	-3303
▁exploration	-3304
Ar	-3305
fd	-3306
}"	-3307
gge	-3308
ost	-3309
▁4.	-3310
▁Ar	-3311
Exec	-3312
join	-3313
scra	-3314
▁"\"	-3315
▁0.4	-3316
▁rid	-3317
brain	-3318
linux	-3319
oriti	-3320
world	-3321
▁topo	-3322
Neural	-3323
ggered	-3324
raints	-3325
sender	-3326
▁TRAIN	-3327
▁[0.0,	-3328
example	-3329
urgency	-3330
▁Failed	-3331
▁Verify	-3332
disabled	-3333
resolved	-3334
uriosity	-3335
contextId	-3336
messaging	-3337
unication	-3338
▁operator	-3339
▁registry	-3340
comprehension	-3341
effectiveness	-3342
3.	-3343
8"	-3344
fix	-3345
▁32	-3346
▁Bo	-3347
orph	-3348
orts	-3349
▁CON	-3350
▁int	-3351
▁ite	-3352
▁{})	-3353
learn	-3354
▁host	-3355
▁mask	-3356
native	-3357
▁Track	-3358
▁usage	-3359
crypted	-3360
missing	-3361
versions	-3362
▁Getting	-3363
▁emotion	-3364
framework	-3365
reduction	-3366
workspace	-3367
Identifier	-3368
calculated	-3369
Transcendent	-3370
3:	-3371
67	-3372
TH	-3373
("-	-3374
ELF	-3375
arb	-3376
car	-3377
dom	-3378
qca	-3379
▁Qu	-3380
▁me	-3381
[0].	-3382
post	-3383
▁any	-3384
pairs	-3385
▁0.00	-3386
▁SELF	-3387
▁Work	-3388
▁find	-3389
▁left	-3390
Result	-3391
alysis	-3392
arbage	-3393
▁1000,	-3394
▁server	-3395
patience	-3396
timeline	-3397
▁Compile	-3398
▁Convert	-3399
▁objects	-3400
extension	-3401
reinforce	-3402
▁STARTING	-3403
▁TRAINING	-3404
1:	-3405
sw	-3406
▁)	-3407
▁7:	-3408
▁so	-3409
HASE	-3410
cols	-3411
exit	-3412
over	-3413
safe	-3414
view	-3415
▁bet	-3416
▁obj	-3417
float	-3418
patch	-3419
tasks	-3420
secure	-3421
▁after	-3422
▁paths	-3423
clusion	-3424
▁normal	-3425
memories	-3426
signific	-3427
▁cleanup	-3428
▁contains	-3429
divergence	-3430
▁cognitive	-3431
▁different	-3432
▁convergence	-3433
LI	-3434
bp	-3435
▁\	-3436
Imp	-3437
▁"📖	-3438
▁5,	-3439
▁OP	-3440
▁Sh	-3441
shif	-3442
▁"⚛️	-3443
▁Sho	-3444
child	-3445
orted	-3446
torch	-3447
▁((::	-3448
▁Loop	-3449
▁Oper	-3450
▁cons	-3451
coords	-3452
lector	-3453
logged	-3454
offset	-3455
▁debug	-3456
▁queue	-3457
▁types	-3458
concept	-3459
ductive	-3460
▁Adding	-3461
▁Python	-3462
▁Remove	-3463
pothesis	-3464
verified	-3465
▁Loading	-3466
▁control	-3467
▁counter	-3468
▁existing	-3469
consistency	-3470
architecture	-3471
▁AnythingLLM	-3472
▁environment	-3473
▁mathematical	-3474
14	-3475
OT	-3476
ws	-3477
ENT	-3478
ITY	-3479
com	-3480
gin	-3481
oks	-3482
tra	-3483
▁"🔬	-3484
▁64	-3485
sort	-3486
▁Man	-3487
▁def	-3488
▁dri	-3489
▁has	-3490
UTION	-3491
ading	-3492
ordin	-3493
▁0.6,	-3494
▁plan	-3495
aching	-3496
delete	-3497
entang	-3498
hunger	-3499
orized	-3500
qstate	-3501
utdown	-3502
▁PHASE	-3503
▁video	-3504
UNCTION	-3505
conflic	-3506
elapsed	-3507
through	-3508
Training	-3509
launcher	-3510
▁default	-3511
▁shaping	-3512
▁keywords	-3513
algorithms	-3514
blockchain	-3515
▁Dashboard	-3516
▁Transform	-3517
▁workspace	-3518
▁prediction	-3519
mon	-3520
▁pa	-3521
bias	-3522
ided	-3523
ocab	-3524
▁'{"	-3525
▁Col	-3526
equal	-3527
ingle	-3528
▁100)	-3529
▁Dete	-3530
edding	-3531
losses	-3532
▁Trial	-3533
▁karma	-3534
▁speci	-3535
changed	-3536
circuit	-3537
erature	-3538
segment	-3539
▁params	-3540
▁values	-3541
discrete	-3542
executor	-3543
parallel	-3544
protocol	-3545
rategies	-3546
▁outcome	-3547
dangerous	-3548
objective	-3549
▁Analysis	-3550
▁solution	-3551
▁fibonacci	-3552
definitions	-3553
simulations	-3554
▁interaction	-3555
▁hypercomplex	-3556
Lo	-3557
gb	-3558
---	-3559
END	-3560
ared	-3561
▁ext	-3562
proxy	-3563
riter	-3564
▁comm	-3565
▁grad	-3566
charAt	-3567
mbined	-3568
propag	-3569
raping	-3570
second	-3571
trends	-3572
(0.707,	-3573
algebra	-3574
invalid	-3575
loading	-3576
routing	-3577
upgrade	-3578
▁exists	-3579
examples	-3580
▁initial	-3581
▁numbers	-3582
extracted	-3583
▁FUNCTION	-3584
comparison	-3585
▁Processor	-3586
▁conscious	-3587
probability	-3588
▁registered	-3589
reinforcements	-3590
▁✅	-3591
SET	-3592
ide	-3593
▁"🔐	-3594
▁bu	-3595
▁::_	-3596
▁sha	-3597
group	-3598
heads	-3599
iling	-3600
▁0.02	-3601
▁Stop	-3602
▁peer	-3603
Number	-3604
aggreg	-3605
resent	-3606
▁basic	-3607
▁trace	-3608
▁trust	-3609
guments	-3610
headers	-3611
trimmed	-3612
▁column	-3613
▁launch	-3614
▁layers	-3615
▁points	-3616
▁Default	-3617
▁seconds	-3618
indicators	-3619
▁gradients	-3620
registrations	-3621
▁superposition	-3622
HI	-3623
Li	-3624
go	-3625
ILD	-3626
arg	-3627
clo	-3628
▁${	-3629
▁Al	-3630
Math	-3631
UILD	-3632
bell	-3633
cing	-3634
deep	-3635
norm	-3636
▁eff	-3637
▁exp	-3638
cause	-3639
iness	-3640
masks	-3641
▁Save	-3642
▁Time	-3643
▁mean	-3644
▁stop	-3645
andbox	-3646
scrape	-3647
ysical	-3648
▁Count	-3649
▁Route	-3650
▁suite	-3651
▁qstate	-3652
esthetic	-3653
orphisms	-3654
template	-3655
▁SUCCESS	-3656
▁addgoal	-3657
▁allowed	-3658
selection	-3659
▁required	-3660
authorized	-3661
▁parameter	-3662
▁signature	-3663
environment	-3664
volutionary	-3665
▁structures	-3666
▁Entanglement	-3667
▁optimizations	-3668
55	-3669
.",	-3670
OUS	-3671
Reg	-3672
SON	-3673
sig	-3674
▁30	-3675
▁80	-3676
▁my	-3677
Time	-3678
izes	-3679
leep	-3680
▁Dis	-3681
slots	-3682
▁used	-3683
portun	-3684
syntax	-3685
theses	-3686
▁Confi	-3687
percent	-3688
vidence	-3689
counters	-3690
hashrate	-3691
temporal	-3692
▁Compute	-3693
▁scanner	-3694
allocated	-3695
generator	-3696
▁Checking	-3697
▁concepts	-3698
▁received	-3699
detections	-3700
extensions	-3701
▁alignment	-3702
▁narrative	-3703
▁information	-3704
▁operational	-3705
bin	-3706
qrt	-3707
▁"🔥	-3708
▁$3	-3709
▁Pl	-3710
▁{\	-3711
like	-3712
tags	-3713
Optim	-3714
ithme	-3715
scape	-3716
vised	-3717
▁more	-3718
▁move	-3719
▁need	-3720
▁send	-3721
etrics	-3722
flight	-3723
frames	-3724
guided	-3725
idates	-3726
karmic	-3727
▁calls	-3728
▁reset	-3729
▁stack	-3730
omation	-3731
▁device	-3732
▁mining	-3733
Strategy	-3734
analyzed	-3735
ithmetic	-3736
▁0.707);	-3737
▁Forward	-3738
▁backend	-3739
▁logical	-3740
▁optimal	-3741
▁samples	-3742
entangled	-3743
▁multiple	-3744
▁mutation	-3745
▁Execution	-3746
▁retrieval	-3747
▁retrieved	-3748
replacement	-3749
▁comparison	-3750
intervention	-3751
ocumentation	-3752
consolidation	-3753
▁instructions	-3754
generalization	-3755
77	-3756
Of	-3757
Se	-3758
][	-3759
AIL	-3760
cho	-3761
cip	-3762
cos	-3763
ene	-3764
geo	-3765
wid	-3766
▁13	-3767
▁22	-3768
▁7,	-3769
▁LA	-3770
Data	-3771
_1",	-3772
duce	-3773
hods	-3774
seek	-3775
tice	-3776
ween	-3777
▁[1,	-3778
▁you	-3779
lates	-3780
metry	-3781
retry	-3782
vides	-3783
watch	-3784
▁Mess	-3785
▁auth	-3786
▁cols	-3787
assemb	-3788
assert	-3789
crease	-3790
grover	-3791
refine	-3792
timate	-3793
▁0.85,	-3794
▁voice	-3795
entient	-3796
symbols	-3797
▁detect	-3798
▁labels	-3799
▁record	-3800
▁stream	-3801
baseline	-3802
interpre	-3803
▁Running	-3804
▁trigger	-3805
frequency	-3806
iteration	-3807
▁examples	-3808
▁operands	-3809
▁Analytics	-3810
▁amplitude	-3811
▁correction	-3812
▁strategies	-3813
▁instruction	-3814
▁recognition	-3815
($	-3816
8)	-3817
AT	-3818
An	-3819
_3	-3820
gp	-3821
API	-3822
rit	-3823
txt	-3824
▁cl	-3825
aint	-3826
arge	-3827
clus	-3828
geom	-3829
sent	-3830
▁iss	-3831
00000	-3832
ented	-3833
mises	-3834
pqvpn	-3835
▁0.2,	-3836
▁Skip	-3837
▁role	-3838
export	-3839
grator	-3840
nation	-3841
summar	-3842
▁Clean	-3843
▁INTER	-3844
▁Layer	-3845
▁Train	-3846
▁blocks	-3847
▁header	-3848
▁sample	-3849
episodic	-3850
required	-3851
searches	-3852
▁applied	-3853
▁entropy	-3854
▁Retrieved	-3855
▁universal	-3856
declaration	-3857
▁functionality	-3858
2:	-3859
Ad	-3860
CO	-3861
vo	-3862
"}'	-3863
ARY	-3864
Per	-3865
ama	-3866
aos	-3867
ark	-3868
dle	-3869
ick	-3870
isi	-3871
lay	-3872
▁Or	-3873
▁Su	-3874
ally	-3875
cast	-3876
dims	-3877
limi	-3878
▁off	-3879
cuits	-3880
efore	-3881
iddle	-3882
vious	-3883
yment	-3884
▁100,	-3885
▁Calc	-3886
▁EXEC	-3887
counts	-3888
remove	-3889
▁graph	-3890
Literal	-3891
derstand	-3892
ocuments	-3893
▁1000000	-3894
▁Context	-3895
▁started	-3896
automatic	-3897
existence	-3898
restructu	-3899
storyline	-3900
▁encoding	-3901
▁external	-3902
▁messages	-3903
▁OPERATION	-3904
▁questions	-3905
▁responses	-3906
3]	-3907
LO	-3908
OK	-3909
To	-3910
**:	-3911
48,	-3912
64_	-3913
:")	-3914
day	-3915
rbp	-3916
▁'\	-3917
▁AN	-3918
▁DE	-3919
▁He	-3920
▁IS	-3921
][::	-3922
cold	-3923
demo	-3924
else	-3925
ject	-3926
zing	-3927
▁RUN	-3928
▁std	-3929
Gener	-3930
oring	-3931
plore	-3932
recur	-3933
ferred	-3934
hpqvpn	-3935
▁Voice	-3936
tensors	-3937
▁Target	-3938
▁verify	-3939
rollback	-3940
selected	-3941
▁QUANTUM	-3942
▁Results	-3943
▁between	-3944
▁timeout	-3945
▁tracker	-3946
▁Schedule	-3947
▁Variable	-3948
▁requires	-3949
▁variance	-3950
▁endpoints	-3951
utilization	-3952
initialization	-3953
▁recommendations	-3954
UT	-3955
au	-3956
🛡️	-3957
.0)	-3958
ESS	-3959
For	-3960
SCI	-3961
]);	-3962
▁"📚	-3963
▁CA	-3964
▁fl	-3965
▁it	-3966
($1)	-3967
((::	-3968
area	-3969
arly	-3970
etry	-3971
olic	-3972
phdr	-3973
rele	-3974
▁")"	-3975
▁Pre	-3976
▁});	-3977
ained	-3978
aster	-3979
drift	-3980
ename	-3981
vaddr	-3982
▁modi	-3983
▁than	-3984
adcast	-3985
adjust	-3986
driven	-3987
inuity	-3988
qchain	-3989
single	-3990
stance	-3991
tested	-3992
▁gates	-3993
ception	-3994
coordin	-3995
▁assert	-3996
▁trends	-3997
attempts	-3998
infinite	-3999
manifest	-4000
▁Parsing	-4001
▁concept	-4002
▁elapsed	-4003
▁perform	-4004
▁profile	-4005
cheduling	-4006
simulated	-4007
supported	-4008
▁Handling	-4009
▁temporal	-4010
benchmarks	-4011
modulation	-4012
▁curiosity	-4013
certificate	-4014
▁benchmarks	-4015
▁suggestions	-4016
ui	-4017
1.0	-4018
:",	-4019
?",	-4020
BIL	-4021
_72	-4022
ade	-4023
arr	-4024
▁5)	-4025
▁EN	-4026
Case	-4027
adam	-4028
ater	-4029
ings	-4030
left	-4031
tell	-4032
▁src	-4033
▁top	-4034
▁url	-4035
Class	-4036
shift	-4037
super	-4038
▁"1")	-4039
▁0.1,	-4040
▁Date	-4041
▁cand	-4042
▁echo	-4043
▁tags	-4044
builds	-4045
▁PAdic	-4046
▁alloc	-4047
▁drive	-4048
▁trend	-4049
etailed	-4050
novelty	-4051
ressive	-4052
working	-4053
ysproxy	-4054
▁single	-4055
Creating	-4056
imension	-4057
manifold	-4058
▁Pattern	-4059
▁compute	-4060
▁latency	-4061
classical	-4062
iddleware	-4063
uggestion	-4064
validated	-4065
▁Accuracy	-4066
▁Security	-4067
▁detection	-4068
▁executable	-4069
▁experience	-4070
▁computation	-4071
▁expressions	-4072
ReasoningContext	-4073
Sc	-4074
fl	-4075
("❌	-4076
():	-4077
24,	-4078
HOS	-4079
dio	-4080
▁'"	-4081
▁8:	-4082
▁[{	-4083
▁fd	-4084
.0.0	-4085
ible	-4086
imag	-4087
usic	-4088
▁Ass	-4089
▁Sim	-4090
▁Upd	-4091
▁idx	-4092
▁mer	-4093
▁mod	-4094
▁mov	-4095
▁vec	-4096
("===	-4097
...")	-4098
compo	-4099
gates	-4100
rowth	-4101
▁Full	-4102
▁list	-4103
Object	-4104
accept	-4105
itcoin	-4106
reater	-4107
sample	-4108
writer	-4109
▁Weigh	-4110
▁logic	-4111
HOSTING	-4112
encoded	-4113
parsing	-4114
pending	-4115
▁Detect	-4116
▁metric	-4117
▁repair	-4118
▁stored	-4119
anguages	-4120
scraping	-4121
▁commands	-4122
▁snapshot	-4123
assignment	-4124
encryption	-4125
entication	-4126
▁Cognitive	-4127
▁Optimizer	-4128
▁existence	-4129
▁predicted	-4130
consequence	-4131
▁Triggering	-4132
▁Initialized	-4133
▁effectiveness	-4134
(4	-4135
SI	-4136
tx	-4137
ILE	-4138
ORY	-4139
Ret	-4140
ong	-4141
tup	-4142
ues	-4143
▁ha	-4144
hits	-4145
itch	-4146
logs	-4147
mpty	-4148
olve	-4149
repe	-4150
▁Map	-4151
Model	-4152
brace	-4153
digit	-4154
vider	-4155
▁Show	-4156
▁auto	-4157
▁root	-4158
▁scan	-4159
Cosmic	-4160
append	-4161
curred	-4162
header	-4163
priate	-4164
recogn	-4165
sorted	-4166
▁Suite	-4167
▁Token	-4168
Unknown	-4169
healthy	-4170
parsers	-4171
reflect	-4172
▁Bridge	-4173
▁future	-4174
▁needed	-4175
▁speech	-4176
deepseek	-4177
▁Measure	-4178
▁updates	-4179
▁interpre	-4180
▁interval	-4181
▁Coherence	-4182
▁FUNCTIONS	-4183
convergence	-4184
▁Statistics	-4185
▁autonomous	-4186
▁PAdicNumber	-4187
▁introspection	-4188
▁visualization	-4189
▁transformations	-4190
No	-4191
TS	-4192
🏗️	-4193
llm	-4194
pid	-4195
rcx	-4196
▁17	-4197
▁>>	-4198
brot	-4199
clip	-4200
fade	-4201
imal	-4202
vate	-4203
▁"🏗️	-4204
▁---	-4205
▁GPU	-4206
▁old	-4207
▁ref	-4208
▁web	-4209
ONENT	-4210
PABIL	-4211
alies	-4212
olean	-4213
reply	-4214
struc	-4215
usted	-4216
while	-4217
▁0.0)	-4218
▁0.0;	-4219
▁flow	-4220
▁pers	-4221
System	-4222
ircuit	-4223
mented	-4224
ressor	-4225
▁0.92,	-4226
▁prime	-4227
Testing	-4228
Unified	-4229
collect	-4230
delbrot	-4231
itiated	-4232
literal	-4233
seconds	-4234
▁Actual	-4235
▁agents	-4236
▁before	-4237
▁safety	-4238
▁typeof	-4239
fficient	-4240
matching	-4241
utations	-4242
▁Metrics	-4243
▁actions	-4244
▁quality	-4245
▁without	-4246
Component	-4247
embedding	-4248
endpoints	-4249
gradients	-4250
localhost	-4251
▁Compiler	-4252
▁backward	-4253
Creativity	-4254
integrator	-4255
planations	-4256
▁Bootstrap	-4257
▁subsystem	-4258
alternative	-4259
development	-4260
▁Understand	-4261
▁capability	-4262
▁functional	-4263
visualization	-4264
5)	-4265
_1	-4266
Low	-4267
ORT	-4268
TER	-4269
▁"💬	-4270
▁"📡	-4271
▁"🤖	-4272
▁45	-4273
▁Fe	-4274
▁VM	-4275
PEND	-4276
PORT	-4277
Self	-4278
mall	-4279
sqrt	-4280
▁"%"	-4281
▁":"	-4282
▁"}"	-4283
▁cli	-4284
▁spa	-4285
ERNEL	-4286
deplo	-4287
fiers	-4288
incar	-4289
olicy	-4290
organ	-4291
ructu	-4292
sizes	-4293
spawn	-4294
unnel	-4295
▁"\""	-4296
▁POST	-4297
▁have	-4298
PENDEN	-4299
▁Multi	-4300
▁lower	-4301
▁retry	-4302
▁words	-4303
empathy	-4304
ilarity	-4305
targets	-4306
tractor	-4307
▁Search	-4308
▁factor	-4309
▁sender	-4310
circuits	-4311
entities	-4312
operands	-4313
templates	-4314
▁Optimize	-4315
▁capacity	-4316
▁classical	-4317
▁utterance	-4318
▁Components	-4319
▁INITIALIZED	-4320
▁constraints	-4321
66	-4322
GB	-4323
LF	-4324
mh	-4325
▁u	-4326
(",	-4327
(1)	-4328
32"	-4329
UST	-4330
ber	-4331
fir	-4332
mes	-4333
oll	-4334
ris	-4335
rsp	-4336
sen	-4337
tag	-4338
▁Hy	-4339
▁ms	-4340
ause	-4341
cell	-4342
gpus	-4343
rier	-4344
▁0))	-4345
▁\""	-4346
▁abo	-4347
▁cpu	-4348
aniti	-4349
first	-4350
rates	-4351
scope	-4352
▁Util	-4353
SCIOUS	-4354
lining	-4355
respon	-4356
sitive	-4357
termin	-4358
zation	-4359
classes	-4360
sandbox	-4361
▁0.025,	-4362
▁Health	-4363
▁scores	-4364
▁syntax	-4365
analyses	-4366
clipping	-4367
prioriti	-4368
▁Control	-4369
▁primary	-4370
activated	-4371
establish	-4372
questions	-4373
triggered	-4374
▁Identify	-4375
▁launcher	-4376
aggregated	-4377
normalized	-4378
signatures	-4379
▁computing	-4380
▁Monitoring	-4381
▁algorithms	-4382
▁encryption	-4383
▁innovation	-4384
▁explanation	-4385
▁verification	-4386
counterfactual	-4387
('	-4388
1]	-4389
84	-4390
De	-4391
GE	-4392
OL	-4393
pt	-4394
));	-4395
64"	-4396
pop	-4397
▁6,	-4398
▁MA	-4399
▁[1	-4400
[1].	-4401
asis	-4402
chie	-4403
idle	-4404
moke	-4405
sted	-4406
▁Try	-4407
▁pid	-4408
atmap	-4409
delta	-4410
▁1024	-4411
▁info	-4412
▁will	-4413
Engine	-4414
encode	-4415
isited	-4416
runner	-4417
▁0.0],	-4418
▁Reset	-4419
▁early	-4420
▁fully	-4421
▁obser	-4422
▁order	-4423
▁title	-4424
▁trans	-4425
cellent	-4426
garbage	-4427
hysical	-4428
learned	-4429
▁KERNEL	-4430
▁backup	-4431
▁charac	-4432
▁socket	-4433
introspe	-4434
networks	-4435
stablish	-4436
▁CAPABIL	-4437
▁Problem	-4438
alternate	-4439
behaviors	-4440
resources	-4441
▁Updating	-4442
▁integrate	-4443
incarnation	-4444
portunities	-4445
transaction	-4446
▁continuous	-4447
AB	-4448
gy	-4449
hw	-4450
}\	-4451
("🚀	-4452
=",	-4453
ULL	-4454
▁"⏳	-4455
▁"🌐	-4456
▁11	-4457
▁Po	-4458
▁Sc	-4459
▁}]	-4460
NING	-4461
WORK	-4462
ends	-4463
homo	-4464
lang	-4465
null	-4466
▁0..	-4467
▁12,	-4468
▁clo	-4469
annel	-4470
early	-4471
field	-4472
ident	-4473
▁0.3,	-4474
▁200)	-4475
▁JSON	-4476
▁RUST	-4477
▁Size	-4478
▁exit	-4479
chains	-4480
checks	-4481
digits	-4482
kipped	-4483
linear	-4484
olving	-4485
▁Score	-4486
▁adapt	-4487
▁story	-4488
feature	-4489
▁Direct	-4490
▁routes	-4491
▁Quality	-4492
▁coordin	-4493
Executing	-4494
candidate	-4495
▁Pipeline	-4496
continuity	-4497
▁Continuous	-4498
▁extraction	-4499
▁simplified	-4500
communication	-4501
perdimensional	-4502
▁ReasoningType	-4503
▁Understanding	-4504
pc	-4505
xC	-4506
=0.	-4507
upl	-4508
ymm	-4509
▁($	-4510
▁19	-4511
(10,	-4512
ases	-4513
food	-4514
keep	-4515
mise	-4516
uman	-4517
usal	-4518
▁"🛡️	-4519
Brace	-4520
added	-4521
archy	-4522
calls	-4523
close	-4524
divid	-4525
false	-4526
ggers	-4527
posed	-4528
reser	-4529
terms	-4530
vided	-4531
volve	-4532
▁scal	-4533
RATION	-4534
column	-4535
future	-4536
istral	-4537
routes	-4538
upling	-4539
▁alert	-4540
ditions	-4541
erarchy	-4542
lective	-4543
mediate	-4544
orities	-4545
rements	-4546
telling	-4547
vectors	-4548
▁Ensure	-4549
▁cached	-4550
▁policy	-4551
▁skills	-4552
cosystem	-4553
dividual	-4554
geometry	-4555
modified	-4556
potheses	-4557
reaching	-4558
solution	-4559
▁Message	-4560
consensus	-4561
responses	-4562
retrieval	-4563
▁artistic	-4564
▁question	-4565
▁universe	-4566
collection	-4567
executable	-4568
percentage	-4569
▁COMPLETED	-4570
▁directory	-4571
▁objective	-4572
▁restructu	-4573
▁permission	-4574
▁Calculating	-4575
▁correlation	-4576
1_	-4577
CT	-4578
ID	-4579
LP	-4580
__	-4581
MIT	-4582
gen	-4583
rhs	-4584
ria	-4585
ume	-4586
▁"🛑	-4587
▁*/	-4588
▁35	-4589
▁51	-4590
▁At	-4591
-1",	-4592
anti	-4593
imum	-4594
iven	-4595
mate	-4596
pare	-4597
swap	-4598
▁"("	-4599
▁0),	-4600
▁Out	-4601
▁SAM	-4602
▁hel	-4603
▁one	-4604
Right	-4605
adapt	-4606
paren	-4607
taken	-4608
topic	-4609
▁1.0)	-4610
▁cost	-4611
▁live	-4612
86_64"	-4613
Import	-4614
mentum	-4615
▁brain	-4616
▁demon	-4617
adamard	-4618
riteria	-4619
startup	-4620
vations	-4621
▁Select	-4622
▁altern	-4623
▁option	-4624
▁script	-4625
▁second	-4626
Learning	-4627
combined	-4628
homology	-4629
occurred	-4630
shutdown	-4631
▁Collect	-4632
▁Current	-4633
▁methods	-4634
morphisms	-4635
▁--------	-4636
▁creation	-4637
definition	-4638
innovation	-4639
perception	-4640
subsystems	-4641
supervised	-4642
▁automatic	-4643
associative	-4644
▁Operations	-4645
instructions	-4646
measurements	-4647
▁appropriate	-4648
▁Intelligence	-4649
▁teleportation	-4650
45	-4651
If	-4652
da	-4653
dx	-4654
INE	-4655
PRE	-4656
ces	-4657
dro	-4658
msg	-4659
seq	-4660
tsv	-4661
ugg	-4662
yle	-4663
}",	-4664
▁27	-4665
▁28	-4666
)");	-4667
DENT	-4668
NESS	-4669
ants	-4670
hell	-4671
ient	-4672
reat	-4673
▁10)	-4674
▁[1.	-4675
▁ins	-4676
▁tok	-4677
ATIVE	-4678
appro	-4679
promp	-4680
share	-4681
▁202,	-4682
▁256,	-4683
▁Send	-4684
▁help	-4685
▁hour	-4686
▁show	-4687
Binary	-4688
Script	-4689
alance	-4690
latest	-4691
misses	-4692
▁"1.0"	-4693
▁1024,	-4694
▁Epoch	-4695
▁TESTS	-4696
▁cross	-4697
▁depth	-4698
cluster	-4699
correct	-4700
graphic	-4701
imprint	-4702
logging	-4703
▁entity	-4704
▁propag	-4705
backward	-4706
▁feature	-4707
▁warning	-4708
allocation	-4709
refinement	-4710
▁assembler	-4711
▁inference	-4712
collections	-4713
explanation	-4714
interactive	-4715
▁amplitudes	-4716
▁OPERATIONAL	-4717
▁definitions	-4718
documentation	-4719
1/	-4720
95	-4721
)),	-4722
ial	-4723
mer	-4724
src	-4725
▁"+	-4726
▁"🚨	-4727
▁EO	-4728
▁}\	-4729
Code	-4730
Expr	-4731
What	-4732
clar	-4733
ider	-4734
pose	-4735
scal	-4736
show	-4737
ulum	-4738
uron	-4739
▁Key	-4740
▁New	-4741
▁Sub	-4742
▁Syn	-4743
▁hot	-4744
▁rax	-4745
after	-4746
bonus	-4747
chaos	-4748
gramm	-4749
perty	-4750
print	-4751
speed	-4752
▁Auto	-4753
▁Call	-4754
▁Rate	-4755
▁Soul	-4756
▁zero	-4757
PRETER	-4758
attice	-4759
choice	-4760
equals	-4761
fields	-4762
gument	-4763
justed	-4764
skills	-4765
▁split	-4766
binding	-4767
riculum	-4768
solving	-4769
▁0.01);	-4770
▁Output	-4771
▁attemp	-4772
▁karmic	-4773
conflict	-4774
dispatch	-4775
ferences	-4776
▁Structu	-4777
▁Waiting	-4778
▁example	-4779
▁penalty	-4780
aphysical	-4781
attractor	-4782
lographic	-4783
periments	-4784
▁Adaptive	-4785
▁Registry	-4786
▁construc	-4787
▁specific	-4788
dependency	-4789
vectorized	-4790
▁CONSCIOUS	-4791
▁Determine	-4792
▁Functions	-4793
▁iteration	-4794
▁Generation	-4795
▁difficulty	-4796
▁understand	-4797
hypercomplex	-4798
▁INTERPRETER	-4799
▁improvements	-4800
▁initializing	-4801
0_	-4802
65	-4803
8:	-4804
rm	-4805
2",	-4806
CED	-4807
IFI	-4808
The	-4809
\",	-4810
her	-4811
ism	-4812
}")	-4813
▁23	-4814
▁Op	-4815
▁UN	-4816
▁os	-4817
find	-4818
ling	-4819
reed	-4820
utes	-4821
▁...	-4822
▁256	-4823
▁MEM	-4824
▁abs	-4825
ecure	-4826
fixed	-4827
igned	-4828
moved	-4829
▁0.5)	-4830
▁INDE	-4831
▁INTE	-4832
▁Java	-4833
▁Move	-4834
andles	-4835
escape	-4836
fusion	-4837
gative	-4838
ritten	-4839
verify	-4840
verity	-4841
▁Debug	-4842
▁decay	-4843
▁perio	-4844
Invalid	-4845
ceptual	-4846
indexOf	-4847
windows	-4848
▁Launch	-4849
▁Report	-4850
▁impact	-4851
▁indent	-4852
▁remove	-4853
▁starts	-4854
Variable	-4855
clusions	-4856
encoding	-4857
mination	-4858
proposed	-4859
research	-4860
selector	-4861
▁empathy	-4862
▁keyword	-4863
▁mapping	-4864
Evolution	-4865
ythingllm	-4866
▁reversal	-4867
▁warnings	-4868
Processing	-4869
expressive	-4870
lification	-4871
management	-4872
▁COMPONENT	-4873
▁Dimension	-4874
▁Evolution	-4875
▁Generated	-4876
▁executing	-4877
▁framework	-4878
temperature	-4879
▁JavaScript	-4880
▁importance	-4881
▁integrated	-4882
significance	-4883
unauthorized	-4884
▁unavailable	-4885
▁Implementation	-4886
▁multiplication	-4887
',	-4888
2"	-4889
=$	-4890
kd	-4891
▁.	-4892
678	-4893
deg	-4894
err	-4895
▁"-	-4896
▁"<	-4897
▁"|	-4898
▁"🎭	-4899
▁"🔢	-4900
▁29	-4901
▁38	-4902
▁60	-4903
▁NE	-4904
▁SE	-4905
([["	-4906
Loop	-4907
TIME	-4908
bbox	-4909
dest	-4910
earn	-4911
free	-4912
ince	-4913
sage	-4914
scan	-4915
then	-4916
ulia	-4917
weep	-4918
▁"-"	-4919
▁/**	-4920
▁200	-4921
▁NLP	-4922
▁Spe	-4923
▁Sum	-4924
▁[])	-4925
▁env	-4926
▁ram	-4927
Error	-4928
Lower	-4929
obser	-4930
witch	-4931
▁Path	-4932
▁Sort	-4933
▁only	-4934
Return	-4935
duplic	-4936
limits	-4937
person	-4938
review	-4939
▁100).	-4940
▁Corre	-4941
▁Valid	-4942
▁sleep	-4943
OLUTION	-4944
checked	-4945
pisodic	-4946
▁Module	-4947
▁Return	-4948
▁issues	-4949
▁loader	-4950
▁phases	-4951
▁tunnel	-4952
coupling	-4953
external	-4954
failures	-4955
handling	-4956
sitivity	-4957
▁Complex	-4958
encrypted	-4959
excellent	-4960
preferred	-4961
▁Continue	-4962
▁Response	-4963
▁Strategy	-4964
▁fidelity	-4965
▁infinite	-4966
▁provides	-4967
▁sections	-4968
▁tokenize	-4969
▁contextId	-4970
▁intensity	-4971
▁readiness	-4972
verification	-4973
▁Orchestrator	-4974
0000000000000000	-4975
19	-4976
AC	-4977
Or	-4978
▁🧠	-4979
🔥🔥	-4980
ALL	-4981
NOT	-4982
pow	-4983
pub	-4984
qkd	-4985
vio	-4986
▁"*	-4987
▁";	-4988
▁"💡	-4989
▁33	-4990
▁If	-4991
▁pr	-4992
Emit	-4993
Path	-4994
UNCH	-4995
dead	-4996
diag	-4997
duct	-4998
perf	-4999
relu	-5000
rict	-5001
▁Cha	-5002
▁DEM	-5003
▁ELF	-5004
▁Uni	-5005
▁}",	-5006
Array	-5007
BUILD	-5008
acket	-5009
drome	-5010
every	-5011
fused	-5012
logic	-5013
style	-5014
width	-5015
▁0.1)	-5016
▁Back	-5017
▁Task	-5018
▁WORK	-5019
▁cold	-5020
▁pool	-5021
andard	-5022
cation	-5023
gether	-5024
global	-5025
mechan	-5026
tional	-5027
uggest	-5028
▁hooks	-5029
▁paren	-5030
▁quick	-5031
▁tasks	-5032
Handler	-5033
changes	-5034
livered	-5035
present	-5036
toLower	-5037
▁Intent	-5038
▁MEMORY	-5039
▁hybrid	-5040
▁upload	-5041
assemble	-5042
cheduler	-5043
multiply	-5044
ractions	-5045
▁Command	-5046
▁SECTION	-5047
▁Unknown	-5048
▁Utility	-5049
▁Working	-5050
▁circuit	-5051
▁improve	-5052
▁modules	-5053
▁urgency	-5054
▁workers	-5055
connector	-5056
evaluated	-5057
iterative	-5058
languages	-5059
listeners	-5060
▁topology	-5061
compressor	-5062
hypothesis	-5063
throughput	-5064
▁Interface	-5065
▁aesthetic	-5066
▁behaviors	-5067
▁correctly	-5068
▁indicator	-5069
toLowerCase	-5070
▁hypothesis	-5071
restructured	-5072
▁mathematics	-5073
▁predictions	-5074
20	-5075
28	-5076
PE	-5077
Th	-5078
lr	-5079
wo	-5080
###	-5081
NTA	-5082
]])	-5083
`);	-5084
anh	-5085
hal	-5086
ood	-5087
squ	-5088
uch	-5089
▁9:	-5090
▁SI	-5091
▁}"	-5092
(0))	-5093
([::	-5094
1000	-5095
FFFF	-5096
File	-5097
ideo	-5098
plot	-5099
▁"";	-5100
▁$::	-5101
▁Dep	-5102
▁GEN	-5103
▁gro	-5104
▁rel	-5105
Apply	-5106
chron	-5107
incip	-5108
inner	-5109
large	-5110
mount	-5111
rtual	-5112
utral	-5113
vocab	-5114
▁"0")	-5115
▁bias	-5116
▁prob	-5117
energy	-5118
oldown	-5119
riched	-5120
ssible	-5121
timing	-5122
upport	-5123
▁Usage	-5124
▁achie	-5125
▁scope	-5126
▁vocab	-5127
allback	-5128
connect	-5129
display	-5130
imports	-5131
mistral	-5132
▁String	-5133
▁delete	-5134
▁filter	-5135
▁proper	-5136
Language	-5137
VOLUTION	-5138
artistic	-5139
continue	-5140
inciples	-5141
profiles	-5142
tokenize	-5143
validity	-5144
▁beliefs	-5145
▁logging	-5146
▁monitor	-5147
scheduled	-5148
▁demonstr	-5149
▁evidence	-5150
▁requests	-5151
▁selected	-5152
▁together	-5153
candidates	-5154
clarations	-5155
resolution	-5156
similarity	-5157
violations	-5158
▁Emotional	-5159
▁stability	-5160
association	-5161
significant	-5162
▁blockchain	-5163
▁permissions	-5164
ClassDeclaration	-5165
Po	-5166
SC	-5167
VI	-5168
do	-5169
⚙️	-5170
!\"	-5171
(0)	-5172
GPU	-5173
Run	-5174
abs	-5175
aug	-5176
bil	-5177
hel	-5178
phi	-5179
▁"🎁	-5180
▁26	-5181
▁3)	-5182
▁76	-5183
FAIL	-5184
OKEN	-5185
This	-5186
atis	-5187
beta	-5188
ffer	-5189
hite	-5190
loat	-5191
mell	-5192
neal	-5193
orch	-5194
sequ	-5195
side	-5196
▁"0"	-5197
▁"\\	-5198
▁ASS	-5199
▁arg	-5200
Equal	-5201
fined	-5202
▁0.4,	-5203
▁Best	-5204
▁MODE	-5205
▁Qwen	-5206
▁anom	-5207
▁dead	-5208
▁open	-5209
▁tick	-5210
ENDENT	-5211
alized	-5212
cepted	-5213
denied	-5214
ential	-5215
ground	-5216
repeti	-5217
stable	-5218
▁0.98,	-5219
▁Stats	-5220
▁about	-5221
▁every	-5222
▁local	-5223
▁rules	-5224
▁watch	-5225
cleaned	-5226
defined	-5227
filters	-5228
initial	-5229
▁LAUNCH	-5230
▁Stored	-5231
▁select	-5232
▁shared	-5233
▁vision	-5234
▁within	-5235
constant	-5236
exchange	-5237
filename	-5238
refactor	-5239
▁Fractal	-5240
▁Overall	-5241
Emotional	-5242
abilities	-5243
▁Backward	-5244
▁Progress	-5245
▁directly	-5246
▁failures	-5247
▁proposal	-5248
automation	-5249
deployment	-5250
engagement	-5251
meaningful	-5252
sufficient	-5253
▁arguments	-5254
▁violation	-5255
VOLUTIONARY	-5256
▁allocation	-5257
▁antecedent	-5258
------------	-5259
mathematical	-5260
▁Compression	-5261
▁consistency	-5262
▁metacognitive	-5263
22	-5264
76	-5265
Ac	-5266
EV	-5267
LY	-5268
MB	-5269
OP	-5270
ao	-5271
eb	-5272
").	-5273
"].	-5274
256	-5275
HAN	-5276
TIC	-5277
acc	-5278
fac	-5279
fra	-5280
hip	-5281
ilt	-5282
lhs	-5283
pgo	-5284
▁"{	-5285
▁"⏰	-5286
▁"🗑	-5287
▁ma	-5288
ggle	-5289
hard	-5290
mini	-5291
▁'"'	-5292
▁2.0	-5293
▁GET	-5294
▁art	-5295
▁bus	-5296
▁ffi	-5297
▁mag	-5298
clear	-5299
hooks	-5300
isted	-5301
izing	-5302
tools	-5303
under	-5304
▁High	-5305
▁both	-5306
▁func	-5307
▁mark	-5308
▁rest	-5309
▁util	-5310
amount	-5311
atural	-5312
bility	-5313
domain	-5314
finish	-5315
images	-5316
reeter	-5317
saniti	-5318
▁0.000	-5319
▁0.94,	-5320
▁Found	-5321
▁Input	-5322
▁Linux	-5323
▁bound	-5324
▁imple	-5325
▁items	-5326
▁world	-5327
limited	-5328
tracked	-5329
versity	-5330
visited	-5331
▁Daemon	-5332
▁Normal	-5333
▁praise	-5334
allocate	-5335
distance	-5336
endsWith	-5337
▁Storage	-5338
▁adapter	-5339
▁binding	-5340
▁conflic	-5341
▁encoded	-5342
▁machine	-5343
arguments	-5344
hierarchy	-5345
integrate	-5346
recursive	-5347
retention	-5348
▁SUCCESSF	-5349
▁detailed	-5350
▁listener	-5351
▁previous	-5352
middleware	-5353
▁Analyzing	-5354
▁Compiling	-5355
▁EXECUTION	-5356
▁Normalize	-5357
▁documents	-5358
anythingllm	-5359
▁Reflection	-5360
▁collection	-5361
▁compressed	-5362
▁iterations	-5363
▁normalized	-5364
▁properties	-5365
Initializing	-5366
explanations	-5367
▁declaration	-5368
▁implemented	-5369
▁generalization	-5370
'"	-5371
05	-5372
SA	-5373
br	-5374
jp	-5375
("🧠	-5376
16_	-5377
=="	-5378
MAR	-5379
SUL	-5380
VER	-5381
buf	-5382
des	-5383
jpg	-5384
mal	-5385
mts	-5386
oid	-5387
ome	-5388
tok	-5389
tts	-5390
▁"🏆	-5391
▁48	-5392
▁Li	-5393
COMP	-5394
INAL	-5395
ROLE	-5396
STRA	-5397
Step	-5398
ULLY	-5399
aken	-5400
amic	-5401
atio	-5402
chem	-5403
ethi	-5404
illi	-5405
made	-5406
mage	-5407
▁"⚙️	-5408
▁"🗑️	-5409
▁30,	-5410
▁50,	-5411
▁512	-5412
▁[0,	-5413
▁buf	-5414
▁ctx	-5415
▁dig	-5416
▁slo	-5417
LIMIT	-5418
Learn	-5419
audio	-5420
basis	-5421
scene	-5422
specs	-5423
tiled	-5424
▁ACHI	-5425
▁down	-5426
▁your	-5427
86_64_	-5428
detect	-5429
direct	-5430
ethics	-5431
leneck	-5432
▁0.001	-5433
▁0.89,	-5434
▁0.91,	-5435
▁10000	-5436
▁Array	-5437
▁INTEG	-5438
▁Ratio	-5439
▁cause	-5440
▁times	-5441
Enhance	-5442
heatmap	-5443
jectory	-5444
nealing	-5445
▁NATIVE	-5446
▁associ	-5447
▁secure	-5448
gramming	-5449
identify	-5450
momentum	-5451
▁Average	-5452
▁Replace	-5453
▁already	-5454
▁attempt	-5455
▁enhance	-5456
▁present	-5457
conflicts	-5458
converged	-5459
decisions	-5460
duplicate	-5461
flections	-5462
▁networks	-5463
▁premises	-5464
▁recovery	-5465
▁replaced	-5466
▁sysproxy	-5467
▁workflow	-5468
adjustment	-5469
filesystem	-5470
▁Benchmark	-5471
▁Integrate	-5472
▁configure	-5473
▁scheduled	-5474
illiseconds	-5475
sensitivity	-5476
▁Autonomous	-5477
▁characters	-5478
▁dependency	-5479
▁subsystems	-5480
▁thresholds	-5481
▁certificate	-5482
▁constructor	-5483
▁CONSCIOUSNESS	-5484
▁REVOLUTIONARY	-5485
▁Transformation	-5486
(`	-5487
01	-5488
8_	-5489
9"	-5490
92	-5491
96	-5492
HE	-5493
Pl	-5494
ln	-5495
xF	-5496
},	-5497
▁•	-5498
▁📊	-5499
!",	-5500
("🎯	-5501
ACE	-5502
Key	-5503
ROR	-5504
Ref	-5505
[3]	-5506
acy	-5507
ane	-5508
cor	-5509
ffn	-5510
ium	-5511
mpo	-5512
ond	-5513
ptr	-5514
rdi	-5515
▁"🔮	-5516
▁34	-5517
▁8)	-5518
▁do	-5519
▁fs	-5520
bits	-5521
ifur	-5522
pect	-5523
runs	-5524
sert	-5525
▁500	-5526
▁PAR	-5527
▁Pri	-5528
▁Spa	-5529
▁[--	-5530
▁may	-5531
▁upd	-5532
Confi	-5533
Input	-5534
amper	-5535
elian	-5536
iases	-5537
lease	-5538
llama	-5539
macos	-5540
pauli	-5541
smell	-5542
ustom	-5543
▁(1.0	-5544
▁Bell	-5545
▁Byte	-5546
▁Read	-5547
▁fade	-5548
▁rows	-5549
▁sort	-5550
HANCED	-5551
anning	-5552
height	-5553
inline	-5554
listed	-5555
packet	-5556
stages	-5557
struct	-5558
uptime	-5559
▁0.01,	-5560
▁0.03,	-5561
▁0.93,	-5562
▁BUILD	-5563
▁[1.0,	-5564
▁clear	-5565
▁group	-5566
▁manif	-5567
achable	-5568
attempt	-5569
ctivity	-5570
exports	-5571
hashmap	-5572
lenecks	-5573
machine	-5574
premise	-5575
stopped	-5576
▁collab	-5577
▁reduce	-5578
86_64(::	-5579
Registry	-5580
accepted	-5581
evidence	-5582
roadcast	-5583
▁Systems	-5584
▁changes	-5585
▁channel	-5586
▁greater	-5587
▁invalid	-5588
▁trainer	-5589
Generated	-5590
efficient	-5591
tivations	-5592
▁greeting	-5593
▁independ	-5594
▁provided	-5595
▁retrieve	-5596
collective	-5597
ifurcation	-5598
integrated	-5599
suggestion	-5600
unexpected	-5601
versations	-5602
▁Universal	-5603
▁Verifying	-5604
▁candidate	-5605
▁determine	-5606
▁reinforce	-5607
▁relations	-5608
###########	-5609
▁CAPABILITY	-5610
▁Experience	-5611
▁Integrated	-5612
ForStatement	-5613
introspector	-5614
▁transaction	-5615
manifestation	-5616
▁collaboration	-5617
/"	-5618
/)	-5619
0:	-5620
13	-5621
1⟩	-5622
MO	-5623
PO	-5624
mn	-5625
rl	-5626
","	-5627
ATE	-5628
OOT	-5629
cts	-5630
dit	-5631
eld	-5632
eof	-5633
lab	-5634
nit	-5635
ocr	-5636
ose	-5637
rev	-5638
sav	-5639
sti	-5640
▁"%	-5641
▁"5	-5642
▁">	-5643
▁"📤	-5644
▁46	-5645
▁47	-5646
▁5.	-5647
▁Ap	-5648
NGUA	-5649
NTAX	-5650
PASS	-5651
aper	-5652
asyn	-5653
bind	-5654
ceed	-5655
cuda	-5656
gain	-5657
hips	-5658
moid	-5659
▁"{"	-5660
▁1))	-5661
▁10:	-5662
▁32,	-5663
▁AND	-5664
▁CLI	-5665
▁bin	-5666
▁eli	-5667
▁{",	-5668
Float	-5669
IFIED	-5670
TRAIN	-5671
ainty	-5672
bound	-5673
chema	-5674
cimal	-5675
freed	-5676
given	-5677
miner	-5678
other	-5679
sweep	-5680
toInt	-5681
▁""),	-5682
▁400,	-5683
▁Some	-5684
▁Topo	-5685
▁keep	-5686
UATION	-5687
fading	-5688
growth	-5689
inking	-5690
linker	-5691
marked	-5692
nitude	-5693
ollama	-5694
online	-5695
urpose	-5696
▁Cache	-5697
▁async	-5698
▁deplo	-5699
▁organ	-5700
▁saved	-5701
▁speed	-5702
adapted	-5703
clarity	-5704
lligent	-5705
neutral	-5706
related	-5707
restore	-5708
savings	-5709
▁LANGUA	-5710
▁SYNTAX	-5711
▁refine	-5712
▁regret	-5713
▁theory	-5714
▁window	-5715
Creative	-5716
MPLEMENT	-5717
agnostic	-5718
contexts	-5719
entroids	-5720
ertainty	-5721
hadamard	-5722
positive	-5723
simulate	-5724
▁Display	-5725
▁PROCESS	-5726
▁Request	-5727
▁bitcoin	-5728
▁listing	-5729
▁reasons	-5730
Awareness	-5731
Processor	-5732
delivered	-5733
mentation	-5734
relevance	-5735
▁Stopping	-5736
▁argument	-5737
▁modeling	-5738
RightBrace	-5739
converging	-5740
reinforced	-5741
▁triggered	-5742
composition	-5743
▁Expression	-5744
▁divergence	-5745
▁indicators	-5746
▁principles	-5747
▁temperature	-5748
reincarnation	-5749
▁declarations	-5750
▁communication	-5751
▁consolidation	-5752
▁transcendence	-5753
▁interpretation	-5754
""	-5755
?"	-5756
lc	-5757
⏱️	-5758
━"	-5759
(2)	-5760
833	-5761
Not	-5762
YTH	-5763
_64	-5764
any	-5765
asm	-5766
lta	-5767
ont	-5768
pha	-5769
▁AR	-5770
▁Av	-5771
▁Fi	-5772
▁Th	-5773
▁am	-5774
")),	-5775
Call	-5776
Item	-5777
TERN	-5778
_2",	-5779
cust	-5780
disp	-5781
ense	-5782
evel	-5783
less	-5784
memo	-5785
rest	-5786
yber	-5787
━━━"	-5788
▁"--	-5789
▁Def	-5790
▁MOD	-5791
▁ask	-5792
▁pad	-5793
▁wid	-5794
alice	-5795
aning	-5796
asing	-5797
async	-5798
aving	-5799
begin	-5800
brary	-5801
cross	-5802
delay	-5803
hello	-5804
inger	-5805
logue	-5806
scrib	-5807
teane	-5808
touch	-5809
uring	-5810
▁(!::	-5811
▁0.92	-5812
▁CODE	-5813
▁Flow	-5814
▁conn	-5815
▁hook	-5816
▁mock	-5817
86_64(	-5818
CodeAt	-5819
akness	-5820
bdepth	-5821
cdepth	-5822
custom	-5823
inputs	-5824
issued	-5825
istent	-5826
jected	-5827
lcmain	-5828
nested	-5829
public	-5830
select	-5831
threat	-5832
tivate	-5833
▁Clear	-5834
▁Demon	-5835
▁Frame	-5836
▁Steps	-5837
▁delta	-5838
▁empty	-5839
▁later	-5840
▁learn	-5841
▁strip	-5842
essment	-5843
evolved	-5844
explore	-5845
improve	-5846
limiter	-5847
maining	-5848
operand	-5849
refined	-5850
rewards	-5851
skipped	-5852
trained	-5853
▁0.001,	-5854
▁Hybrid	-5855
▁Plugin	-5856
▁offset	-5857
▁poetry	-5858
▁preser	-5859
▁timing	-5860
accessed	-5861
creasing	-5862
entified	-5863
existing	-5864
guration	-5865
sentient	-5866
▁Summary	-5867
▁balance	-5868
▁journal	-5869
▁manager	-5870
▁private	-5871
▁removed	-5872
▁routing	-5873
▁segment	-5874
▁trained	-5875
▁upgrade	-5876
broadcast	-5877
esthetics	-5878
mutations	-5879
processes	-5880
scheduler	-5881
▁compiled	-5882
▁constant	-5883
▁episodic	-5884
▁executor	-5885
▁settings	-5886
charCodeAt	-5887
conditions	-5888
functional	-5889
ingerprint	-5890
mandelbrot	-5891
▁activated	-5892
▁anomalies	-5893
▁assembled	-5894
▁initiated	-5895
interpreted	-5896
propagation	-5897
reflections	-5898
uncertainty	-5899
▁arithmetic	-5900
▁difference	-5901
FailedResult	-5902
▁coordinates	-5903
▁transformed	-5904
MPLEMENTATION	-5905
▁modification	-5906
▁relationships	-5907
▁restructuring	-5908
defragmentation	-5909
▁authentication	-5910
BinaryExpression	-5911
(3	-5912
48	-5913
8(	-5914
IS	-5915
PN	-5916
Pa	-5917
Up	-5918
['	-5919
ik	-5920
je	-5921
ov	-5922
ym	-5923
▁🎯	-5924
("/	-5925
)))	-5926
=")	-5927
All	-5928
Ass	-5929
Lef	-5930
Sim	-5931
ctx	-5932
els	-5933
rac	-5934
▁"$	-5935
▁"🎓	-5936
▁4)	-5937
▁72	-5938
▁9,	-5939
▁90	-5940
▁Ab	-5941
▁TO	-5942
CIES	-5943
Left	-5944
[1])	-5945
boot	-5946
here	-5947
long	-5948
none	-5949
ored	-5950
pred	-5951
radi	-5952
yond	-5953
zone	-5954
▁###	-5955
▁1.5	-5956
▁20,	-5957
▁CPU	-5958
▁Dec	-5959
▁nxt	-5960
▁two	-5961
▁was	-5962
Analy	-5963
Inter	-5964
Paren	-5965
STRAP	-5966
Torch	-5967
Total	-5968
annot	-5969
chars	-5970
ifier	-5971
olver	-5972
orded	-5973
since	-5974
smoke	-5975
utils	-5976
▁0.05	-5977
▁3.14	-5978
▁512,	-5979
▁BOOT	-5980
▁Base	-5981
▁CORE	-5982
▁FAIL	-5983
▁Mode	-5984
▁area	-5985
▁date	-5986
▁deps	-5987
▁diff	-5988
▁iris	-5989
▁roll	-5990
ensure	-5991
ficial	-5992
groups	-5993
patial	-5994
rolled	-5995
router	-5996
tually	-5997
widget	-5998
▁1000)	-5999
▁FINAL	-6000
▁Image	-6001
▁RESUL	-6002
▁Video	-6003
▁chars	-6004
▁known	-6005
▁masks	-6006
▁noise	-6007
▁space	-6008
Current	-6009
cipient	-6010
lerance	-6011
modular	-6012
outputs	-6013
prepare	-6014
quested	-6015
refresh	-6016
reverse	-6017
▁Export	-6018
▁Weight	-6019
▁append	-6020
▁change	-6021
▁digits	-6022
▁evolve	-6023
▁global	-6024
▁hunger	-6025
▁medium	-6026
▁neuron	-6027
▁stdlib	-6028
QuantumC	-6029
balanced	-6030
ditional	-6031
entiment	-6032
onitored	-6033
parseInt	-6034
premises	-6035
property	-6036
requires	-6037
triggers	-6038
▁Coordin	-6039
▁Example	-6040
▁RUNTIME	-6041
▁Tracker	-6042
▁WORKING	-6043
▁literal	-6044
▁related	-6045
▁suggest	-6046
▁utility	-6047
configure	-6048
normalize	-6049
recursion	-6050
responded	-6051
▁DEPENDEN	-6052
▁Features	-6053
▁approach	-6054
conceptual	-6055
mechanisms	-6056
performing	-6057
priorities	-6058
specifiers	-6059
structural	-6060
summarizer	-6061
trajectory	-6062
▁BOOTSTRAP	-6063
▁Establish	-6064
▁Retrieval	-6065
▁broadcast	-6066
▁deduction	-6067
▁represent	-6068
▁simulated	-6069
▁supported	-6070
topological	-6071
▁Simulation	-6072
▁assignment	-6073
▁suggestion	-6074
commendation	-6075
▁probability	-6076
▁propagation	-6077
metacognitive	-6078
nTranscendent	-6079
▁DEPENDENCIES	-6080
▁observations	-6081
▁Configuration	-6082
(5	-6083
-8	-6084
3"	-6085
4.	-6086
53	-6087
:\	-6088
Al	-6089
PL	-6090
aw	-6091
ps	-6092
▁^	-6093
"};	-6094
(".	-6095
([]	-6096
-1"	-6097
244	-6098
AND	-6099
MAX	-6100
UMM	-6101
_")	-6102
ays	-6103
tmp	-6104
▁"🔒	-6105
▁<<	-6106
▁ER	-6107
▁LO	-6108
▁Te	-6109
▁gu	-6110
▁lr	-6111
Cont	-6112
High	-6113
Meta	-6114
Real	-6115
URAL	-6116
apun	-6117
cohe	-6118
conn	-6119
days	-6120
gacy	-6121
harm	-6122
heap	-6123
help	-6124
osen	-6125
rays	-6126
rely	-6127
seen	-6128
sity	-6129
▁"⏱️	-6130
▁(0.	-6131
▁16,	-6132
▁3.0	-6133
▁BEN	-6134
▁Mod	-6135
▁NOW	-6136
▁Vir	-6137
▁adv	-6138
▁com	-6139
▁elf	-6140
▁how	-6141
▁quo	-6142
▁too	-6143
0000,	-6144
achie	-6145
agrap	-6146
alpha	-6147
ausal	-6148
grity	-6149
mpool	-6150
music	-6151
tents	-6152
▁Comb	-6153
▁addr	-6154
▁clus	-6155
▁dist	-6156
▁pair	-6157
▁resp	-6158
▁simp	-6159
▁vals	-6160
▁{}),	-6161
00000)	-6162
ARNING	-6163
UMMARY	-6164
ansion	-6165
apunov	-6166
coming	-6167
drives	-6168
gained	-6169
prefix	-6170
reduce	-6171
toggle	-6172
▁Block	-6173
▁Chain	-6174
▁Conne	-6175
▁ERROR	-6176
▁Write	-6177
▁indeg	-6178
▁links	-6179
▁music	-6180
▁peers	-6181
▁ports	-6182
▁small	-6183
QUANTUM	-6184
Runtime	-6185
aligned	-6186
backups	-6187
cohered	-6188
corator	-6189
markers	-6190
timated	-6191
▁Active	-6192
▁MODERN	-6193
▁checks	-6194
▁levels	-6195
▁linked	-6196
▁period	-6197
▁strict	-6198
PENDENCE	-6199
adjusted	-6200
criteria	-6201
enriched	-6202
estimate	-6203
relevant	-6204
sysproxy	-6205
▁SYSTEMS	-6206
▁advance	-6207
▁closing	-6208
▁defined	-6209
▁helpers	-6210
▁learner	-6211
▁stopped	-6212
annealing	-6213
anomalies	-6214
authentic	-6215
deduction	-6216
documents	-6217
▁LAUNCHER	-6218
▁Resource	-6219
▁Retrieve	-6220
▁elements	-6221
▁identify	-6222
▁parallel	-6223
▁platform	-6224
▁regulate	-6225
▁standard	-6226
multiverse	-6227
successors	-6228
timestamps	-6229
▁Available	-6230
▁alternate	-6231
▁consensus	-6232
▁generator	-6233
▁implement	-6234
Performance	-6235
chestration	-6236
conversions	-6237
elimination	-6238
prioritized	-6239
▁Validating	-6240
▁automation	-6241
▁requesting	-6242
▁structural	-6243
correlations	-6244
interactions	-6245
storytelling	-6246
▁Interpreter	-6247
▁connections	-6248
preprocessing	-6249
revolutionary	-6250
▁INDEPENDENCE	-6251
▁INITIALIZING	-6252
▁Mathematical	-6253
▁consequences	-6254
authentication	-6255
unregistration	-6256
▁Revolutionary	-6257
▁opportunities	-6258
▁preprocessing	-6259
ReturnStatement	-6260
0"	-6261
4"	-6262
47	-6263
73	-6264
8.	-6265
EX	-6266
ev	-6267
(-1	-6268
(4,	-6269
,",	-6270
AGI	-6271
INI	-6272
Man	-6273
PRO	-6274
URL	-6275
cmp	-6276
dtt	-6277
evi	-6278
fou	-6279
iou	-6280
jor	-6281
mul	-6282
pic	-6283
rag	-6284
rim	-6285
stt	-6286
▁"✨	-6287
▁"🧮	-6288
▁"🧹	-6289
▁'$	-6290
▁0:	-6291
▁31	-6292
▁43	-6293
▁];	-6294
▁ai	-6295
▁au	-6296
▁ds	-6297
▁ed	-6298
003,	-6299
Host	-6300
Inte	-6301
MARK	-6302
acle	-6303
coll	-6304
dget	-6305
edit	-6306
iris	-6307
only	-6308
repl	-6309
seed	-6310
tone	-6311
tree	-6312
unix	-6313
vals	-6314
▁"|"	-6315
▁123	-6316
▁1].	-6317
▁FOR	-6318
▁Gro	-6319
▁Int	-6320
▁Let	-6321
▁Min	-6322
▁VER	-6323
▁VPN	-6324
▁box	-6325
▁den	-6326
▁our	-6327
▁pop	-6328
▁pub	-6329
▁red	-6330
▁tra	-6331
Phase	-6332
Start	-6333
Steps	-6334
https	-6335
julia	-6336
loads	-6337
maint	-6338
owels	-6339
perio	-6340
rings	-6341
roved	-6342
strip	-6343
▁FILE	-6344
▁Look	-6345
▁bbox	-6346
▁case	-6347
▁comb	-6348
▁done	-6349
▁here	-6350
▁must	-6351
▁rele	-6352
▁vari	-6353
CHMARK	-6354
TERNAL	-6355
ategor	-6356
needed	-6357
routed	-6358
vative	-6359
▁0.88,	-6360
▁1.0],	-6361
▁DEMON	-6362
▁audio	-6363
▁clamp	-6364
▁hours	-6365
▁shape	-6366
▁today	-6367
003,244	-6368
Explore	-6369
ILATION	-6370
aintain	-6371
batches	-6372
compose	-6373
density	-6374
fourier	-6375
respond	-6376
uristic	-6377
▁"1.0",	-6378
▁0.707,	-6379
▁3.1415	-6380
▁Attemp	-6381
▁Kernel	-6382
▁Number	-6383
▁Worker	-6384
▁across	-6385
▁alerts	-6386
Applying	-6387
Behavior	-6388
Increase	-6389
children	-6390
cooldown	-6391
division	-6392
enalties	-6393
syndrome	-6394
terprise	-6395
▁Reinfor	-6396
▁SUMMARY	-6397
▁Shaping	-6398
▁Solving	-6399
▁blocked	-6400
▁minimal	-6401
▁novelty	-6402
▁product	-6403
▁thought	-6404
algebraic	-6405
assembler	-6406
initiated	-6407
monitored	-6408
websocket	-6409
▁Creative	-6410
▁EXTERNAL	-6411
▁Expected	-6412
▁LANGUAGE	-6413
▁Optional	-6414
▁Protocol	-6415
▁Provides	-6416
▁Received	-6417
▁achieved	-6418
▁combined	-6419
▁dispatch	-6420
▁rollback	-6421
▁sentient	-6422
ailability	-6423
difference	-6424
formatting	-6425
hypotheses	-6426
recognized	-6427
scheduling	-6428
▁BENCHMARK	-6429
▁connected	-6430
▁frequency	-6431
▁listeners	-6432
▁selection	-6433
▁validated	-6434
▁websocket	-6435
IfStatement	-6436
constraints	-6437
coordinates	-6438
coordinator	-6439
experiments	-6440
extractions	-6441
information	-6442
▁categories	-6443
▁deployment	-6444
▁identifier	-6445
▁middleware	-6446
▁regulation	-6447
▁resolution	-6448
▁workspaces	-6449
▁INTEGRATION	-6450
▁Reinforcing	-6451
▁development	-6452
▁holographic	-6453
opportunities	-6454
restructuring	-6455
segmentations	-6456
▁requirements	-6457
multiplication	-6458
▁Bootstrapping	-6459
▁IMPLEMENTATION	-6460
-1	-6461
Bo	-6462
IG	-6463
RU	-6464
cv	-6465
lk	-6466
ns	-6467
▁β	-6468
🖥️	-6469
("📊	-6470
(5,	-6471
/8:	-6472
1];	-6473
416	-6474
CON	-6475
How	-6476
Max	-6477
ets	-6478
lto	-6479
non	-6480
pad	-6481
rdx	-6482
▁"🌊	-6483
▁"🌍	-6484
▁21	-6485
▁37	-6486
▁39	-6487
▁44	-6488
▁49	-6489
▁67	-6490
▁75	-6491
["__	-6492
[0],	-6493
coff	-6494
fort	-6495
grim	-6496
home	-6497
lify	-6498
loor	-6499
maps	-6500
oked	-6501
proc	-6502
tile	-6503
wave	-6504
▁"1"	-6505
▁"🖥️	-6506
▁16)	-6507
▁End	-6508
▁THE	-6509
▁TRA	-6510
▁ops	-6511
▁{0:	-6512
ABLED	-6513
ancel	-6514
andbo	-6515
ceive	-6516
exist	-6517
facts	-6518
hical	-6519
kyber	-6520
lined	-6521
mined	-6522
modes	-6523
pause	-6524
proof	-6525
shard	-6526
stall	-6527
tured	-6528
undan	-6529
uspic	-6530
▁Deep	-6531
▁MAIN	-6532
▁PARS	-6533
▁REPL	-6534
▁arti	-6535
▁dest	-6536
▁just	-6537
▁like	-6538
▁sent	-6539
Experi	-6540
Plugin	-6541
ceeded	-6542
charac	-6543
gesort	-6544
isters	-6545
olated	-6546
option	-6547
plicit	-6548
poetry	-6549
resist	-6550
riting	-6551
solved	-6552
unload	-6553
verses	-6554
▁Adapt	-6555
▁Entry	-6556
▁Spawn	-6557
▁Speed	-6558
▁below	-6559
▁linux	-6560
▁setup	-6561
▁slice	-6562
▁until	-6563
Emitter	-6564
Program	-6565
Reality	-6566
cleared	-6567
dictive	-6568
failing	-6569
ismatch	-6570
offline	-6571
overlay	-6572
private	-6573
prompts	-6574
ventory	-6575
▁10000,	-6576
▁ACHIEV	-6577
▁Adjust	-6578
▁Listen	-6579
▁Passed	-6580
▁Repair	-6581
▁SIMPLE	-6582
▁adjust	-6583
▁common	-6584
▁drives	-6585
▁growth	-6586
▁limits	-6587
▁runner	-6588
STRATION	-6589
andboxed	-6590
computed	-6591
determin	-6592
finished	-6593
gressive	-6594
inactive	-6595
inlining	-6596
memoized	-6597
previous	-6598
recorded	-6599
umptions	-6600
unrolled	-6601
▁COMPILE	-6602
▁Compare	-6603
▁Handles	-6604
▁RESULTS	-6605
▁Setting	-6606
▁Weights	-6607
▁algebra	-6608
▁changed	-6609
▁garbage	-6610
▁hashmap	-6611
▁minutes	-6612
▁returns	-6613
▁support	-6614
▁valence	-6615
▁virtual	-6616
Execution	-6617
OrHandler	-6618
autostart	-6619
constants	-6620
interpret	-6621
modulator	-6622
propagate	-6623
reachable	-6624
readiness	-6625
regulator	-6626
streaming	-6627
uspicious	-6628
▁Applying	-6629
▁Creating	-6630
▁Creation	-6631
▁ENHANCED	-6632
▁conflict	-6633
▁critical	-6634
▁disabled	-6635
▁distance	-6636
▁inflight	-6637
▁inlining	-6638
▁matching	-6639
curriculum	-6640
rospective	-6641
rustration	-6642
▁Curiosity	-6643
▁ecosystem	-6644
▁establish	-6645
▁evaluated	-6646
▁immediate	-6647
▁interpret	-6648
▁intervals	-6649
▁morphisms	-6650
▁operators	-6651
▁requested	-6652
computation	-6653
conclusions	-6654
established	-6655
objectivity	-6656
permissions	-6657
▁Confidence	-6658
▁Dimensions	-6659
▁SUCCESSFUL	-6660
▁Validation	-6661
▁hypotheses	-6662
▁scheduling	-6663
requirements	-6664
▁application	-6665
▁transformer	-6666
probabilities	-6667
▁DEMONSTRATION	-6668
▁Transcendence	-6669
▁normalization	-6670
▁Initialization	-6671
▁defragmentation	-6672
0;	-6673
36	-6674
5.	-6675
=1	-6676
>]	-6677
AO	-6678
Na	-6679
TU	-6680
YY	-6681
]"	-6682
sk	-6683
}'	-6684
▁α	-6685
🗣️	-6686
("<	-6687
("{	-6688
01,	-6689
100	-6690
118	-6691
3",	-6692
95,	-6693
Aut	-6694
CPU	-6695
ILL	-6696
Let	-6697
NaN	-6698
PUT	-6699
TEX	-6700
Try	-6701
UTE	-6702
Val	-6703
bob	-6704
dul	-6705
edu	-6706
lex	-6707
mma	-6708
mnt	-6709
nms	-6710
ony	-6711
rah	-6712
rno	-6713
wer	-6714
wik	-6715
zal	-6716
▁"🆔	-6717
▁"🎼	-6718
▁"💭	-6719
▁__	-6720
▁cv	-6721
▁ss	-6722
("",	-6723
67],	-6724
ALID	-6725
FACE	-6726
Goal	-6727
MODE	-6728
UNCT	-6729
[0])	-6730
ameh	-6731
bott	-6732
cial	-6733
deps	-6734
dern	-6735
ents	-6736
kept	-6737
memb	-6738
onal	-6739
▁"."	-6740
▁0",	-6741
▁15,	-6742
▁20)	-6743
▁Vec	-6744
▁`::	-6745
▁dom	-6746
▁dou	-6747
▁net	-6748
▁non	-6749
▁own	-6750
▁tmp	-6751
%)");	-6752
(",")	-6753
10678	-6754
11865	-6755
Agent	-6756
Basic	-6757
ITIES	-6758
audit	-6759
built	-6760
colon	-6761
edges	-6762
errno	-6763
ilith	-6764
instr	-6765
isNaN	-6766
liest	-6767
moder	-6768
plain	-6769
press	-6770
shape	-6771
shell	-6772
sleep	-6773
stitu	-6774
unctu	-6775
▁0.75	-6776
▁2.1,	-6777
▁Adam	-6778
▁Mark	-6779
▁PASS	-6780
▁Rest	-6781
▁TRAN	-6782
▁free	-6783
▁perf	-6784
FAILED	-6785
YTHING	-6786
defrag	-6787
dulrah	-6788
evolve	-6789
itched	-6790
locity	-6791
mitted	-6792
oldest	-6793
olding	-6794
ourier	-6795
quanti	-6796
scribe	-6797
solute	-6798
thresh	-6799
tracks	-6800
urgent	-6801
▁0.02,	-6802
▁0.85"	-6803
▁Class	-6804
▁Goals	-6805
▁Query	-6806
▁allow	-6807
▁greet	-6808
▁scene	-6809
Manager	-6810
abelian	-6811
archive	-6812
lattice	-6813
ractice	-6814
reorgan	-6815
rolling	-6816
scrapes	-6817
tection	-6818
undancy	-6819
volving	-6820
waiting	-6821
written	-6822
zalameh	-6823
▁"1.0.0	-6824
▁Grover	-6825
▁aggreg	-6826
▁counts	-6827
▁inputs	-6828
▁latest	-6829
▁linear	-6830
▁nested	-6831
▁signal	-6832
Enhanced	-6833
Optimize	-6834
aknesses	-6835
approved	-6836
detailed	-6837
ilithium	-6838
increase	-6839
inflight	-6840
modifier	-6841
negative	-6842
restored	-6843
severity	-6844
▁Bitcoin	-6845
▁Insight	-6846
▁Invalid	-6847
▁Manager	-6848
▁Profile	-6849
▁RUNNING	-6850
▁climate	-6851
▁collect	-6852
▁convert	-6853
▁operand	-6854
▁plugins	-6855
▁refresh	-6856
▁restore	-6857
▁unknown	-6858
Interface	-6859
diversity	-6860
dulrahman	-6861
inductive	-6862
modulated	-6863
prompting	-6864
sentiment	-6865
simulator	-6866
▁Feedback	-6867
▁Tokenize	-6868
▁memories	-6869
▁modified	-6870
▁organize	-6871
▁possible	-6872
▁rotation	-6873
▁timeline	-6874
▁validity	-6875
1067811865	-6876
Autonomous	-6877
Confidence	-6878
UNCTUATION	-6879
bootstraps	-6880
clustering	-6881
concurrent	-6882
individual	-6883
preference	-6884
propagated	-6885
unctuation	-6886
utterances	-6887
workspaces	-6888
▁Attention	-6889
▁Awareness	-6890
▁Processed	-6891
▁Structure	-6892
▁entangled	-6893
▁factorial	-6894
▁mergesort	-6895
▁processes	-6896
▁quicksort	-6897
▁realistic	-6898
▁sequences	-6899
Integration	-6900
bifurcation	-6901
restructure	-6902
▁Checkpoint	-6903
▁individual	-6904
augmentation	-6905
frastructure	-6906
▁Coordinator	-6907
▁Topological	-6908
▁persistence	-6909
conversations	-6910
fragmentation	-6911
▁documentation	-6912
ReasoningEngine	-6913
underperforming	-6914
▁counterfactual	-6915
hyperdimensional	-6916
']	-6917
)]	-6918
/√	-6919
0⟩	-6920
='	-6921
CA	-6922
DI	-6923
Di	-6924
KB	-6925
RY	-6926
SY	-6927
``	-6928
eq	-6929
md	-6930
rv	-6931
sm	-6932
▁Z	-6933
▁💬	-6934
!")	-6935
(")	-6936
ERF	-6937
HEN	-6938
OUT	-6939
TIL	-6940
[],	-6941
ced	-6942
ect	-6943
ics	-6944
lip	-6945
osk	-6946
rsi	-6947
tid	-6948
trs	-6949
wap	-6950
▁"📥	-6951
▁2;	-6952
▁On	-6953
▁es	-6954
▁hi	-6955
"]])	-6956
64",	-6957
8080	-6958
ABLE	-6959
EMAN	-6960
SIVE	-6961
TEXT	-6962
circ	-6963
desc	-6964
grid	-6965
jump	-6966
rich	-6967
than	-6968
voke	-6969
}`);	-6970
▁"""	-6971
▁"./	-6972
▁"="	-6973
▁-1)	-6974
▁1),	-6975
▁ARM	-6976
▁Bus	-6977
▁but	-6978
▁cle	-6979
▁hal	-6980
(4));	-6981
([]),	-6982
TOKEN	-6983
angle	-6984
areas	-6985
break	-6986
color	-6987
empty	-6988
endly	-6989
istor	-6990
ncies	-6991
roles	-6992
ticks	-6993
trait	-6994
votes	-6995
▁0.15	-6996
▁0.25	-6997
▁Auth	-6998
▁Cons	-6999
▁NEED	-7000
▁Pers	-7001
▁UTIL	-7002
▁enti	-7003
▁geom	-7004
▁many	-7005
▁post	-7006
▁wrap	-7007
.0.0.0	-7008
WORKER	-7009
assign	-7010
causal	-7011
charts	-7012
divide	-7013
encing	-7014
idance	-7015
istics	-7016
layout	-7017
member	-7018
mental	-7019
resume	-7020
scored	-7021
signed	-7022
steane	-7023
stract	-7024
tiling	-7025
volved	-7026
ynamic	-7027
▁0.0),	-7028
▁Alloc	-7029
▁Cross	-7030
▁Level	-7031
▁SEMAN	-7032
▁Unity	-7033
▁align	-7034
▁chaos	-7035
▁floor	-7036
▁human	-7037
▁ident	-7038
▁needs	-7039
▁ratio	-7040
▁shard	-7041
▁smoke	-7042
▁table	-7043
Network	-7044
Success	-7045
agraphs	-7046
jection	-7047
matched	-7048
omology	-7049
revoked	-7050
riendly	-7051
scoring	-7052
sequent	-7053
sigmoid	-7054
sources	-7055
▁TRANSC	-7056
▁accept	-7057
▁binary	-7058
▁conver	-7059
▁custom	-7060
▁prefix	-7061
▁python	-7062
▁quanti	-7063
▁symbol	-7064
▁uptime	-7065
Starting	-7066
compiled	-7067
earliest	-7068
finalize	-7069
hardware	-7070
mbedding	-7071
measured	-7072
nowledge	-7073
physical	-7074
segments	-7075
velocity	-7076
▁"1"))),	-7077
▁Program	-7078
▁Samples	-7079
▁UTILITY	-7080
▁Virtual	-7081
▁boolean	-7082
▁lattice	-7083
▁neurons	-7084
▁skipped	-7085
▁solving	-7086
▁spatial	-7087
▁written	-7088
Optimizer	-7089
alzalameh	-7090
computing	-7091
expansion	-7092
hitespace	-7093
istorical	-7094
istration	-7095
penalties	-7096
▁"0.0.0.0	-7097
▁Compress	-7098
▁Dialogue	-7099
▁Identity	-7100
▁Provider	-7101
▁SEMANTIC	-7102
▁captured	-7103
▁classify	-7104
▁compress	-7105
▁criteria	-7106
▁explicit	-7107
▁severity	-7108
▁shutdown	-7109
▁starting	-7110
▁verified	-7111
identified	-7112
unregister	-7113
▁Framework	-7114
▁INTERFACE	-7115
▁Operation	-7116
▁Variables	-7117
▁decisions	-7118
▁magnitude	-7119
PUNCTUATION	-7120
abdulrahman	-7121
adaptations	-7122
calculation	-7123
refactoring	-7124
▁GENERATION	-7125
▁PROCESSING	-7126
▁implements	-7127
▁priorities	-7128
insufficient	-7129
▁Certificate	-7130
▁Compilation	-7131
▁alternative	-7132
▁diagnostics	-7133
▁interactive	-7134
▁programming	-7135
entanglements	-7136
▁TRANSCENDENT	-7137
▁milliseconds	-7138
▁tokenization	-7139
▁unauthorized	-7140
CallExpression	-7141
classification	-7142
meaningfulness	-7143
▁reincarnation	-7144
▁recommendation	-7145
▁representation	-7146
▁ReasoningResult	-7147
(/	-7148
-$	-7149
.*	-7150
35	-7151
85	-7152
</	-7153
CK	-7154
DA	-7155
ML	-7156
SU	-7157
Te	-7158
bx	-7159
cp	-7160
kg	-7161
lv	-7162
})	-7163
▁X	-7164
▁Y	-7165
▁🟢	-7166
("*	-7167
(\"	-7168
2);	-7169
Met	-7170
Par	-7171
TES	-7172
TML	-7173
\":	-7174
aim	-7175
eol	-7176
ica	-7177
ins	-7178
inv	-7179
jmp	-7180
lob	-7181
mag	-7182
npy	-7183
osa	-7184
rig	-7185
rpc	-7186
▁"[	-7187
▁$4	-7188
▁(1	-7189
▁63	-7190
▁db	-7191
▁oc	-7192
("::	-7193
32",	-7194
?");	-7195
DEVI	-7196
LOAD	-7197
POCH	-7198
Seek	-7199
TUAL	-7200
ffec	-7201
ighb	-7202
ints	-7203
iter	-7204
lash	-7205
mesg	-7206
movz	-7207
ride	-7208
rown	-7209
shor	-7210
tanh	-7211
vote	-7212
▁").	-7213
▁"00	-7214
▁-0.	-7215
▁1",	-7216
▁11:	-7217
▁1],	-7218
▁400	-7219
▁Ask	-7220
▁TES	-7221
▁act	-7222
▁age	-7223
▁arm	-7224
▁blk	-7225
▁dev	-7226
▁dro	-7227
▁err	-7228
▁fol	-7229
▁got	-7230
▁sym	-7231
▁uni	-7232
(-10)	-7233
1..."	-7234
45678	-7235
Cache	-7236
Multi	-7237
REHEN	-7238
Unity	-7239
align	-7240
bases	-7241
clude	-7242
cting	-7243
flags	-7244
human	-7245
leted	-7246
probe	-7247
rices	-7248
swaps	-7249
tient	-7250
wmesg	-7251
▁0.91	-7252
▁2.0,	-7253
▁5000	-7254
▁Arch	-7255
▁HTML	-7256
▁LOAD	-7257
▁Last	-7258
▁Post	-7259
▁Text	-7260
▁less	-7261
▁prev	-7262
▁repe	-7263
▁what	-7264
Create	-7265
DEVICE	-7266
Export	-7267
FFFFFF	-7268
carded	-7269
finity	-7270
ginica	-7271
halted	-7272
insert	-7273
izable	-7274
manual	-7275
scaped	-7276
smells	-7277
solver	-7278
unused	-7279
▁100.0	-7280
▁FULLY	-7281
▁VALID	-7282
▁[0.1,	-7283
▁curve	-7284
▁exist	-7285
▁extra	-7286
▁prepa	-7287
▁scale	-7288
▁taken	-7289
Dataset	-7290
adapter	-7291
finding	-7292
ination	-7293
revised	-7294
riginal	-7295
sicolor	-7296
sidered	-7297
sitions	-7298
squared	-7299
strings	-7300
thesize	-7301
▁Events	-7302
▁Evolve	-7303
▁Matrix	-7304
▁Saving	-7305
▁Syntax	-7306
▁Vector	-7307
▁fading	-7308
▁inline	-7309
▁mechan	-7310
▁solved	-7311
▁summar	-7312
Evolving	-7313
Semantic	-7314
abilizer	-7315
achieved	-7316
addition	-7317
ampering	-7318
circular	-7319
cleaning	-7320
collabor	-7321
corators	-7322
document	-7323
inverses	-7324
readable	-7325
rejected	-7326
starting	-7327
subtract	-7328
▁0.0001,	-7329
▁Combine	-7330
▁TESTING	-7331
▁cleared	-7332
▁targets	-7333
REHENSIVE	-7334
YTHINGLLM	-7335
abductive	-7336
aesthetic	-7337
deductive	-7338
fications	-7339
formatter	-7340
geometric	-7341
▁ACHIEVED	-7342
▁Assembly	-7343
▁Category	-7344
▁Demonstr	-7345
▁Emitting	-7346
▁actually	-7347
▁entirely	-7348
▁fallback	-7349
▁filename	-7350
▁getState	-7351
▁overhead	-7352
▁prioriti	-7353
Reflection	-7354
arithmetic	-7355
assessment	-7356
calculator	-7357
classifier	-7358
determined	-7359
importance	-7360
▁Completed	-7361
▁compiling	-7362
▁languages	-7363
▁normalize	-7364
▁reduction	-7365
bottlenecks	-7366
frustration	-7367
▁Creativity	-7368
▁OPERATIONS	-7369
▁Registered	-7370
▁Structures	-7371
▁background	-7372
▁behavioral	-7373
▁conclusion	-7374
▁frameworks	-7375
▁motivation	-7376
interchanged	-7377
metaphysical	-7378
observations	-7379
organization	-7380
transmission	-7381
▁Registering	-7382
▁adaptations	-7383
▁experiments	-7384
amplification	-7385
normalization	-7386
vectorization	-7387
▁Architecture	-7388
▁CAPABILITIES	-7389
▁Capabilities	-7390
▁distribution	-7391
▁restructured	-7392
prioritization	-7393
▁COMPREHENSIVE	-7394
▁Teleportation	-7395
▁comprehension	-7396
▁implementations	-7397
4]	-7398
50	-7399
6.	-7400
:3	-7401
Fn	-7402
Hy	-7403
US	-7404
[2	-7405
[]	-7406
db	-7407
("🧪	-7408
(5)	-7409
0.0	-7410
1);	-7411
ATA	-7412
Add	-7413
End	-7414
ISO	-7415
MIZ	-7416
Map	-7417
RID	-7418
YPE	-7419
_10	-7420
bar	-7421
efx	-7422
flu	-7423
mak	-7424
may	-7425
que	-7426
ttl	-7427
zon	-7428
|0⟩	-7429
▁"🌟	-7430
▁"🔑	-7431
▁2"	-7432
▁41	-7433
▁5;	-7434
▁88	-7435
▁DI	-7436
▁Jo	-7437
▁Sa	-7438
▁TR	-7439
▁vs	-7440
▁⚛️	-7441
()))	-7442
-1.0	-7443
.");	-7444
PATH	-7445
ares	-7446
bled	-7447
elds	-7448
hole	-7449
hook	-7450
ield	-7451
ioms	-7452
mute	-7453
onic	-7454
onus	-7455
ours	-7456
pile	-7457
pout	-7458
rial	-7459
soft	-7460
tech	-7461
▁"*"	-7462
▁"+"	-7463
▁'::	-7464
▁1);	-7465
▁128	-7466
▁24)	-7467
▁315	-7468
▁80)	-7469
▁864	-7470
▁999	-7471
▁CAN	-7472
▁Cap	-7473
▁ENT	-7474
▁How	-7475
▁fib	-7476
▁fix	-7477
▁msg	-7478
▁rdi	-7479
(":")	-7480
Event	-7481
False	-7482
ORING	-7483
READY	-7484
TIMIZ	-7485
alled	-7486
ather	-7487
crypt	-7488
ilero	-7489
imize	-7490
inish	-7491
major	-7492
mixed	-7493
noise	-7494
saved	-7495
short	-7496
small	-7497
solve	-7498
times	-7499
tored	-7500
upper	-7501
zones	-7502
▁"").	-7503
▁0.2)	-7504
▁0.94	-7505
▁2000	-7506
▁CALL	-7507
▁CNOT	-7508
▁Coun	-7509
▁DATA	-7510
▁Jump	-7511
▁enab	-7512
▁flag	-7513
▁font	-7514
▁form	-7515
▁safe	-7516
▁side	-7517
▁sync	-7518
▁tanh	-7519
▁uses	-7520
ACTIVE	-7521
Access	-7522
beyond	-7523
buffer	-7524
cancel	-7525
center	-7526
consol	-7527
define	-7528
deploy	-7529
ective	-7530
ensity	-7531
manage	-7532
matmul	-7533
merged	-7534
otonic	-7535
queued	-7536
rename	-7537
shifts	-7538
social	-7539
typeof	-7540
viding	-7541
▁0.01)	-7542
▁Depth	-7543
▁MODEL	-7544
▁Print	-7545
▁areas	-7546
▁colon	-7547
▁large	-7548
▁promp	-7549
▁recur	-7550
▁separ	-7551
▁stmts	-7552
▁where	-7553
000000)	-7554
41667],	-7555
LIMITED	-7556
Meaning	-7557
boolean	-7558
counted	-7559
decimal	-7560
decoded	-7561
ethical	-7562
fluence	-7563
greeter	-7564
keypair	-7565
mpathic	-7566
rmation	-7567
softmax	-7568
tenance	-7569
▁Format	-7570
▁Global	-7571
▁Import	-7572
▁NEEDED	-7573
▁Shaper	-7574
▁author	-7575
▁define	-7576
▁ensure	-7577
▁fusion	-7578
▁logged	-7579
clusters	-7580
friendly	-7581
paration	-7582
sactions	-7583
sessions	-7584
stration	-7585
switched	-7586
syscalls	-7587
unloaded	-7588
▁Channel	-7589
▁Content	-7590
▁Created	-7591
▁Fourier	-7592
▁Logging	-7593
▁Logical	-7594
▁Natural	-7595
▁Reading	-7596
▁Session	-7597
▁[0.707,	-7598
▁matches	-7599
▁require	-7600
1,003,244	-7601
Dimension	-7602
Potential	-7603
collapsed	-7604
corrected	-7605
formatted	-7606
latencies	-7607
portunity	-7608
xFFFFFFFF	-7609
▁Modeling	-7610
▁Scanning	-7611
▁Tracking	-7612
▁addition	-7613
▁assemble	-7614
▁enabling	-7615
▁filtered	-7616
▁homology	-7617
▁literals	-7618
▁maintain	-7619
▁manifest	-7620
▁positive	-7621
▁prepared	-7622
▁preserve	-7623
▁provider	-7624
▁synchron	-7625
PerContext	-7626
Simulation	-7627
conclusion	-7628
frameworks	-7629
narratives	-7630
▁Parameter	-7631
▁character	-7632
▁encrypted	-7633
▁inductive	-7634
▁preferred	-7635
▁recipient	-7636
▁sandboxed	-7637
Unsupported	-7638
interchange	-7639
terministic	-7640
unavailable	-7641
▁Arithmetic	-7642
▁BENCHMARKS	-7643
▁Evaluation	-7644
▁Identifier	-7645
▁candidates	-7646
▁conditions	-7647
▁conversion	-7648
▁curriculum	-7649
▁definition	-7650
▁throughput	-7651
▁Interactive	-7652
▁intelligent	-7653
▁observation	-7654
ReasoningType	-7655
decompression	-7656
▁connectivity	-7657
▁demonstrates	-7658
▁independence	-7659
▁metaphysical	-7660
▁registration	-7661
collaborations	-7662
▁computational	-7663
ArrayExpression	-7664
▁classification	-7665
52	-7666
94	-7667
LM	-7668
az	-7669
bs	-7670
pi	-7671
ru	-7672
▁🔄	-7673
1":	-7674
2];	-7675
339	-7676
4",	-7677
45,	-7678
932	-7679
:0.	-7680
Ent	-7681
ITE	-7682
LHA	-7683
MAL	-7684
Min	-7685
SIS	-7686
Set	-7687
ULY	-7688
asc	-7689
asy	-7690
bet	-7691
can	-7692
eme	-7693
fnv	-7694
gue	-7695
lat	-7696
▁	-7697
e	-7698
t	-7699
s	-7700
n	-7701
a	-7702
i	-7703
r	-7704
o	-7705
:	-7706
l	-7707
c	-7708
_	-7709
u	-7710
m	-7711
=	-7712
p	-7713
d	-7714
"	-7715
g	-7716
.	-7717
h	-7718
y	-7719
f	-7720
,	-7721
-	-7722
}	-7723
{	-7724
v	-7725
)	-7726
(	-7727
b	-7728
w	-7729
0	-7730
k	-7731
z	-7732
x	-7733
q	-7734
#	-7735
/	-7736
1	-7737
A	-7738
+	-7739
S	-7740
T	-7741
E	-7742
[	-7743
]	-7744
C	-7745
L	-7746
I	-7747
;	-7748
P	-7749
M	-7750
R	-7751
2	-7752
N	-7753
|	-7754
3	-7755
O	-7756
$	-7757
j	-7758
Z	-7759
5	-7760
D	-7761
4	-7762
F	-7763
U	-7764
>	-7765
8	-7766
6	-7767
G	-7768
!	-7769
H	-7770
9	-7771
B	-7772
7	-7773
&	-7774
*	-7775
✅	-7776
Q	-7777
\	-7778
<	-7779
'	-7780
━	-7781
V	-7782
📊	-7783
W	-7784
Y	-7785
🎯	-7786
🧠	-7787
️	-7788
%	-7789
🚀	-7790
❌	-7791
K	-7792
?	-7793
🧪	-7794
🔧	-7795
🔍	-7796
`	-7797
X	-7798
🔄	-7799
📋	-7800
🎉	-7801
🔗	-7802
→	-7803
📝	-7804
J	-7805
📈	-7806
⚠	-7807
⚡	-7808
💾	-7809
🔥	-7810
⟩	-7811
🔌	-7812
@	-7813
📦	-7814
⚛	-7815
📁	-7816
💬	-7817
🔐	-7818
📖	-7819
🔬	-7820
🌐	-7821
📚	-7822
🛡	-7823
^	-7824
🤖	-7825
🏗	-7826
📡	-7827
⏳	-7828
🛑	-7829
💡	-7830
•	-7831
🔢	-7832
🚨	-7833
🎭	-7834
⏰	-7835
⚙	-7836
🎁	-7837
📤	-7838
🗑	-7839
🏆	-7840
🔮	-7841
🟢	-7842
√	-7843
⏱	-7844
🎓	-7845
🔒	-7846
✨	-7847
🧮	-7848
🧹	-7849
β	-7850
🌊	-7851
🌍	-7852
🎼	-7853
🖥	-7854
α	-7855
🆔	-7856
💭	-7857
🗣	-7858
📥	-7859
🌟	-7860
🔑	-7861
🔤	-7862
👋	-7863
📉	-7864
📨	-7865
🤝	-7866
❓	-7867
💪	-7868
🚌	-7869
ψ	-7870
█	-7871
🎨	-7872
💚	-7873
📏	-7874
✓	-7875
🌀	-7876
🌌	-7877
🏢	-7878
🏷	-7879
🧩	-7880
✍	-7881
🎤	-7882
🎬	-7883
🏥	-7884
🐍	-7885
👁	-7886
📂	-7887
🔽	-7888
🕒	-7889
🖼	-7890
🧬	-7891
~	-7892
Φ	-7893
–	-7894
∪	-7895
🌳	-7896
📅	-7897
📍	-7898
📐	-7899
🔎	-7900
🔨	-7901
🎮	-7902
🎲	-7903
💥	-7904
📜	-7905
🔴	-7906
🛠	-7907
🟨	-7908
🦀	-7909
μ	-7910
🏛	-7911
🏭	-7912
👤	-7913
👥	-7914
💻	-7915
🛤	-7916
🤔	-7917
—	-7918
⊗	-7919
⛏	-7920
➡	-7921
⭐	-7922
🌉	-7923
🍎	-7924
🎊	-7925
🎙	-7926
🎚	-7927
🐧	-7928
👂	-7929
💓	-7930
🔓	-7931
🟠	-7932
🧭	-7933
🩺	-7934
🪟	-7935
×	-7936
γ	-7937
π	-7938
∩	-7939
≤	-7940
⚖	-7941
⛓	-7942
🌅	-7943
🎆	-7944
🎞	-7945
🏁	-7946
👍	-7947
📄	-7948
📢	-7949
🔇	-7950
🔊	-7951
🕐	-7952
🗂	-7953
🚫	-7954
🛰	-7955
🟡	-7956
🧊	-7957
∈	-7958
∉	-7959
∏	-7960
∑	-7961
∞	-7962
∫	-7963
≠	-7964
≥	-7965
⊂	-7966
⊃	-7967
⏭	-7968
░	-7969
▶	-7970
⚪	-7971
⬅	-7972
🆕	-7973
🐛	-7974
👀	-7975
💍	-7976
💝	-7977
💰	-7978
💸	-7979
📎	-7980
📱	-7981
📸	-7982
📹	-7983
🗳	-7984
😔	-7985
😴	-7986
🚗	-7987
🚪	-7988
🛣	-7989
🥇	-7990
🥈	-7991
🥉	-7992
🧘	-7993
🧱	-7994
🧾	-7995
🪞	-7996
